to
in
of
for
on
's
<unk>
##
with
at
says
new
us
china
as
the
and
a
u.s.
#
over
from
after
up
s
president
against
world
iraq
percent
police
killed
####
stocks
more
talks
chinese
is
first
###
;
eu
down
be
minister
government
south
close
two
out
shares
wins
oil
court
#.#
calls
bush
higher
leader
cup
chief
un
hong
kong
not
iran
pakistan
open
dollar
bank
lower
will
former
trade
russia
india
british
into
israel
visit
foreign
french
security
war
urges
prices
peace
russian
military
israeli
may
death
stock
taiwan
top
#-#
$
attack
off
million
no
win
deal
dead
#.##
but
german
plan
france
end
group
three
back
case
it
nuclear
official
dies
korea
market
pm
gold
state
say
man
clinton
about
party
troops
indian
australian
opposition
year
rise
leaders
obama
kills
set
european
trial
africa
aid
meet
north
his
record
women
house
economic
one
officials
australia
election
profit
city
strike
sri
britain
iraqi
opens
u.n.
vote
years
news
home
palestinian
meets
day
takes
warns
lead
plans
help
air
rebels
has
rights
its
fire
report
indonesia
afghanistan
african
germany
bomb
second
amid
gets
team
international
thai
asian
that
protest
four
high
arrested
fall
army
seeks
turkey
he
s.
ahead
defense
reports
brazil
mexico
attacks
tokyo
meeting
gaza
sales
take
crisis
afghan
people
drug
who
bid
nato
injured
billion
beats
final
summit
central
parliament
support
american
east
crash
national
west
hold
philippine
hits
still
return
fight
budget
london
beijing
southern
kill
lanka
time
test
ties
probe
sign
n't
workers
index
canada
charges
could
rises
next
are
zimbabwe
vietnam
elections
arrest
than
border
soldiers
olympic
despite
service
found
rate
spain
judge
five
economy
bill
ban
power
exchange
call
malaysia
killing
dollars
flu
#,###
york
italy
prime
political
law
league
major
under
denies
violence
growth
have
presidential
get
cooperation
closes
forces
leaves
premier
turkish
cut
plane
myanmar
head
health
street
title
indonesian
northern
wall
euro
force
race
rules
key
week
korean
italian
again
wants
egypt
philippines
campaign
tour
claims
company
pct
car
coach
europe
big
near
gas
make
zealand
games
missing
men
sees
business
hopes
united
blast
makes
rally
show
early
arrives
six
senate
discuss
england
this
suspected
face
thailand
some
lebanon
rejects
terror
baghdad
work
all
ends
start
share
mixed
vows
bangladesh
results
spanish
falls
envoy
seek
an
nigeria
general
global
announces
sets
markets
cuts
council
orders
victims
signs
palestinians
suspect
faces
hk
shanghai
woman
saudi
free
children
tax
agreement
tv
white
go
states
greek
trading
offers
least
human
before
last
price
school
soccer
visits
another
life
third
release
charged
california
suicide
yen
ready
militants
kosovo
boost
toll
t
victory
gives
leads
asia
rates
expected
pay
drop
investment
murder
conference
food
move
bombing
accused
jordan
loss
agree
begins
##.#
ruling
texas
fm
congress
union
launch
condemns
hit
program
launches
protests
center
reach
coast
public
airport
prison
holds
canadian
held
during
rebel
policy
hamas
king
office
offer
can
accident
game
role
##,###
play
taipei
continue
clash
quarter
mideast
round
energy
kenya
jobs
march
nepal
was
dutch
their
industry
returns
action
strong
between
thousands
ministers
pakistani
battle
financial
sudan
issue
fighting
beat
family
change
america
shows
leave
study
greece
use
star
firm
threat
keep
issues
venezuela
alleged
##th
countries
reform
demand
urged
mexican
pope
plant
asks
mission
control
finds
malaysian
ukraine
red
months
quake
join
debate
soldier
inflation
stage
buy
money
lawmakers
fears
net
iranian
increase
students
moves
cabinet
swiss
argentina
earnings
possible
nations
taliban
arab
data
illegal
road
die
system
islamic
decision
members
train
bus
labor
guilty
ireland
dispute
season
media
explosion
gains
paris
syria
if
agency
wounded
names
kashmir
arms
welcomes
development
contract
goes
press
defends
olympics
nigerian
efforts
future
terrorism
washington
internet
arafat
sanctions
fund
hospital
bird
muslim
through
find
posts
profits
starts
seven
interest
fed
give
water
pledges
production
storm
match
sports
film
suspects
begin
democrats
cuba
eastern
banks
backs
western
aids
stop
drops
bosnia
way
shooting
town
sentenced
most
continues
due
authorities
search
crimes
uganda
joint
mayor
colombia
###,###
groups
host
shot
moscow
poll
refugees
run
cyprus
uk
governor
czech
companies
anniversary
debt
project
cases
panel
raises
pressure
georgia
threatens
agrees
senior
corruption
emergency
job
push
ship
remains
mln
funds
body
other
accuses
jail
stay
exports
good
province
eight
resume
child
resigns
scandal
site
protesters
low
reported
confirms
points
reaches
land
deaths
mark
putin
haiti
send
strikes
bosnian
airlines
fraud
investors
poland
embassy
space
jailed
sale
chairman
florida
players
sends
church
kuwait
congo
experts
secretary
tells
sell
little
gulf
charge
black
federal
crashes
coalition
days
concerns
trip
likely
must
sweden
rice
step
among
seen
sea
her
build
brazilian
heads
%
claim
slightly
finance
advance
blasts
tests
supreme
wo
post
raid
clashes
demands
missile
country
blair
polls
sex
break
safety
local
regional
loses
flight
station
month
vice
cox
#q
should
climate
list
put
progress
they
deficit
earthquake
polish
named
row
delegation
convicted
real
fuel
without
detained
commission
would
slams
arrests
hope
egyptian
see
saddam
abuse
madrid
festival
firms
flights
changes
past
steps
now
drugs
lankan
july
since
giant
draw
tennis
deadly
championship
colombian
son
wife
board
scores
puts
candidate
credit
futures
june
urge
us$
mccain
travel
hails
ambassador
small
gop
imf
camp
officer
gov
de
line
largest
relief
region
look
pact
further
wto
investigation
lebanese
university
concern
opening
mine
darfur
base
sharply
americans
talk
no.
champions
challenge
island
warning
relations
peru
microsoft
middle
special
cancer
do
attend
cambodia
zambia
late
parties
gm
rescue
keeps
accord
better
pleads
irish
half
promises
terrorist
nine
training
right
traffic
tough
fans
education
rule
stake
expects
votes
private
champion
grand
criticizes
delay
series
book
justice
fires
building
lawyer
spending
san
focus
settlement
following
activists
raise
latest
released
swedish
proposes
legal
chile
looks
nkorea
operation
best
turns
prize
part
committee
medical
journalist
romania
extends
bln
resolution
gay
executive
breaks
order
prosecutors
care
long
serb
export
consumer
miss
target
or
plot
review
joins
serbia
passes
portugal
process
measures
norway
seize
tourism
civil
scientists
phone
dlrs
questions
fresh
injury
crime
nearly
hurt
hundreds
poor
young
loan
remain
immigration
unit
try
weather
reporting
losses
heavy
bonds
output
old
others
being
fair
effort
jerusalem
construction
auto
club
deputy
croatia
delays
confidence
music
airline
surge
area
officers
gain
hostage
suspended
alert
surgery
behind
annan
said
him
problems
friday
fails
river
away
navy
jury
_
heart
sector
republic
prisoners
director
research
&amp;
##-##
monday
zone
helicopter
many
player
militant
toward
ivory
tries
unveils
recovery
pacific
stars
bombings
yeltsin
form
tuesday
fourth
football
forecast
morning
crackdown
reforms
name
overseas
cross
targets
leading
cities
gore
prosecutor
dow
becomes
schools
treaty
chavez
links
want
serbs
industrial
suit
guard
bodies
hurricane
sunday
al-qaida
draws
xinhua
candidates
#th
contributed
immigrants
championships
award
block
student
rising
outside
museum
chechnya
bans
squad
currency
rival
kenyan
commander
farmers
technology
advances
worries
term
proposal
times
injures
park
turn
rangers
somali
govt
guantanamo
biggest
lawsuit
closer
mass
friendly
soon
boeing
ease
costs
need
powell
arabia
own
too
n.
marks
floods
eyes
awards
supply
track
macao
tourists
mother
jump
staff
social
jewish
civilians
field
only
around
when
ceo
history
argentine
#st
helps
crude
prince
services
boat
st.
suspends
spy
protection
risk
sars
ethiopia
bulgaria
computer
sept.
journalists
improve
unemployment
place
gunmen
wednesday
straight
fbi
los
jet
green
online
thursday
records
constitution
john
kurdish
tanzania
video
democratic
steady
boy
seeking
austria
disease
double
short
#nd
flood
art
williams
lifts
does
davis
nobel
cash
praises
girl
member
ford
forum
bomber
austrian
hearing
tamil
protect
inquiry
insurance
referendum
taking
sentence
pledge
nba
ground
armed
asean
arrive
disaster
session
opec
number
housing
somalia
admits
sues
buys
quits
refuses
across
huge
promote
skorea
sharon
bombs
main
hostages
deadline
decline
become
refugee
link
angola
freed
lawmaker
enterprises
yemen
voters
college
brown
lawyers
criticism
jackson
grows
draft
rocket
needs
shiite
trying
network
libya
cuban
ministry
save
january
jakarta
web
dprk
halt
administration
doctors
light
coup
angeles
ugandan
concerned
holiday
flat
iraqis
treatment
lose
hotel
planned
killer
conflict
files
positive
prepares
bring
chirac
jets
rain
banned
tsunami
increases
supports
abbas
tops
while
full
belgian
linked
diplomatic
success
jobless
father
drive
edge
november
brings
swine
mainland
annual
extend
tournament
cricket
october
operations
activist
takeover
truce
speech
hungary
religious
seoul
syrian
confident
port
blames
aims
republicans
september
dialogue
tourist
slain
doping
intelligence
latin
republican
timor
telecom
baby
romanian
boycott
department
fear
information
ethnic
diplomat
bad
aircraft
receives
boston
pipeline
winner
expand
merger
pentagon
how
athens
independence
maker
imports
ecuador
great
weak
just
weeks
parliamentary
crew
stand
scoreboard
pilot
residents
making
queen
peacekeepers
youth
act
damage
families
sarkozy
level
above
defeat
radio
belarus
super
tiger
expresses
products
smuggling
milan
welcome
basketball
danish
farm
withdrawal
cambodian
homes
venezuelan
rare
steel
qualifier
democracy
jones
chechen
islands
nation
comes
declares
lift
nyc
berlin
treasury
baseball
chicago
historic
belgium
cost
doctor
attempt
rwanda
considers
bond
debut
vietnamese
evidence
giants
unity
pulls
israelis
left
areas
auction
plunge
killings
saturday
projects
ask
warn
looking
hand
planes
releases
musharraf
penalty
access
retail
august
cia
well
tensions
aide
prepare
secret
speaker
hezbollah
teen
ukrainian
sells
announce
denmark
manager
alliance
strategy
christmas
cause
come
cancels
uae
tobacco
tibet
growing
boss
lost
netherlands
teams
vow
truck
mubarak
kerry
resumes
response
working
sentences
expansion
rock
enter
assembly
barcelona
situation
worlds
resign
communist
politics
pushes
threats
midday
finland
bourse
event
macedonia
village
outlook
domestic
fifa
shuttle
amnesty
made
offensive
heat
milosevic
muslims
until
threaten
dismisses
manila
satellite
winning
chelsea
controversial
laws
allow
l
slow
had
running
fail
troop
date
presidency
marathon
massacre
assets
stresses
avoid
loans
investigate
dozens
quit
serbian
far
movie
large
outbreak
mobile
masters
english
factory
wounds
##-year
combat
nasa
rallies
less
senator
la
massive
burundi
funeral
mozambique
driver
closed
winter
request
deals
problem
arsenal
chiefs
hockey
unions
challenges
yugoslavia
venture
gun
toyota
eye
hollywood
assault
hard
johnson
vatican
ring
hall
rebound
expert
chance
reject
strengthen
ordered
withdraws
genocide
leadership
bailout
diplomats
zambian
switzerland
dubai
status
summer
injuries
provide
cars
weekend
below
royal
hands
fired
defeats
agenda
question
split
february
cell
catholic
invest
won
airbus
survey
parents
northwest
goal
berlusconi
mosque
allegations
community
classic
watchdog
hunt
###m
coal
clear
even
pilots
northeast
michael
supporters
seized
abortion
q#
she
euros
celebrates
facing
forward
airways
finish
boosts
passenger
sudanese
celebrate
resignation
county
netanyahu
qatar
int
albania
detain
spot
google
pays
planning
funding
exhibition
trafficking
settle
voting
victim
extradition
rome
decide
skorean
troubled
delayed
called
slide
optimistic
civilian
survivors
honor
memorial
beef
plays
bankruptcy
enters
consider
allies
algeria
point
going
membership
senators
indicted
grants
competition
revenue
negotiations
causes
attorney
leone
yankees
portuguese
costa
liverpool
marriage
actor
speed
forest
taiwanese
norwegian
cleric
poverty
december
where
chemical
like
roc
surplus
what
because
cease-fire
nz
kids
age
develop
software
tropical
bay
mandela
daughter
package
cargo
sue
kabul
freedom
changed
clears
passengers
given
told
criminal
doubles
entry
reduce
love
edges
solution
ioc
millions
management
moderate
struggle
proposed
van
lives
defend
parts
might
used
spill
ice
environment
jordanian
pick
woes
course
semifinals
rail
rose
night
ceremony
fined
georgian
grow
elected
recall
message
banking
tie
uefa
yet
selling
bail
precede
humanitarian
worker
yuan
picks
shenzhen
nears
medal
confirmed
cocaine
prevent
ecb
curb
slump
tigers
asylum
jersey
transport
e.
details
property
bilateral
marine
dole
critics
terrorists
presidents
rivals
advisory
vs.
cold
blood
were
reserves
croatian
peacekeeping
tehran
ny
himself
singer
hang
smith
assassination
lakers
calm
lee
receive
#rd
forex
environmental
rugby
detention
failure
citizens
safe
raids
landing
couple
bin
hike
direct
albanian
southeast
woods
rockets
gather
pull
address
bulgarian
conditions
dodgers
mulls
using
ancient
mostly
soar
investigators
ceasefire
ii
powers
create
comeback
gdp
hours
shut
prix
sweep
unchanged
worth
several
documents
fifth
postponed
seat
predicts
rwandan
railway
hunger
denounces
transfer
a\/h#n#
b
import
mugabe
bids
expectations
sinks
owner
stronger
bp
laden
agent
custody
sox
sites
bangladeshi
sent
daily
riot
guards
holocaust
arizona
writer
population
watch
liberia
cheney
interior
both
finals
collision
vaccine
dissident
nepali
blue
recession
accept
employees
golf
teachers
crown
flee
stays
policemen
sierra
launched
hot
science
##.##
eases
lake
detroit
federer
aceh
buying
accepts
opener
restrictions
virus
usd
morocco
beach
wild
postpones
bridge
unrest
within
majority
atlanta
brother
convention
few
mets
castro
bhutto
tech
priest
afp
quarterfinals
author
career
lack
comments
opposes
critical
presses
nfl
tribunal
nazi
snow
veteran
blow
merkel
getting
sparks
declines
patients
russians
withdraw
summary
recalls
income
disputed
ad
pole
position
##-year-old
disney
natural
highway
female
surprise
jumps
indies
visa
fishing
fine
suggests
verdict
foreigners
politician
plants
commonwealth
needed
customs
allows
anti-terror
compromise
caribbean
serious
including
evacuated
volleyball
'##
pirates
asia-pacific
christian
closing
peaceful
limits
you
ousted
exercise
seizes
ohio
cairo
coming
guinea
pollution
al
qualifying
slips
hungarian
bolivia
plea
zimbabwean
stadium
century
reserve
suffers
spurs
stolen
leaving
much
sydney
el
fiji
rocks
ferry
fighter
slip
feared
cooperate
kicks
stops
tons
oct.
front
gates
golden
contest
lama
chrysler
runs
hosts
failed
wave
fast
producer
cable
them
birthday
slaying
rio
along
so
your
ethiopian
clean
finnish
scare
supplies
policeman
tight
algerian
any
simpson
fighters
charity
compensation
rural
virginia
dr
works
witness
box
looms
strip
g#
card
businesses
terms
execution
hopeful
let
al-qaeda
whether
stable
scotland
gunman
panama
trouble
headquarters
surges
violent
stimulus
schedule
letter
alive
impact
goods
fatal
chilean
#-year
sec
explodes
pullout
spokesman
detainees
wanted
typhoon
discusses
primary
bali
side
table
authority
quick
torture
pace
delta
resolve
condemn
eve
miami
add
nets
halts
sarajevo
division
abroad
insists
cultural
benefits
forced
athletes
ca
quality
route
interim
bahrain
researchers
provides
gang
pass
struggles
moving
tension
policies
losing
probes
soars
marines
highest
limit
television
stance
blocks
blame
leak
warming
hospitalized
cruise
reporter
l.a.
founder
ten
angels
karzai
statement
agents
shell
total
live
heroin
bowl
conservative
dec.
been
striker
kazakhstan
complete
ghana
southwest
reiterates
missiles
wake
riots
bayern
lady
carrying
cites
shift
overhaul
dalai
charles
retirement
kennedy
m
contracts
seng
corporate
drought
martin
mining
decides
kyi
azerbaijan
tribal
paul
spring
upset
enron
rescued
deutsche
completes
stability
belgrade
lands
commercial
slovakia
suu
figure
plunges
slalom
equipment
incident
judges
francisco
barrel
honduras
almost
testing
deny
adopts
ads
damages
tackle
doubt
fights
mount
schroeder
kuwaiti
waste
nov.
angolan
constitutional
politicians
abu
kings
remarks
george
renews
guerrillas
kmt
channel
books
tumble
story
independent
ira
agriculture
honors
greater
junta
david
replace
stem
ways
sought
puerto
slows
fashion
husband
finally
spying
practice
malawi
cypriot
ambush
upholds
prisoner
blamed
migrants
exit
indians
powerful
agencies
executives
ships
tanker
hussein
extension
backing
worst
features
istanbul
donates
houston
invites
congratulates
there
holding
cpc
unlikely
rumsfeld
climb
risks
fatah
adb
suspension
asked
ok
intel
james
culture
girls
developing
sworn
casualties
drivers
kim
retains
anger
taxes
image
estate
popular
partnership
rest
falling
hiv
##-#
ending
beating
subway
reportedly
worldwide
guatemala
attacked
spread
acquire
wheat
potential
digital
birth
cleared
bills
recover
pension
climbs
sending
angry
landmark
volcano
orleans
grant
bangkok
standoff
rica
once
shuts
shakes
goals
flooding
teacher
landslide
expands
spend
fish
upbeat
magazine
allegedly
sold
vehicles
militia
figures
died
uranium
restore
taken
yugoslav
fate
presence
upsets
vs
offices
shoot
cycling
carter
inspectors
visitors
fugitive
performance
slam
gp
inter
express
manufacturing
common
nhl
dpp
cowboys
hero
fly
crucial
doubts
streak
bishop
congressional
oks
promise
aviation
sexual
concert
lines
ski
jan.
legislative
settles
options
freeze
shortage
mystery
knee
ever
sharp
purchase
tanzanian
carolina
wimbledon
file
fake
olmert
aussie
arabs
programs
parade
playoff
eurozone
leg
extra
carrier
editor
commitment
shoots
voices
hints
survives
madagascar
securities
mortgage
items
kyrgyzstan
agricultural
pounds
npc
optimism
races
deep
rains
bars
increased
twins
actress
manchester
theft
miners
awaits
frees
grenade
assistance
reveals
vehicle
wage
uruguay
closure
sony
electoral
cow
caught
donors
relay
helping
storms
tribute
standards
bombers
divided
check
owners
scheme
jews
chad
controversy
cautious
streets
allowed
armstrong
respect
enough
iaea
adviser
electricity
aim
braces
wales
fines
haitian
chaos
movement
voice
model
indices
poised
warned
fox
federation
mad
longer
mountain
colorado
retires
matches
giuliani
personal
smoking
forms
athletics
wait
bar
testify
dominican
current
battles
accidents
anthrax
champ
weaker
choice
quiet
legislature
investigating
welfare
veterans
association
dog
guests
basque
reconstruction
bribery
radical
reopen
dream
sunni
oppose
testifies
district
enhance
separatist
suspend
later
mars
immigrant
testimony
turmoil
conduct
earth
analysts
crack
mps
did
disarmament
nw
shootout
exchanges
discovery
partner
successful
opera
businessman
beirut
explosions
canceled
kurds
animal
surrender
defending
electric
peres
firefighters
zaire
commentary
winners
holy
kansas
nomination
mongolia
account
together
events
fame
legislator
convoy
vegas
weighs
driving
reopens
initiative
ahmadinejad
await
tightens
scientist
cyclone
oscar
tell
alaska
considering
reaffirms
dropped
revive
also
agassi
aug.
relatives
re-election
easy
involved
princess
atlantic
responsibility
veto
hebron
sun
proposals
lithuania
produce
fiscal
observers
graft
trials
renewed
afghans
highlights
reconciliation
questioned
fan
fishermen
bigger
semis
tougher
destroys
view
plead
torch
benefit
speaks
store
katrina
lashes
wedding
executed
makers
maintain
magic
giving
tel
knicks
resort
nationwide
jazz
thanks
jamaica
valley
earns
wind
regulators
jiang
fever
homeless
quarterly
courts
aviv
spotlight
slovenia
schwarzenegger
bat
activities
monitor
roadside
niger
nadal
explosives
chancellor
commissioner
profit-taking
tried
numbers
stands
rouge
command
michigan
#\/##
conservatives
heading
breakthrough
sides
defender
condition
taylor
sao
germans
strategic
swimming
patrol
establish
waters
flag
remove
signals
brothers
recent
playing
era
single
regrets
involvement
result
##m
coverage
rating
task
stranded
violations
showdown
square
elect
neighbors
tycoon
levels
endorses
yemeni
deployment
ex-president
crowd
ailing
winds
follow
uzbekistan
rand
palace
traders
downhill
brussels
tibetan
stores
firmer
naval
chase
reactor
buried
revolution
fda
legislation
returning
guns
coffee
walk
cool
blaze
discovered
medicine
nuke
robert
vice-premier
resources
wal-mart
ibm
confirm
cholera
bulls
very
fees
downs
affairs
each
refinery
guangdong
cards
astronauts
li
ronaldo
ticket
controls
au
rush
seattle
danger
complaint
fix
ocean
junior
inmates
present
opponents
nominee
favor
foundation
cross-strait
chip
then
compete
immediate
convicts
ill
organization
signing
airports
aboard
presents
cutting
cameroon
ipo
awarded
professor
###th
kyrgyz
those
dominate
bear
beckham
osce
dip
greenspan
never
peruvian
living
willing
friends
rico
schumacher
trail
effect
strength
misses
hear
exercises
struggling
recommends
agreements
rich
solve
eta
grain
lay
code
chen
builds
sprint
dips
expo
khmer
hu
senegal
prospects
path
sixth
detainee
systems
envoys
stations
tea
visiting
paraguay
creates
ally
engine
partners
retire
dna
tied
hoping
accuse
class
gasoline
oklahoma
montenegro
concludes
charter
robbery
detains
jihad
blacks
grave
extremists
raising
brain
hill
worried
connection
iowa
medicare
medvedev
crossing
pound
juventus
anti-war
ac
prosecution
nicaragua
views
inside
high-tech
trains
estonia
evacuation
edwards
disabled
promotes
warrant
photo
carry
rumors
improved
newcastle
racing
subsidies
milk
mourns
pga
scottish
disputes
briton
monitoring
warner
shareholders
mumbai
investor
farewell
piracy
karachi
outlines
yahoo
'll
settlers
hillary
range
celtics
declaration
artist
language
erupts
devils
hikes
studies
camps
braves
headed
reached
laos
trophy
tragedy
tighten
standard
shopping
led
spreads
harry
ratings
minor
weekly
ride
wine
avalanche
payments
helicopters
eritrea
throws
unveil
ethics
plo
expect
demonstrate
diana
boxing
meetings
fa
###-#
copa
widens
continued
suffer
casino
propose
bruins
sw
macedonian
boom
salvador
warnings
rabin
value
dissidents
contact
abuses
patient
diplomacy
offshore
debates
munich
adopt
miller
mafia
rescuers
wrong
antitrust
announced
bases
thomas
villagers
tunnel
vp
worry
poultry
jails
wwii
marijuana
uses
measure
speculation
filipino
favorite
stress
demonstrators
restructuring
feb.
iceland
trust
kick
denied
striking
christopher
overall
settlements
boys
morgan
patriots
toss
###.#
:
differences
roddick
witnesses
lewis
moroccan
hindu
investments
icc
liberian
focuses
chain
motor
urban
derby
replaces
lab
firing
score
restaurant
consumers
legislators
photos
one-day
libyan
same
negotiators
teenager
armenia
helped
anti-terrorism
room
condolences
criticize
regime
pain
trinidad
harvard
europeans
racial
asiad
introduce
secure
temple
financing
poisoning
invasion
pilgrims
shock
wary
preparing
##-month
door
elects
technical
koreans
kremlin
minority
lowest
leftist
f#
drama
maintains
zoo
ucla
separatists
roma
governments
praise
slovak
hears
cracks
wound
silver
toronto
corp.
transit
accusations
illness
flies
lending
orthodox
congressman
improving
embattled
dangerous
desert
virgin
sugar
g-#
upcoming
formula
theater
xinjiang
criticized
murders
bishops
mounts
nasdaq
uncertain
keeping
estimates
mourn
citing
diamond
seats
governing
palin
las
porn
weigh
badminton
easing
electronics
shots
tickets
u.k.
flying
aides
mandate
karadzic
inmate
delhi
corn
towards
friend
retreat
note
count
improves
separate
defiant
mp
films
prompts
bernanke
youths
latvia
houses
nbc
mines
exhibit
cardinals
barak
nationals
limited
cancel
dance
barrier
academy
reds
reality
finding
threatened
modern
phones
actions
roll
arts
tajikistan
lowers
northeastern
scam
increasing
priority
murdered
balance
ensure
prominent
we
geneva
words
extended
resistance
kohl
emissions
islam
greenpeace
survivor
intervention
wings
broken
delivers
built
complaints
brief
rubber
committed
factions
vienna
g##
deadlock
mozambican
declared
different
honored
elderly
ballot
seminar
fell
sweeps
solar
declare
why
toxic
calling
cppcc
all-star
##ers
burn
influence
skating
bombay
strengthens
fleet
tunisia
hires
divorce
display
tank
sampras
retired
roads
siemens
soviet
frankfurt
units
style
renew
blockade
destroy
lyon
innocent
rift
hospitals
refuse
fallujah
rebounds
stewart
johannesburg
hariri
bolivian
users
activity
dallas
monitors
celtic
clubs
hail
census
tense
false
serve
gambling
setting
luxury
singles
albright
conviction
pna
negotiator
producers
territory
important
beyond
unicef
meat
license
mcdonald
howard
celebrations
perfect
venus
illinois
integration
normal
kaohsiung
traditional
prague
broncos
serena
pc
w.
motors
pioneer
cbs
organizers
wireless
today
abducted
shipping
ups
textile
lifting
delegates
bundesliga
aside
lauds
christians
tower
offering
seal
acquitted
seriously
cover
moslem
article
facilities
slides
itself
failing
arroyo
chances
choose
speak
commerce
islamists
successor
fastest
sacked
interview
setback
recovers
homeland
accounts
weakens
cubs
checks
warplanes
breast
bloc
affect
armenian
removed
blues
pair
africans
highs
pop
active
jolts
ruled
source
pursue
design
hearings
upgrade
runoff
banker
duty
electronic
publisher
laundering
archbishop
oman
cast
mutual
employee
mbeki
employment
motion
introduces
long-term
lufthansa
negotiate
tours
ago
investigates
massachusetts
shootings
togo
nordic
nikkei
learn
handling
starting
democrat
positions
fiat
notes
nokia
unhcr
cardinal
racism
buildings
fit
lineup
mourning
standings
siege
slowdown
serial
curfew
moved
citigroup
guerrilla
unbeaten
issued
upper
qualifiers
recovering
dam
showing
faith
prepared
aimed
honda
lightning
burns
rolls
pitch
operating
caution
places
joining
medals
facility
peso
bust
fewer
reduction
donations
borders
drilling
industries
tyson
thaksin
develops
seed
scheduled
kazakh
currencies
bell
expels
affair
deportation
uncertainty
reporters
satisfied
fms
hewitt
complex
comment
teens
silence
exile
tony
trades
answers
romney
inspection
bryant
lithuanian
beaten
playoffs
fc
semifinal
twice
...
twin
valencia
restive
britons
accounting
tanks
northwestern
telephone
wing
dhaka
#-month
merge
copper
marseille
chess
means
personnel
businessmen
william
epidemic
towns
suharto
fields
signed
collection
citizenship
phase
bmw
horse
threatening
ball
citizen
returned
samsung
undergoes
requests
legend
st
drill
lottery
mob
yellow
privatization
monaco
nissan
society
revenge
dogs
ranks
widow
turnout
harassment
met
honduran
shadow
representative
arson
inauguration
broadway
guangzhou
oldest
gingrich
villages
wcup
mogadishu
grabs
infrastructure
hyundai
far-right
mull
hunting
uzbek
person
picture
utah
acts
stanley
.#
moldova
don
czechs
clinches
columbia
philadelphia
volkswagen
library
gear
triple
catch
lions
advice
volatile
networks
barred
aig
malaria
president-elect
counterpart
sinking
attract
recount
word
ramos
marketing
quake-hit
amazon
deliver
handover
foot
acting
participate
dismissed
louisiana
yields
raised
prodi
bolster
rebuild
rookie
legacy
odds
beer
pan
tianjin
shelling
resumption
band
first-half
destroyed
lawsuits
computers
secrets
imposes
liberal
inspections
believed
paid
emerges
arctic
formally
iron
communications
regulations
discrimination
endangered
finishes
collide
consulate
mauritania
option
deploy
postal
tajik
del
shield
additional
elizabeth
song
institute
retain
midfielder
villa
shifts
expelled
waiting
assad
titles
alitalia
website
demonstration
prove
atp
secretary-general
privacy
scene
bbc
quarters
stirs
mavericks
avert
via
operator
wang
sadc
restraint
recovered
famous
travelers
solidarity
denver
leeds
wages
missouri
belfast
decade
lays
counter
nothing
scrutiny
birds
difficult
southeastern
alabama
having
campaigns
prevention
connecticut
foes
golds
cote
internal
temporary
chooses
writers
islamist
cannes
judicial
reshuffle
usa
heritage
stone
solana
underway
sailors
unite
celebration
designer
immunity
negative
attracts
patent
quickly
stages
mitsubishi
alcohol
species
moon
centers
becoming
platform
tens
sink
perry
rays
intensifies
branch
safrica
permanent
bob
truth
islanders
boats
decades
favors
solid
doing
tariffs
stakes
arm
couples
airliner
kentucky
marginally
shrine
remote
sick
tear
hotels
australians
sound
windows
conspiracy
socialist
dark
flow
questioning
importance
turkmenistan
kg
repair
gene
wells
rebuilding
ubs
turned
louis
preparations
bears
congolese
deported
hawaii
associated
experience
think
lpga
saying
oau
referee
got
kuala
impasse
denounce
oecd
managers
lumpur
retailers
hiv\/aids
phoenix
libertadores
momentum
sister
switch
protestors
migrant
fein
know
yukos
breaking
mahathir
faster
mariners
casts
broadcast
payment
paulo
scholar
traffickers
regulator
offered
peter
savings
crop
severe
initial
bias
fireworks
sinn
regions
assures
anti-drug
mail
gays
ericsson
officially
tourney
cement
biden
dengue
acknowledges
first-quarter
summons
exploration
shipment
v
submarine
bidding
#-year-old
zero
voter
communists
oregon
burma
mediation
petersburg
statue
governors
readies
overnight
idea
granted
davenport
feels
namibia
elite
known
abc
turning
survive
injuring
mind
airstrike
hingis
mental
equity
guidelines
identify
dominates
nkorean
strongly
mall
madoff
reveal
modest
spark
goldman
improvement
minutes
promotion
ajax
triumph
henry
customers
feel
pak
acquisition
orange
petroleum
complains
murray
alternative
glance
mortar
trucks
ferguson
daimlerchrysler
economics
damaged
anti-corruption
seekers
evacuate
penguins
alarm
identity
santa
hire
utility
clinch
supporting
wildfires
downtown
saudis
anti-government
albanians
reaction
visas
impose
impeachment
suspicion
ferrari
sen.
richard
smaller
basra
tactics
assess
chosen
suns
insurer
continental
wars
tumbles
jurors
d'ivoire
ducks
cloud
healthy
co.
emirates
pregnant
discover
pardon
by
pro
gift
sharks
eagles
transition
earlier
reward
reviews
wildfire
guide
identified
buddhist
potter
partial
expanding
surveillance
invited
stronghold
macau
hushen
attempts
targeted
lord
nascar
murdering
balkan
product
revised
advertising
ge
laureate
cross-border
clues
overturns
reduces
include
minnesota
master
amendment
mom
rout
stealing
spirit
friendship
talking
koreas
revenues
drinking
pushing
jr.
soaring
copenhagen
canal
clijsters
volvo
chips
ashes
hijacked
born
tree
epa
jitters
memory
e-mail
easter
killers
participation
sect
exiled
rican
responsible
feds
terminal
feud
re-elected
involving
hate
gordon
sniper
animals
guatemalan
remember
transplant
venue
ports
inventories
crashed
document
strain
guarantee
added
preliminary
surrenders
freestyle
oust
moody
maradona
gonzalez
billions
hamburg
globe
merrill
lets
petition
contacts
flyers
passport
royals
acquires
fujimori
material
###.##
tips
removal
boxer
stanford
everton
displaced
changing
brace
hangs
frozen
per
racist
phillies
mac
regulation
runway
quebec
reduced
pyongyang
pinochet
brawl
wildlife
ne
defensive
pennsylvania
determined
selection
device
drives
shutdown
lunch
shop
astros
universities
motorola
implement
dean
sport
facebook
stalled
movies
baltic
cattle
slashes
commits
error
blocking
maoist
provincial
latvian
asset
period
announcement
weightlifting
finances
lessons
duties
paying
mississippi
here
expulsion
at&amp;t
lehman
every
paramilitary
silent
curbs
investigated
advocates
indoor
minimum
bradley
completed
diego
lifted
wta
aol
fun
troubles
warship
painting
warm
plotting
hurdles
bankers
screen
drc
ash
campbell
seizure
##-hour
breach
depot
municipal
rockies
reception
qantas
slowing
extremist
touch
third-quarter
compound
interests
narrows
brought
overcome
campus
sacks
stories
tainted
critic
grozny
reading
cells
materials
two-year
palm
suspicious
shake
aristide
colombo
consecutive
atletico
enrichment
recognition
indictment
manhattan
fuels
guyana
perform
gymnastics
zanzibar
berth
concessions
would-be
ratifies
briefly
smugglers
tom
marlins
filed
airstrikes
parks
encourages
freezes
panic
violating
pursuit
consensus
servants
fort
oil-for-food
booming
rattles
consortium
touts
bringing
estrada
gov.
vision
cotton
haul
already
enforcement
pool
#m
###-##
bonuses
earn
tentative
o
volunteers
interested
pkk
coca-cola
buyout
serie
le
chemicals
babies
telekom
broad
seventh
targeting
abandon
graf
coaches
protocol
pitcher
examine
quest
criminals
entertainment
scientific
unveiled
pride
h#n#
wilson
signal
zones
expanded
duke
effects
deputies
slumps
intensify
putting
cypriots
lazio
chicken
blake
iranians
southwestern
billionaire
hitting
bolton
bull
version
cartel
attacking
unknown
audit
donation
spat
warlord
seals
donate
yangtze
galaxy
attends
describes
khan
layoffs
bloody
nepalese
wider
clinic
pataki
tested
hometown
guinea-bissau
uprising
donor
dealers
delivery
radar
departure
blocked
renault
facts
text
soft
spur
generation
doha
universal
restart
penalties
indiana
usc
mongolian
tennessee
arguments
gabon
canadians
commodities
musical
busy
fcc
harvest
copyright
trend
monetary
insurers
nominations
lockerbie
kept
sailor
insider
stick
recognize
high-level
poet
counts
gorges
demo
high-speed
cops
exec
vancouver
undergo
suits
moment
monks
opened
tiny
defy
burning
sorenstam
vice-chairman
assist
transportation
alleges
album
wholesale
anwar
seeds
volume
gunfire
garden
attempted
took
extradite
wide
mali
proves
relationship
advisor
nationalist
polio
recalled
wfp
hurricanes
qualify
hamilton
roots
emerging
breakaway
whale
letters
offense
passage
saves
assistant
crunch
carbon
prisons
cyclist
innings
automakers
patrick
#-day
rampage
stockholm
answer
timetable
botswana
vessel
turks
bitter
gazprom
grounds
hsbc
anc
seems
which
damascus
salt
guest
contain
underground
catches
fierce
thought
artists
ryder
practices
italians
regain
prompt
balkans
smoke
estonian
crews
dell
flock
expel
emerge
churches
unesco
sued
same-sex
justices
allowing
slash
investigator
id
possibility
gone
replacement
hiring
registration
feeling
rejected
pakistanis
dictator
martinez
heats
scale
pending
survival
swing
repeat
nicole
hurts
alone
cult
buyers
opportunity
dismiss
spree
self
farmer
lows
endorse
explore
challenger
socialists
protesting
faction
rages
shiites
bronze
sovereignty
keen
brand
dealer
councilor
ec
millennium
arrival
arrivals
rage
ousts
peak
stamp
afternoon
diseases
conflicts
true
mediterranean
priests
lists
sichuan
eliminate
talent
coastal
cigarette
neighborhood
actors
metro
wealth
revises
throw
temporarily
ultimatum
austerity
continuing
ballots
defuse
wizards
religion
ideas
##-day
carries
destruction
eads
ministerial
nicaraguan
allen
sights
nationalists
follows
hampshire
roberts
prayer
swings
blows
ouster
foster
us-led
outgoing
diving
extradited
peninsula
goalkeeper
deepens
chair
interference
clippers
oas
liberty
eager
searches
israeli-palestinian
tale
orioles
caused
banning
registers
hilton
nevada
flash
deng
provinces
nelson
reunification
scholars
ownership
cubans
shoulder
astronaut
mean
state-owned
panda
frank
en
published
stampede
retailer
bundesbank
sahara
bucks
aiding
entering
warriors
opposed
cole
mediator
greenhouse
crowds
themselves
debts
demonstrations
generals
lure
vital
done
bounce
beauty
fee
meters
fill
glory
cited
disarm
infection
lobby
dirty
power-sharing
skip
raiders
ramadan
a###
stabbed
cop
teenage
reasons
ink
robbers
nt$
abandoned
croat
probation
representatives
beheaded
carlos
grip
ebay
dr.
distribution
available
aung
dump
cleanup
clark
ftse-###
sharing
faults
missions
hostile
sentiment
nuggets
documentary
swift
riyadh
jointly
dolphins
invests
dismissal
lynch
remaining
licenses
accords
register
taxi
bethlehem
formal
explain
pacers
exxon
criticises
hurdle
mum
suffering
merck
inner
n.y.
####s
oracle
stuns
candidacy
causing
foods
average
pla
tunisian
cheer
euro#
commanders
shrinks
nominates
morris
adams
stabbing
decisions
adoption
dozen
creation
theme
biotech
treason
developed
lot
palestine
ankle
phelps
anna
nile
dates
bargain
trees
publishes
individual
handle
skeptical
postpone
weight
porto
ncaa
rok
dealing
pistons
engineers
roman
injure
sadr
combined
conservation
madonna
smart
ot
hub
catholics
no-confidence
atomic
sunken
gathering
cnn
subsidiary
tottenham
five-year
pearl
lesotho
invitation
nominees
consumption
punishment
revival
buses
holidays
dad
bayer
joe
coke
secures
enjoys
maine
luxembourg
machine
rooney
nature
heard
airspace
overtime
addresses
occupation
shortages
hispanic
incursion
sight
executes
depression
universiade
punish
routs
sponsor
srebrenica
tighter
telecoms
garcia
cook
wbc
trader
vacation
trillion
rings
listed
crush
autonomy
opel
prospect
vw
attackers
travels
jack
admit
vice-president
djokovic
dig
comedy
vie
narrow
philip
all-time
doors
lights
highlight
everest
salvage
handed
calif.
worse
sweeping
violation
steve
promoting
shed
sectarian
oversight
stalls
god
indy
wikileaks
smuggled
flooded
safin
maryland
biathlon
newly
bound
fully
nurses
bury
imprisoned
journey
directors
hawks
ratify
searching
famed
sporting
stuck
oscars
metal
wreck
burned
screening
illegally
lisbon
disrupt
indexes
're
respond
seles
iaaf
arbitration
coaching
organizations
midwest
ambassadors
effective
spin
slight
explosive
gears
employers
absence
enjoy
economies
believes
derails
sources
amsterdam
contractor
maritime
divide
dive
hopefuls
norman
economist
shines
sabres
mosul
things
#rd-qtr
carnival
venice
turner
based
telecommunications
monument
farms
robinson
staying
sentencing
first-round
probing
halted
opportunities
guarantees
indicates
spacewalk
memories
opinion
mauresmo
sky
qaeda
outcome
sanchez
boosting
removes
routes
cartoon
gong
popularity
rejection
mercosur
engineer
enemy
fleeing
faa
singh
nightclub
reverse
gifts
semi-finals
treat
full-year
polling
homer
territories
rodriguez
pretax
bc-yugoslavia
spike
executions
anderson
brooklyn
nominated
harbor
creating
ashcroft
two-day
d
c.
bonus
skiing
trainer
santos
downplays
listing
selected
statements
ebola
right-wing
thieves
synagogue
wishes
montreal
murdoch
thompson
knocks
cavaliers
outrage
hainan
protecting
longtime
warsaw
arkansas
skipper
imminent
grim
voted
bihac
#nd-qtr
malta
re
avoids
burmese
pro-democracy
panthers
disrupts
fidel
negotiating
aiming
scott
da
vivendi
six-party
prayers
slovenian
dreams
advocate
basic
saint
defies
lockheed
second-quarter
flames
mutiny
revives
patrols
symposium
triggers
divisions
fence
sub
stuttgart
onto
repatriation
often
hedge
brands
nyse
imported
gcc
dairy
caucasus
f-##
ma
artillery
researcher
cemetery
lunar
elephant
native
harsh
ham
yield
toy
analyst
watching
briefs
commemorate
bahamas
euro###
prostitution
saved
rabbi
filmmaker
sumo
lieberman
champs
ulster
hole
complain
ninth
burkina
corps
page
demanding
implementation
organized
stroke
espionage
slayings
tornado
desk
novelist
shine
enlargement
spreading
najaf
easier
colleges
bremen
one-year
insurgency
crops
mary
tears
steal
ponders
embassies
wisconsin
bags
inaugurated
retaliation
retrial
greet
burial
tradition
saving
brewers
graves
spears
dividend
youtube
blind
poses
infected
widespread
establishes
migration
interpol
rescues
sevilla
spends
jose
ladies
protestant
received
deplores
accession
regret
estimate
wreckage
sounds
g-##
fallout
formed
deports
believe
##kg
tonnes
frenchman
loom
sensitive
spots
auschwitz
hammer
concedes
assails
passing
mayoral
pet
dry
learning
sensex
gadhafi
fixed
horror
q
u.s.-led
forge
departs
sting
owen
treated
moussaoui
tone
nurse
yanks
dlr
theory
athlete
mike
qb
battling
patience
gave
liu
pierce
soybeans
icrc
pirate
shark
tariff
defendant
divers
repeats
hidden
reconsider
monthly
sure
decries
murderer
o.j.
values
dortmund
reagan
swim
opponent
jamaican
pack
hijack
inaugurates
wartime
tomb
becker
cathay
megawati
salary
shops
downturn
suburb
mild
carriers
martial
deployed
abduction
mistake
shipments
bollywood
reason
residence
bright
my
rounds
predict
mistakes
rough
padres
sweet
cleveland
runner
honorary
sayyaf
slower
abandons
quota
acquits
eighth
thrown
audience
disasters
eleven
clerics
restored
heavily
landslides
foot-and-mouth
wounding
inaugural
atlantis
succeed
rams
shelter
relics
joy
cat
pardons
toys
saints
lula
pastor
brink
developments
hiding
eriksson
factories
sense
spacecraft
kilograms
aged
dhabi
psv
reflects
moore
three-year
pleased
narrowly
transfers
academic
ranking
devil
waits
walker
swimmer
distance
evasion
tb
pitches
profile
hq
stopped
super-g
monopoly
advisers
drown
walks
mediate
solo
hybrid
empire
preparation
sons
submits
includes
hijackers
thin
b-shares
clouds
mercury
mitchell
emir
invite
jays
khatami
bloomberg
tome
sticks
brunei
yacht
ali
pfizer
maldives
chechens
ba
contribute
grab
roster
cautiously
bureau
controllers
kyoto
heavyweight
cruises
atop
plastic
duo
bet
placed
probed
solomon
our
mountains
broadcasting
fao
smash
genetic
hour
birmingham
fruit
doesn
#th-qtr
resist
suggest
nabbed
decree
hunter
unclear
cope
surprises
peng
size
pressures
tunis
j.
infant
snub
behavior
sidelined
significant
mix
environmentalists
successfully
fujian
bit
incidents
rafah
ramallah
falun
porsche
heroes
rolling
mothers
related
wen
motorcycle
boca
images
preserve
patriarch
fortune
foil
unless
broker
conclude
tiananmen
beginning
deposits
fog
unprecedented
dinner
minorities
me
cautions
chris
inspect
pill
four-year
pandemic
equal
nairobi
nod
smooth
khartoum
dumping
novel
surging
icon
brotherhood
chang
sharif
zuma
turkmen
haven
taste
these
kadhafi
spies
inter-korean
pray
looming
embezzlement
blackout
simon
recruiting
plummet
pulled
faso
skies
##st
morales
reaching
considered
buildup
whose
abusing
deeper
economists
quartet
volumes
gandhi
pilgrimage
shareholder
libel
kobe
longest
plague
endorsement
literature
always
debuts
advantage
backers
blatter
harm
celebrity
under-##
yes
reno
repairs
slowly
counting
execs
sisters
stir
standing
###-###
pot
maoists
koizumi
truckers
feature
developer
fellow
ryanair
favored
diabetes
advanced
hp
chopper
failures
nablus
tinto
journal
idol
eating
scramble
dublin
graham
quakes
p
stalemate
oic
blackburn
bag
passports
awareness
giro
predicted
older
militias
quarter-finals
previous
semiconductor
teenagers
established
barclays
explode
quotas
dropping
larger
betting
miracle
mir
zurich
institutions
feed
shoe
familiar
unita
trio
upgrades
remembered
mls
goodwill
spent
marcos
recruits
organ
bribes
qualifies
lesson
restrict
wrestling
emotional
regains
arena
observer
fest
trips
rankings
hornets
opium
abkhazia
dramatic
linking
falcons
lobbying
incentives
refusing
knew
exceed
croats
shrugs
strict
fulham
fixing
hitler
farming
mickelson
duma
homers
chamber
flares
revolutionary
gangs
strikers
favorites
lopez
caspian
zhang
girlfriend
stepping
wb
knight
floor
u.s
cheers
drowned
thriller
quell
weakness
produces
selects
publishing
rips
flown
cigarettes
defeated
condemned
costly
filipinos
foiled
three-day
architect
richardson
factor
farc
remembers
stamps
woo
confusion
regular
indonesians
productivity
attorneys
rider
scandals
hughes
drunk
mexicans
satellites
forming
euro##
supermarket
kafelnikov
earthquakes
played
advises
flags
ecowas
amp
henin
yunnan
deepen
bosses
composer
wba
studying
affects
wright
subprime
peacekeeper
gunned
suez
lagos
pose
tribe
exporters
toshiba
hanoi
foul
sail
unilateral
skier
backlash
rebuffs
safrican
observe
steam
last-minute
kidney
garment
forbes
marked
messages
studio
irs
pen
core
sheds
anti-doping
ignore
slaughter
diesel
americas
buffett
window
picked
drunken
leaks
raul
coyotes
ossetia
nab
tracking
label
empty
extending
flotilla
sailing
amount
#b
hijacking
jockey
zemin
cisco
promising
comoros
thing
samoa
permission
freight
kabila
supplier
chernobyl
gaining
bats
tampa
contractors
inspector
receiving
dept.
suisse
bloodshed
mediators
wenger
bordeaux
category
settler
robust
poles
convene
grew
radiation
alonso
spell
broadcaster
closely
desperate
matter
tin
renewal
workshop
blazers
shandong
stall
lion
discipline
holdings
confront
jerry
choices
aging
sorry
revamp
worsens
feet
indigenous
reassure
historian
refuge
hoax
retransmits
circuit
spector
fatally
multiple
hijacker
embrace
deport
olympiakos
teaching
hague
neo-nazi
airplane
broke
daimler
purchases
millionaire
manufacturers
confirmation
certain
mulling
escalates
bout
surgeon
drawing
commodity
aftermath
engineering
cloning
virtual
azerbaijani
chevron
oslo
splits
waves
climbers
####-####
ace
one-dayer
offset
punished
hardline
pork
powder
stretch
corrupt
twelve
atrocities
indicts
checkpoint
radioactive
intervene
storage
visitor
sabotage
professional
boutros-ghali
shells
recruit
reprieve
abdullah
cameras
restaurants
permit
downgrades
orbit
fares
nice
subsidy
rivalry
require
#st-quarter
gunbattle
bows
models
drag
manslaughter
fades
rubin
discovers
whales
assessment
forget
exceeds
ray
mourinho
mysterious
borrowing
antarctic
crosses
writes
schalke
misconduct
lakes
qatari
parent
aussies
fallen
writing
greets
dying
grammy
kirkuk
tonga
penn
clemens
affirmative
shore
submit
studios
christie
cartoons
plate
hearts
supervision
belt
roles
barroso
claiming
czar
panathinaikos
####-##
discount
confrontation
deploys
refused
obstacles
golan
mtv
hosting
douglas
buchanan
warne
trump
cd
quarterfinal
hudson
dems
sas
sluggish
vetoes
shake-up
stones
devices
went
egyptians
valentine
unexpected
pensions
camera
unearthed
traveling
inspects
easily
algiers
boxes
kenyans
di
reducing
uruguayan
came
assassinated
polanski
sheriff
gate
daniel
mladic
worsening
counterfeit
antonio
mood
warrants
diet
followers
cincinnati
undp
inventory
drcongo
dvd
reassures
auctioned
ngos
quarterback
freddie
salaries
erupt
zagreb
rivers
benin
technologies
alpine
mechanism
thorpe
parole
twa
recognizes
aerospace
wear
hair
paintings
objects
verizon
bhp
container
forests
ferrero
cohen
unusual
formation
encourage
deportivo
india-pakistan
banana
###.##-##
worldcom
zhejiang
fade
operators
gamble
respects
creator
philips
mecca
refusal
ranch
rover
okays
errors
judiciary
melbourne
processing
foe
rioting
suriname
determine
laid
slave
on-line
abn
expos
handball
dancing
grounded
extremism
kurd
armored
i
fannie
tire
ammunition
autopsy
aggressive
volunteer
unfair
wallabies
cameron
straw
offenders
turin
lies
increasingly
cycle
militiamen
clock
urging
safely
passion
rep.
mend
exodus
lethal
reunion
duel
metals
fault
unable
petrol
lacks
fourth-quarter
hat
psg
debris
benedict
likud
gender
tool
manage
rogers
doubtful
rides
knows
transferred
speedy
campaigning
sar
anti-semitism
ruler
blitz
soil
unacceptable
undecided
prophet
lincoln
ambitious
kashmiri
highly
strait
gloom
proceed
though
l.
mcveigh
fat
collect
barriers
male
ward
carlo
tender
anglican
serving
kiev
elephants
lease
yao
literary
seeing
restoration
moldovan
finale
drills
mayors
pelosi
auctions
everything
warships
parma
victoria
neighboring
risky
colleagues
necessary
kandahar
salmon
permits
lung
refutes
lock
horses
direction
lying
elusive
baltimore
bone
objections
possession
els
disgraced
ruins
buenos
differ
ghraib
pig
sachs
reverses
interrogation
fitness
aires
attacker
allied
belarusian
patriot
nursing
franc
revise
nigerians
mastermind
sell-off
allegation
keeper
mrs.
disperse
steelers
fund-raising
victories
jiangsu
section
jumping
creditors
ankara
expecting
saw
info
treasure
registered
thwart
elian
chef
drink
thais
upon
pneumonia
pittsburgh
tribune
bounces
bankrupt
welsh
secrecy
saarc
henman
memo
deposed
skills
gonzales
nebraska
write
hashish
laments
speedskating
taichung
bc-as-gen
poison
procedures
yale
glass
enclave
amman
montana
packers
amro
scoring
circle
artificial
ruble
dangers
ibf
automaker
evacuations
awaiting
spar
explains
burden
consultations
comesa
revolt
timorese
lara
bottom
phil
resuming
anne
ex-pm
buyer
i.
locked
external
durable
first-ever
havel
martha
sympathy
marshall
exam
discussion
dakar
donald
pump
djibouti
sole
convenes
trigger
state-run
oilers
turnaround
quietly
haas
skin
sack
sponsorship
ponder
semi-final
strives
rebellion
landmine
run-off
prizes
utilities
alzheimer
exiles
extreme
vast
obasanjo
content
stern
islamabad
replaced
toddler
siberian
euro-zone
kodak
vault
wnba
clothing
battered
miner
milestone
benfica
overcomes
cross-country
parmalat
kilos
daewoo
bermuda
separation
moya
premiership
ballet
pows
uproar
persons
juniors
zidane
cal
moratorium
ftse
possibly
endeavour
vaccination
cure
jim
fidelity
freighter
hi-tech
swedes
jenin
levy
jewelry
flame
guy
fta
obesity
structure
dan
hashimoto
moral
bribe
soul
burundian
kelly
proud
ross
expenses
michelle
unpaid
shooter
shoppers
deliveries
quarantine
batch
deadlocked
financier
ngo
ventures
soybean
keane
tolerance
hungry
goalie
amtrak
monte
paulson
sustainable
reflect
pictures
comic
watches
accusation
steep
proof
propaganda
java
procedure
graduates
disclosure
top-seeded
greeks
ben
cache
efficiency
lone
extortion
serbia-montenegro
something
heist
attitude
exposure
marking
lends
maneuvers
nestle
stabilize
cancellation
haitians
dame
persist
starbucks
recommend
volcanic
modestly
rocker
ottawa
tightened
warm-up
jankovic
havoc
defendants
britney
commit
clients
saab
wickets
sheffield
teresa
resolved
rematch
protester
identifies
d.c.
baker
affirms
maiden
sidelines
discussions
clarke
tipped
rossi
afc
conductor
slim
missed
strengthening
reshuffles
stevens
nike
nightmare
tracks
balloon
rehabilitation
multinational
detected
repay
achieve
launching
machines
magnitude
prostate
taekwondo
mofa
mccartney
opts
engines
agreed
buffalo
flaws
shoes
andrew
marriages
jimmy
faulty
jungle
laura
india-controlled
operate
mobil
concrete
humans
plenty
tsunami-hit
fundraising
publish
mercedes
vaccines
adding
grid
barrels
pms
color
roof
flower
compaq
pulling
heathrow
evacuees
uaw
#rd-quarter
mounting
symbol
ryan
muscle
planet
hills
watson
buries
roche
canadiens
counsel
perot
nalbandian
premiere
sumatra
character
indoors
consequences
bow
zairean
speeds
parker
classes
leverkusen
muster
roundup
u-##
shown
adjourned
sponsors
wood
generally
ratification
hunters
greens
davydenko
pigs
simple
videos
transparency
rehab
trim
medalist
heating
harder
turnover
gitmo
mass.
chronology
imprisonment
barbados
angers
declining
tata
hurting
fertilizer
flexibility
labels
install
#,###-year-old
mourners
protectionism
salvadoran
chan
hewlett-packard
communication
cats
concorde
flamengo
liberation
hovers
anti-graft
meningitis
topple
charities
pharmaceutical
wire
paint
mclaren
wolfowitz
deeply
re-sign
heights
polar
kuerten
cyber
c
pour
vulnerable
reopening
luck
deadliest
colts
denial
balanced
blackwater
halftime
dinosaur
goodbye
musician
mighty
forcing
reformist
created
challenging
contempt
slavery
enforce
smuggler
blackhawks
villarreal
cite
probably
read
liquor
alexander
viewers
flood-hit
original
retreats
downgrade
go-ahead
bombed
sit
generale
regulate
coins
provisional
seniors
decisive
felt
joseph
slum
sheep
primaries
isolation
rhetoric
rubble
songs
influenza
y#k
#.####
wonder
eyeing
minors
tools
plug
encouraging
n
communities
innocence
widen
fla.
compensate
legendary
barely
runaway
repatriated
bench
priorities
sonics
laborers
deliberations
pacts
pipe
alps
imposed
silva
enterprise
livestock
vessels
tomorrow
hackers
#.###
readiness
insulting
siberia
roy
fare
climber
mate
persists
indicators
isolated
edward
fischer
orchestra
infections
bleak
retiring
avian
##k
eliminated
stripped
butterfly
discussing
anti-dumping
privatisation
contribution
vikings
accelerate
flawed
grains
condemnation
riding
plots
trick
innovation
amateur
authorizes
dock
nanjing
thinking
filing
broadcasts
ordeal
universe
png
windies
benchmark
garbage
marches
kinmen
cluster
gibraltar
outline
pushed
yang
tibetans
married
hubble
clay
mills
analysis
colonial
zimbabweans
silicon
broadband
sevens
detail
estimated
hip
drawn
unexpectedly
defamation
arthur
drone
except
harris
colonel
diocese
halliburton
credibility
diamondbacks
spitzer
weld
diversity
kraft
'##s
knowledge
fearing
maid
instead
bronx
rocky
redskins
entrepreneurs
swaziland
hailed
evil
remark
vodafone
match-fixing
limbo
statistics
properties
ceremonies
conducts
coordination
kevin
asking
ted
coin
dust
repeal
cellular
ended
explores
shaky
defying
bike
nukes
reference
mentally
bets
uncover
passed
looting
viacom
ftc
geithner
earnhardt
#st-half
bosnians
trims
o'neill
solutions
brutal
timeline
misery
battery
safer
falters
wolves
dress
finalize
eggs
crushes
warfare
beefs
historical
weighing
combating
really
bc-eu-gen
absent
existing
countdown
principle
anew
chongqing
inspires
robot
ex-minister
operational
informal
mvp
responds
by-election
able
promised
comedian
method
rig
mci
oakland
###-meter
short-term
speeding
settled
barry
gesture
tung
canucks
docks
artifacts
acceptance
lebed
sinai
rein
richest
peacefully
reviewing
commitments
criticizing
achievements
corinthians
fragile
bullets
consolidate
administrator
cricketers
mogul
muhammad
notice
clearing
judo
grace
bites
billy
contingent
bobby
okinawa
switches
henin-hardenne
mae
sprinter
gibson
mauritanian
ike
exposed
discussed
violated
establishment
lend
protected
steroid
competitive
incumbent
celebrities
grass
cathedral
adopted
woos
oversee
wish
machinery
included
bite
jetliner
intellectual
notorious
cruz
bold
yushchenko
servicemen
coordinate
holbrooke
episcopal
understanding
weaken
circus
maintenance
namibian
ivanisevic
lenders
evacuates
argue
restores
postwar
al-jazeera
terry
credentials
davos
swimmers
kiwis
sectors
webber
incoming
societe
railroad
parking
samples
pianist
archaeologists
broader
beshir
railways
commuter
guru
providing
comprehensive
oprah
#th-quarter
hksar
thatcher
ag
younger
excessive
chi
focused
m.
governance
medicaid
frontier
brokers
growers
feyenoord
cis
colleague
iverson
odi
examines
subject
adult
petrobras
notre
emmy
trafficker
squash
comply
gloomy
ex-leader
vets
eat
leaked
mr.
mt.
tightening
uncovered
scuffle
walesa
bonn
comfort
nervous
dementieva
restricts
maximum
boycotts
nixon
fugitives
novartis
nam
##b
youngest
bullish
findings
clergy
downed
eritrean
pairs
intensive
orlando
warmup
traded
pause
marry
gathers
wigan
cooking
horn
khodorkovsky
spiritual
jesus
fled
alter
overturn
database
correct
u
lucky
ex
founding
wealthy
gaming
thrashers
pitching
neighbor
shipyard
crowded
pressing
rather
kuznetsova
sunnis
reliance
glitch
queensland
column
aznar
wu
holder
ll
relative
o'neal
treasures
surface
warring
assassin
courthouse
ambitions
whitewater
deficits
thanksgiving
folk
helm
mgm
injection
inquest
equatorial
influential
unified
scales
casinos
miles
nt
eurotunnel
liquidity
eruption
minute
fiorentina
panamanian
robbed
grizzlies
johansson
larry
contaminated
crises
twitter
reactors
defects
anti-terrorist
bahraini
earmarks
cheating
alcoa
repeating
post-war
junk
sen
bones
prudential
gujarat
runners
triples
referees
chargers
evans
mohammed
versus
chides
spare
cinema
object
whole
exits
hepatitis
oil-rich
collins
relieved
inch
famine
torrential
tendulkar
tune
lobbyist
commemorates
seahawks
idb
ceiling
admitted
rowing
polo
shocks
branches
hanged
mekong
challenged
kasparov
homicide
riders
dismantle
fundraiser
monk
hood
somalis
mouth
seas
congressmen
rogue
furious
intends
skips
equality
accuser
guangxi
lender
mitterrand
coca
usual
transmission
corsica
jintao
bse
associates
shortfall
acquittal
plummets
experiment
framework
alan
reid
juan
safeguard
missionary
verge
sunderland
began
whitman
ghost
portrait
scrambles
select
deposit
surround
plight
anti-semitic
swoop
warehouse
censure
cafe
shakeup
herself
irregularities
loeb
blueprint
contributions
collides
investigations
#st-qtr
tackles
origin
chernomyrdin
till
rewards
pricing
noted
#\/#
strains
worked
aboriginal
engagement
perez
trans-atlantic
antarctica
defector
expensive
mosques
ex-wife
stun
greatest
dilemma
stricter
dalian
mergers
strife
teach
plc
trek
lg
anti-us
annually
lloyd
allocates
acid
poisoned
eclipse
censorship
requirements
maize
memphis
confesses
usoc
introduced
elsewhere
liberals
ore
linger
suburbs
finger
according
disqualified
ex-soviet
senegalese
beaches
ethanol
promoted
aggression
newest
mou
caucus
mostar
welcomed
aground
'd
anthony
gallery
oath
petraeus
rebukes
exposes
flees
crowned
abused
turf
dumps
paraguayan
healthcare
low-cost
vermont
vioxx
trash
stearns
catastrophe
shelves
brokerage
moderately
attendance
ecstasy
invade
temperatures
punch
naacp
squeeze
magistrate
walking
tip
attendants
pandas
ponting
wearing
plus
portsmouth
epic
revealed
defiance
sovereign
wolf
react
float
started
touches
gray
rushdie
elimination
andersen
smashes
organize
wallace
shifting
intense
spills
logging
bruce
staged
lucent
dagestan
archives
nun
thief
clan
ability
carpet
piece
golfer
year-end
postponement
steroids
foresees
chickens
dennis
pore
six-month
frustration
cadbury
nec
gorbachev
venues
kostelic
attending
jeopardy
managing
string
unsure
uss
outbreaks
sexually
iberia
mill
reinforce
psychiatric
insist
hired
havana
museums
sleep
nader
jeff
afptv
coma
shocked
slug
defect
escalation
liver
neck
knife
jfk
arriving
investing
detective
recruitment
anti-crime
partially
stephen
bolt
excerpts
reputation
dancer
sicily
reuters
vanuatu
shun
juvenile
medicines
ecuadorian
trained
furor
modified
emphasizes
santander
rests
ing
methods
shevardnadze
athletic
hun
clemency
separated
persian
chocolate
grief
clearance
clampdown
naming
plotters
kingdom
gbagbo
reversal
educational
consultant
stricken
painter
rolls-royce
heal
fought
#g
casualty
initiatives
suburban
am
mar
pessimistic
cannabis
ferdinand
civic
pills
worsen
musicians
contenders
elvis
genetically
al-sadr
explanation
fury
skepticism
amendments
chasing
sa
kid
chambers
timing
chinext
shrink
blacklist
mobutu
romanians
ronaldinho
bucharest
zhu
strategies
lifetime
pullback
confronts
suing
naked
jackpot
praised
snag
snubs
loyalists
turbulence
warren
derail
reynolds
decided
tie-up
bhutan
sing
lacking
idaho
bacteria
nortel
jpmorgan
caretaker
tuberculosis
springboks
districts
ho
liaoning
corner
ignores
acquisitions
adults
dupont
pfp
il
jong
hint
tribesmen
brave
grips
delaying
nazis
tide
##-man
webb
roger
mallorca
ongoing
sam
ransom
amend
manufacturer
painful
glimpse
roh
narcotics
klinsmann
button
surprising
affected
waugh
everyone
judgment
furniture
format
boot
rethink
degree
restoring
bc
embraces
fargo
u##
territorial
looted
curbing
rejoin
sit-in
kuchma
receiver
ugly
bipartisan
brazilians
butler
labs
convert
meant
drinks
hanging
badly
indefinitely
neutral
thomson
anxiety
#-##
spirits
cabin
emu
du
reluctant
encouraged
decrease
paralympics
clothes
medics
newark
hundred
nintendo
phillips
hammers
keys
asbestos
harlem
cfo
xerox
titans
cpi
telefonica
prosecute
constructive
accidental
resolutions
substance
thousand
vigil
devastating
nearing
sanction
gustav
meltdown
occupy
wade
prostitutes
autumn
orphans
yankee
meddling
luge
workplace
hacker
#-week
floyd
doubled
axe
convict
struck
fiery
xiamen
heir
demolition
daughters
routine
rifle
math
antigua
customer
likes
khamenei
required
principal
treasuries
regulatory
dual
celebrated
wrote
seem
health-care
divides
timber
homage
consult
renowned
albert
qwest
h#
outage
carl
solving
imam
evolution
smithsonian
lesbian
airlift
disagree
holland
gary
raw
lots
kind
tuna
brushes
holders
dissolves
ignored
root
wie
frustrated
ballack
displays
lobbyists
blackberry
huckabee
dim
withdrawn
stream
hutu
##km
faithful
browns
prescription
abduct
quiz
nerve
large-scale
throwing
rent
soy
sails
winger
courtroom
upheld
outstanding
uneasy
lifeline
shipwreck
fina
hajj
audi
hispanics
subpoenas
chronicle
jackets
unconstitutional
inches
saga
nude
improvements
##nd
anchor
revokes
designers
leaking
throughout
entire
tim
wada
menem
enemies
bridges
supporter
tuition
rutgers
sacking
pink
haze
bullet
reacts
high-profile
bidders
traces
charlton
ravens
delegate
advised
pre-election
aegean
messi
timberwolves
zelaya
tsvangirai
hunts
difficulties
twist
proceedings
daly
basis
correspondent
tyco
drags
columnist
delphi
antiquities
montgomerie
illicit
principles
vinci
discharged
jesse
editors
stopping
lane
osama
restructure
coroner
colin
asashoryu
opposing
robber
swears
##-percent
accepting
bourses
cover-up
counterparts
swede
anti-smoking
fossil
northrop
bombardier
contamination
prosperity
eric
palermo
bjt
jolie
critically
cooperative
r
kingpin
salutes
coordinator
immediately
telescope
strange
charm
lax
greene
holes
graduate
snowstorm
pat
forgotten
clintons
reinforcements
breakdown
middlesbrough
resolving
tag
gala
participants
cdc
makeover
chadian
fortis
stumbles
castle
hopman
reaffirm
starr
trichet
ignoring
highways
picking
bug
lash
derailment
moslems
peugeot
brian
diverted
household
alex
corp
carried
climbing
completion
e
clout
rampant
rumor
eagle
assurances
renovation
marino
cries
allianz
decry
felix
depart
indicate
columbus
harare
crossings
escalating
equities
breakup
footage
palmer
wilkinson
raytheon
usda
safina
dives
overshadows
rioters
titanic
duck
wbo
subdued
tutu
fernandez
jam
##s
rusedski
slick
requires
ed
manhunt
cry
unique
adjourns
impressive
walkout
activate
producing
pieces
juppe
tortured
left-wing
planting
auckland
childhood
globalization
vincent
flowers
convictions
karl
radicals
rebuke
downing
sterling
unification
gambia
stumps
voluntary
thrash
prior
suv
mudslide
expressway
basf
engage
politically
knock
moi
contender
harrison
revision
conjoined
edition
violate
jane
biological
breeders
memoir
brady
pursues
mauritius
channels
repatriate
harmony
focusing
mansion
residential
lao
lovers
andy
rogge
oxford
cart
uci
###s
benitez
olive
stiff
resists
resorts
withdrawing
rafsanjani
swissair
guides
spencer
thinks
quite
uribe
inc.
vonn
shared
anxious
woodward
malaysians
euthanasia
vigilance
helsinki
austin
procurement
libby
qinghai
joke
veil
mud
cyberspace
tallest
negotiation
chartered
expedition
barracks
commandos
smokers
myspace
drafts
reunited
crocodile
competing
tame
lewinsky
walter
bellsouth
assumes
reed
barnes
#nd-quarter
icahn
interviews
represent
lags
aluminum
abortions
front-runner
singing
mess
stunt
rove
picasso
liechtenstein
pumps
finalists
hell
condoms
abb
suppliers
pit
lag
iea
shaq
tally
knocked
inks
premature
replacing
ghanaian
foils
extradites
pregnancy
skeleton
alcatel
rob
second-round
uniform
ivan
hull
feast
bnp
generic
anti-aids
palmeiras
steals
digs
instruments
pedophile
journalism
symbolic
abolish
celebrating
predators
bible
strongman
besieged
accelerates
anti-nuclear
grenada
sino-us
milwaukee
bucs
ochoa
aston
ivanovic
stepped
recording
lobbies
tobago
philharmonic
spaniards
attempting
provider
monster
triathlon
combine
undermine
laser
disclose
mortgages
dl
gen.
bc-na-gen
sept
pile
pupils
larsson
prays
deter
demos
cave
bengals
bowling
arabian
sofia
controlling
forensic
dynasty
yangon
burst
ilo
caracas
buddha
vajpayee
sad
mazda
hampers
treating
raikkonen
###-year-old
squads
xvi
greetings
location
###-million-dollar
associate
beleaguered
tackling
dakota
cuomo
monarch
footballer
tornadoes
prop
reply
fiction
upward
lima
concession
pleas
ounce
assists
ifor
serves
queens
al-maliki
soeharto
treasurer
spaniard
exemption
halloween
cloned
petrochemical
sand
revived
voyage
bangladeshis
grandson
sanctuary
yugoslavia-kosovo
largely
rejecting
doomed
swazi
wachovia
espn
symphony
diamonds
presented
sumitomo
skids
warlords
subpoena
bogota
specialist
smoothly
trace
ones
fisher
carmaker
chemistry
sustained
confession
shelters
hat-trick
fundamentalists
implicated
trademark
#,###.#
succession
hindus
mudslides
aek
showcase
polygamist
boyfriend
anhui
argues
jordanians
chretien
nabs
eliminates
ozone
publishers
anti-missile
publication
scolari
hooligans
transitional
type
burger
tall
navigation
outcry
loyalty
destination
gunfight
archdiocese
contention
flows
jean
consultation
pits
sears
guild
tumor
skiers
museveni
parliamentarians
romario
manning
wheel
buzz
similar
floating
philippoussis
yard
pirated
dominance
fedex
letting
unidentified
admission
four-day
wrongdoing
co-founder
trawler
eurostar
suicides
fitch
setbacks
cooper
pa
eyed
renewable
a.
barca
nominate
bought
italia
covering
holyfield
uphill
privatize
jaguar
tommy
kin
organizing
f.
blogger
halting
execute
sultan
freezing
difference
robertson
viagra
soup
tonight
suzuki
cousin
healing
licensing
bc-me-gen
blazes
johnny
emission
unilever
exclusive
lover
impossible
reelection
mandatory
cost-cutting
swat
partisan
casey
romance
mistrial
tabloid
inciting
served
stumble
loose
ire
shrinking
qian
destroying
klitschko
whaling
dissent
lie
reorganization
leicester
homecoming
patch
clinics
calendar
courage
quitting
favorable
botched
kathmandu
recounts
charlotte
entrepreneur
hebei
trounces
anthem
nine-month
requirement
aziz
tribes
smallpox
exporter
vick
explorer
rebel-held
resident
imperial
nino
holmes
drew
lohan
texans
hide
lackluster
presumed
rafter
banco
b-share
contests
ex-premier
mock
brewer
unmanned
war-torn
hoya
franchise
fading
organic
enhanced
bulletin
paralympic
hke######
danes
sits
embarks
surviving
stadiums
miguel
twenty
bertelsmann
sour
outsourcing
limiting
ullrich
discloses
avoiding
lott
bread
lukashenko
cease
rid
alleging
sag
flexible
solomons
fahd
assaulting
triumphs
midnight
relax
vieira
humanity
rim
clarify
haider
fia
teammates
fred
e-commerce
counterterrorism
marries
integrity
intervenes
hotline
saturn
checking
dealings
andean
bodyguard
encounter
default
tube
weakening
claimed
bang
contentious
cavs
tcu
unemployed
repression
halfway
self-rule
renegade
argument
softens
reign
newborn
ken
barbara
hardliners
russell
admiral
experimental
mini
syndrome
uncovers
ontario
homeowners
sef
pageant
commerzbank
eased
contested
beatles
francis
thirteen
replay
.##
marion
injunction
barring
sculpture
eviction
sco
compliance
influx
bed
modernize
cows
drift
rattle
smuggle
wrist
pursuing
montenegrin
reclaim
builder
ritual
silk
cyclists
liability
provision
metrostars
dismantling
bypass
pets
releasing
consolidation
se
hefty
gao
seconds
sessions
sealed
tamils
physics
flare
inland
funny
hatred
slated
brush
batting
better-than-expected
pipelines
discounts
zaragoza
reinstates
pepsico
gases
winfrey
eds
canary
wives
assailants
humor
promoter
six-year
rip
montoya
amends
low-key
designs
free-trade
egg
aliens
mason
kemp
henan
spells
lloyds
hospitalised
weakened
bae
ethiopians
harrington
intimidation
bailey
minibus
detect
scouts
administrative
readers
dick
ferrer
albany
michelin
nickel
debated
price-fixing
concept
dodge
organs
austrians
feelings
guidance
heightened
extraordinary
instant
murphy
dc
recalling
reputed
learned
monarchy
blank
money-laundering
parcells
winnie
lng
performs
damaging
example
backup
poorest
spokeswoman
biscayne
arraigned
cooperating
yorkers
transactions
pitt
memorabilia
desire
genes
sir
tables
nl
gerrard
penh
nancy
minds
facilitate
colombians
icbc
ecuadorean
removing
headline
tires
tired
recorded
lennon
phnom
dominica
congratulate
studied
all-out
instability
peril
playwright
comcast
angel
rooms
torn
ordering
publicity
logistics
mercy
nose
montgomery
youngsters
blix
habitat
samaranch
ins
northridge
billion-dollar
casablanca
davies
sixteen
township
last-ditch
leonard
freeman
clean-up
reins
lords
inventor
reviving
slot
e-mails
mosley
mittal
taxpayers
firefighter
teamsters
deepening
anti-piracy
choosing
crystal
campaigners
snatch
million-dollar
lankans
ratio
upgraded
straits
cantona
fifteen
drafting
hamper
richards
counties
long-awaited
moments
billiton
ortega
derivatives
ton
raging
honoring
margaret
kiss
sharemarket
maybe
aftershocks
anti-taliban
shields
qingdao
hka
magnate
paints
compulsory
anti-abortion
conflicting
campaigner
pre-tax
dispatch
###cc
jailing
auditors
feeding
firefight
fruitful
physical
lens
escort
windfall
parallel
half-year
shaanxi
neo-nazis
ron
nixes
asians
maier
airs
extinction
commends
professionals
rupiah
sewage
designed
juror
iphone
#.#-magnitude
surprised
taxation
monkey
improper
anti-gay
kaka
tales
credible
kinshasa
bogus
craft
jennifer
seasons
guitarist
competitiveness
dragon
inspiration
busch
canyon
daytona
betancourt
washes
tombs
matters
farmland
collector
measles
venezuelans
brisk
sway
perjury
vaughan
lasting
medley
buyback
cas
scenes
sosa
rushes
evaluation
suddenly
luis
springboard
softball
tainan
iss
kiwi
collects
hiroshima
elders
baggage
protects
favre
irl
paris-nice
creative
slumping
defenses
heineken
blockbuster
baylor
jericho
nafta
curtain
towers
waive
fernando
mavs
kostunica
posting
hormone
paradorn
tri-nations
specter
long-distance
hard-liners
va.
heated
negligence
osaka
plutonium
eradicate
sudden
nippon
ipr
uphold
addis
falter
reef
cutbacks
kidd
scattered
buffer
preventing
wrestler
rockefeller
a&amp;m
paradise
greenland
mineral
summoned
peterson
countrywide
chases
post-election
portfolio
playboy
ugandans
vieques
escalate
spotted
sore
ljubicic
belmont
defenseman
jolt
astronomers
icelandic
stomach
omar
fetches
factional
surpasses
obstacle
kitchen
installed
concacaf
klm
mainstream
vandals
dokic
grammys
concerts
intention
cleaner
gazans
pumas
atmosphere
yassin
u.
inevitable
suspicions
mercenaries
liaison
barrage
philanthropist
lilly
outdoor
riley
evening
dumped
entrance
clarifies
acropolis
roars
pressured
reunite
no-fly
lightweight
repatriates
massacres
spectacular
wagner
portland
bells
overturned
movements
distribute
achievement
ming
mlb
monsanto
freeway
tragic
ivorian
booms
sikh
aquino
noise
bashir
alerts
wet
palestinian-israeli
alinghi
brooks
physicist
gramm
hard-line
contador
saakashvili
coordinated
fourteen
visa-free
pickup
filming
boosted
bowlers
outspoken
kursk
rita
describe
eradication
aftershock
fills
intent
pcs
sean
fumes
laughs
kmart
stunning
ran
corpses
allege
conrad
emi
hip-hop
snowfall
pyramid
kournikova
rotterdam
xiaoping
fossett
schedules
massa
bc-yugoslavia-kosovo
pivotal
firearms
correction
skate
tory
resignations
ablaze
pins
jackie
gateway
underlines
mice
bandits
charging
reservoir
pudong
hopkins
goodyear
franco
bidder
odd
dynamo
erdogan
nephew
downward
cull
collaboration
europa
x
cleaning
wayne
france-klm
classified
corning
columbine
defectors
hitachi
wipe
adidas
sanders
eddie
vuelta
thrashes
hunan
craig
####.#
eavesdropping
line-up
containing
revoke
rios
cameraman
hutchison
specialists
experiments
delivered
depends
globes
automobile
inaugurate
exclusion
cska
scots
monkeys
stormy
essential
packages
patents
mormon
ningxia
bullpen
hbo
magazines
issuing
expose
debacle
toughen
pele
forestry
deteriorating
disciplinary
professors
collective
infringement
precious
r.
pulitzer
h.
overthrow
pioneering
npt
laboratory
frenzy
underwater
coria
sotheby
mouse
lahore
salmonella
preparatory
teammate
scout
lhasa
engaged
widening
franklin
court-martial
reactions
earl
outraged
###k
stray
strawberry
rodman
leonean
print
knockout
duncan
beheading
echoes
caterpillar
deregulation
cream
brutality
buick
twenty##
padilla
developers
rey
finns
dutchman
xi
substantial
#,###.##
disruptions
relaxes
hydro
recommendations
performances
diagnosed
benazir
pete
fluminense
paedophile
conditional
marriott
cartoonist
hayden
outlaw
bremer
gretzky
strongest
disorder
springs
bash
covers
outlawed
pepsi
gypsy
landmines
waco
lures
bennett
mattel
torres
grandmother
bubble
reopened
drowns
courier
fisheries
prefers
outpost
dragons
premiers
aer
learns
equestrian
corporation
augusta
expense
exams
drain
maliki
cologne
edf
checkpoints
relocation
resigning
skid
winless
pressed
year-on-year
client
gross
courses
landis
dismal
georgians
cliff
monsoon
assisted
doh
didn
quran
francs
carnage
revamped
adventure
quarter-final
kofi
advise
pow
nireland
disneyland
glenn
arnold
lingers
electrical
memorandum
baja
s.f.
freedoms
rightist
modernization
intercepts
premium
pro-government
please
mastercard
statehood
showers
became
surpass
class-action
takeoff
aborigines
strengthened
drifts
tosses
accidentally
faced
arabic
cooling
molestation
lingus
charts
weary
leftists
importing
procession
prosecuted
helms
beslan
sopranos
preseason
sotomayor
uconn
qomolangma
strasbourg
crane
canberra
paramilitaries
blackmail
philly
centennial
mortars
opt
ciller
hmong
kwan
moss
speaking
espanyol
gubernatorial
mirage
b.
s&amp;p
coral
disruption
bowler
nick
breeding
##rd
milf
brewery
swallows
fdi
finnair
heartland
recycling
enjoying
colon
reeling
pavarotti
fortunes
petrova
blanc
beautiful
rank
hazardous
utd
guam
load
offenses
fantasy
grade
coli
malone
taiex
refineries
addiction
shrimp
defers
candy
by-elections
prevents
bernard
rulers
confessed
fisherman
drive-by
blessing
hernandez
valuable
asthma
sacrifice
asserts
harper
prestigious
charlie
ramirez
non-aligned
allawi
filled
vegetable
tenure
pbs
locals
paralyzed
listen
devaluation
gunners
tudjman
luther
karbala
websites
jaffna
dayton
bristol-myers
iii
chest
forgery
fema
symptoms
thoughts
finished
signature
abbott
fishery
strained
seychelles
soros
textiles
sheik
malawian
dictatorship
suffered
reinstated
breaststroke
borrow
arcelor
griffey
radcliffe
adjust
kerkorian
record-breaking
sequel
stuff
donated
hydropower
nashville
foreclosure
schiavo
cocoa
dominant
steers
merchant
breaches
eni
skull
lumber
lin
spate
wtc
primakov
citi
contributes
ian
oliver
willingness
competitors
averted
telstra
budgets
herald
foreclosures
victorious
resumed
widely
auxerre
bottle
disposal
elbow
algerians
deaf
feuding
mortality
resigned
ebrd
headway
wembley
aerial
broadcasters
retake
#h
unsafe
ifc
mao
contained
birthplace
wonders
guinean
kate
prevails
julia
inadequate
tent
blizzard
blagojevich
advisors
hynix
lu
hikers
batters
previously
abacha
double-digit
chiluba
bargain-hunting
amd
sociedad
loyalist
warrior
sparked
profitable
salute
flyweight
projected
settling
classical
drogba
offerings
glad
brakes
rat
defused
langer
newcomers
rotation
j-league
gem
isn
corridor
lemieux
battlefield
directly
liberalization
starter
reinstate
drowning
assured
dawn
deciding
racer
th
logo
sort
newman
define
rental
mit
resource
syrians
centuries
proceeds
lra
gambian
skater
janeiro
infighting
elbaradei
pistol
californians
confers
disco
toilet
fertility
provisions
exporting
slammed
statoil
sihanouk
kozyrev
toughest
snatches
roberto
intact
one-china
coleman
o'brien
cake
latino
pretty
anand
etimor
bolsters
bicycle
spared
interbank
icy
patten
juve
infiltration
eligible
packed
deserves
cosmetics
reunions
dedicated
void
temperature
burton
olympiad
broaden
expulsions
boasts
g
steer
sacred
achieves
multimedia
karen
random
wallaby
morrison
lived
disrupted
guinness
offsets
xi'an
discord
fossils
podium
vuitton
transplants
ecological
brad
motive
tracy
sundance
fund-raiser
delaware
secular
grenades
teeth
tankers
rwandans
hanson
chiang
carey
shuns
assaults
condemning
cnooc
headscarf
infineon
stoning
thunder
paerson
authors
a-share
underscores
lance
needy
sample
soderling
steven
fulfill
sharpton
coa
lingering
eid
hostage-taking
freeing
organisers
committees
panels
softer
boards
danube
forsberg
organizer
detailed
aided
theaters
ralph
undefeated
lien
ait
c$
barbs
lindh
bilbao
canterbury
republics
raymond
clooney
majors
ukrainians
fusion
equals
emperor
haditha
rod
connected
addicts
prefer
izetbegovic
convoys
persuade
jumbo
partly
lyonnais
confiscate
outburst
fixes
nzealand
moderates
bumper
barrichello
remake
offender
dissolve
mario
cancun
retirees
scenic
sarah
menu
digest
wed
shearer
kuwaitis
tunnels
friendlies
four-nation
lagging
lengthy
entered
preacher
tributes
yearly
informant
sbc
boxers
toulouse
exploring
rulings
endesa
zarqawi
chivas
sodomy
communique
snooker
qualification
shakespeare
royalties
fact-finding
alstom
fiber
jan
turbulent
fujitsu
sperm
fences
umpire
resettlement
mcgrath
conversion
toledo
berger
run-up
languages
succeeds
loyal
buck
topic
gypsies
wmd
ballistic
confederations
santana
concede
pesticide
ipl
treasurys
boots
interfere
chill
workforce
blunder
smog
survived
builders
owens
jokes
argentines
catching
distances
sings
bobsled
kia
getty
asem
spinoff
providers
demjanjuk
diallo
surcharge
devastation
paribas
brass
pizza
norwegians
syndicate
sergeant
victor
thaw
violates
brom
adrift
recommended
poaching
lindsay
undersea
rick
chart
backstroke
batter
anbar
wolfsburg
publicly
dash
exploitation
dire
clamps
stockpiles
bride
condom
bskyb
oilfield
bounty
wwf
juice
outposts
amazon.com
muralitharan
sometimes
heaven
keith
steadily
piazza
playstation
stole
licence
stressed
firmly
pocket
accepted
experiences
misuse
poppy
've
homemade
relocate
shrug
nistelrooy
tasks
copy
proton
farrakhan
comfortable
proliferation
cholesterol
ridge
technique
anti-secession
n.j.
haunt
volatility
bono
firings
hostilities
cents
spray
keegan
suspending
ji
haunts
printing
beers
assume
letterman
depleted
ordinary
inspired
jeter
basin
vitamin
pesos
hartford
icoast
blown
three-month
outages
ditch
ecuadoran
criteria
ganguly
briefing
slur
blackouts
paralyzes
whites
zvonareva
renaissance
emotions
whitney
kazakstan
qaida
dpr
lucrative
margins
spielberg
occupied
cheese
relaunch
falklands
surrounds
bt
scoreless
attraction
mel
strauss
stockpile
comet
lucia
alternatives
poetry
grocery
torre
mistaken
fiasco
metropolitan
mia
autonomous
continent
factors
tricks
anelka
five-day
sleeping
epo
martyrs
upgrading
roadblocks
seafood
residency
maria
auditor
mccarthy
forged
whistleblower
spice
hacking
implementing
founded
bee
boon
m#
legality
heed
thwarted
goosen
parcel
punishes
leagues
regarding
finalizes
relaxed
cracking
jospin
betis
cockpit
lowe
domenech
flurry
premiums
innovative
###b
sellers
incomes
demise
baron
coasts
maori
subversion
round-the-world
der
demolish
speakers
strips
gibbs
mode
converge
relegation
robinho
featuring
o'connor
archive
searchers
consulting
gremio
diverse
airasia
ceos
scares
springsteen
disarming
interfering
brigades
solved
exploit
rigging
fray
lowered
bowls
ocalan
olympian
cigar
emphasis
princeton
clamp
flintoff
westwood
madagascan
danone
ex-rebels
surgeons
shatters
consolidates
lawrence
identification
scope
steelmaker
crusade
editorial
sonia
downgraded
overdose
councillor
wyoming
technological
ministries
sum
diary
lotus
venables
missionaries
pro-independence
shutout
openness
detentions
lodges
citibank
heels
tribunals
forgiveness
controlled
mirror
bologna
abound
layoff
opinions
susan
departing
wuhan
carefully
pours
ex-dictator
gogh
kgb
liquid
trends
fundamentalist
frigate
busted
circumcision
turtle
purchasing
cables
domain
robredo
akhtar
puzzle
bursts
dent
marc
avalanches
genome
blackstone
cross-straits
denying
strive
kinkel
copter
irrigation
stride
ababa
togolese
uighur
proper
kissinger
gebrselassie
misleading
hectares
households
intercept
else
performing
reformists
flaw
glaxo
barkley
matt
injects
arcelormittal
audio
piano
examination
bass
glacier
gerry
riviera
commuters
cools
hawk
sampdoria
embark
touring
legs
heatwave
splash
adelaide
mile
invitational
ultimate
autism
archery
syracuse
mistakenly
moguls
crawford
intellectuals
rejoins
christ
corsican
unanimous
lukoil
devastated
astrazeneca
polluted
detectives
foley
mcgwire
meaning
calderon
al-zarqawi
monastery
psychological
dampen
nantes
nagorno-karabakh
flop
overshadow
strokes
mcrae
reservists
indictments
inaction
turtles
sands
closures
inclusion
biofuel
loves
pattern
provided
hicks
peaks
rely
strands
dissolved
uncle
berkshire
jeep
footballers
crisis-hit
lusaka
peasants
bulgarians
discontent
no-show
minerals
summon
festivities
disarray
quarantined
wei
unionists
provocative
carroll
nuns
boundary
spotlights
animation
madison
krajicek
irwin
welterweight
showed
nichols
liberties
amy
branson
shoot-out
toughens
tenders
ahold
indefinite
vat
drastic
munitions
warms
sorrow
selloff
kampala
pr
ewing
operative
lied
earliest
shah
advancing
elton
ferreira
crazy
loved
earning
indian-controlled
vasco
hmo
multilateral
schoolchildren
confiscated
bruno
overtakes
shadows
conversation
walls
digging
kicked
unaware
pains
anti-poverty
samuel
posted
plotter
racketeering
suvs
secondary
divisive
closings
pare
#d
fatigue
vaccinations
persecution
lodge
alarms
predecessor
raided
ambulance
subscribers
flashpoint
backed
maverick
noble
enthusiasm
interstate
hantuchova
boj
adjusts
baht
unauthorized
rbs
scandinavian
reigns
chat
basics
gotti
cambodians
adam
proving
sciences
recipes
avatar
slumdog
notebook
graduation
supersonics
miers
fearful
homosexuality
populist
petrochina
grill
lira
murayama
co-operation
specific
precautions
transparent
pierre
carrefour
selig
hugo
lille
smile
lorenzo
anheuser-busch
gymnast
daschle
shanxi
qtr
archer
hubei
coxnet
swells
luggage
bissau
fueling
aden
camilla
smallest
airman
fleming
lavish
ashore
gorge
chairwoman
shining
soften
vintage
bargaining
hiddink
personality
nowitzki
deer
questionable
jay
implant
one-time
dams
hype
schwab
moea
submarines
rupee
woody
fold
prevented
fis
squabble
hassan
assassinate
avenge
polluting
rep
speeches
inspire
televised
hideout
indict
oxygen
shorter
mechanics
bombardment
rabies
grieving
minus
lighting
hearst
kc
slander
bodyguards
picket
trounce
poachers
airliners
waiver
haifa
imelda
compares
nagano
featherweight
henderson
preview
torched
umpires
two-month
euronext
vendors
prius
dave
sacramento
liable
scientology
infants
stalking
belize
shirts
carnegie
rhode
founders
translator
golfers
newcomer
delighted
sanitation
stretches
ejected
kahn
barings
chairmanship
efficient
searched
wheelchair
roadblock
snake
angelina
summits
sunny
#x###m
detects
week-long
seeded
alien
locate
d-day
spouses
attaches
thank
rainy
seizures
matthew
balk
colo
enrollment
amgen
cba
alito
odyssey
minh
deflation
delicate
heath
deploying
dues
rainfall
motorists
slowed
extremely
concentration
tidal
dating
stoke
dispatches
guilt
surrounding
affecting
harold
faulted
dui
anti-u.s.
rifts
kicking
busts
cds
adventurer
laying
congestion
grateful
nicklaus
diversion
retaliate
gansu
commemoration
j
sulawesi
two-week
shipbuilding
payroll
restriction
rivera
bottles
uniforms
adoptions
ear
attracting
petitions
cyclone-hit
guitar
colors
combatants
sparking
remittances
rudd
westinghouse
colorful
jumper
trails
rushed
vouchers
vet
unofficial
cricketer
fencing
jaguars
academics
barge
rosy
elder
payout
glaxosmithkline
impoverished
infectious
springer
showcases
platinum
danny
patriotism
bancorp
mobster
certification
beware
arats
outing
merchants
produced
floats
confederation
blankets
laurent
telling
contemporary
kent
dealt
advocacy
short-course
avenue
signatures
vandalized
diver
scary
disability
linebacker
n.h.
nerves
maluku
royalty
balks
perks
pages
alarming
rescheduled
determination
gillette
consults
asia-europe
anglo
donovan
soviet-era
unpopular
marquez
browser
wahid
genoa
rao
mcdonnell
banner
declaring
decreases
variety
characters
fivb
gospel
upstate
slipping
krouge
troupe
box-office
controller
heinz
gatt
dancers
brigade
reinforces
obligations
labeling
recipe
screens
recipients
ellis
imposing
confer
plastics
snags
schnyder
idle
gronholm
obtain
pumping
inbev
techniques
conducted
madeleine
educator
despair
drummer
robin
brent
observation
protestants
forges
texaco
f-##s
commando
tenor
oral
afl-cio
elliott
gomez
deportations
affordable
jal
stalin
three-way
sinopec
wellington
careful
purported
leukemia
dylan
interactive
leon
scholarship
admissions
corporations
poker
concerning
wozniacki
rev.
corzine
grilling
forever
bizarre
sedan
remanded
masked
dope
sporadic
chains
insecurity
perspective
spoils
sneak
consul
galileo
pessimism
conocophillips
cruzeiro
medium
qichen
elements
grumman
beloved
statues
tussle
belarussian
condolence
hawaiian
intended
owes
thriving
#-shot
spelling
caucuses
umass
virtually
surveys
fowler
asylum-seekers
pin
arrangements
ortiz
sainz
restricting
funerals
counterfeiting
tuzla
rabbis
stealth
pave
exxonmobil
shy
forging
defenders
preservation
#-d
rationing
guizhou
brewing
breath
depth
crushing
sculptor
shaw
fatality
gangster
dolphin
sticking
nutrition
standstill
transformation
botafogo
wash
nauru
muted
abusive
denktash
probable
udinese
behalf
loaded
crosby
tents
laid-off
foreman
ruth
all-around
nationalization
cayman
niche
lacrosse
tsu
corpse
comrades
exempt
paves
sweat
militiaman
manipulation
adriano
dissolution
nash
footing
collated
berths
slavonia
vandalism
hinder
domination
reformers
cone
recede
harmful
jason
limelight
procter
delegations
novak
masks
gras
commissions
disagreement
rainstorms
boris
neighborhoods
requiring
jefferson
songwriter
n.c.
anti-israeli
blanks
lehmann
irian
sheikh
compact
worm
bildt
installation
shirt
distant
sk
glasgow
bandit
heisman
aclu
reels
horizon
repsol
edberg
publications
posing
macy
pal
max
rainbow
lecture
marchers
evangelical
boro
tories
insult
monrovia
understand
kashmiris
borneo
burnt
protections
eva
safeguards
jetblue
superstar
iditarod
lebron
armenians
underdog
navratilova
detection
curling
mixedly
observed
pinch
weds
scolds
teddy
slovakian
brighter
loophole
middleweight
morale
marsh
mainly
rookies
shame
intensified
renounce
snowboard
bloom
arresting
sideline
reelected
dreamworks
graffiti
partnerships
gilts
con
tax-cut
medication
smear
inject
test-fires
noon
audiences
robson
tri-series
matsushita
flavor
tsmc
rats
estoril
son-in-law
microsystems
petacchi
leaflets
acres
predictions
qualified
clings
protective
hugh
punitive
ranked
establishing
hangzhou
anything
livni
pro-western
koran
choppy
airborne
embryos
non-proliferation
laureates
spratlys
hostility
conglomerate
airwaves
fathers
loot
ignites
spam
honeywell
packing
representation
afraid
lifestyle
maneuver
kickback
alters
kaunda
samper
,###
dolly
moms
leno
d.
u.s.-backed
ntt
onslaught
shortly
cali
clarification
mobilize
loud
leasing
molesting
potentially
fingers
incentive
frame
biker
pacquiao
pristina
huang
unarmed
nods
loser
fluctuate
freshman
outback
withdrawals
janet
sabena
azeri
such
demolishes
werder
uneven
reclaims
rite
maintaining
blunt
wanes
von
hottest
casting
hemisphere
balancing
filling
high-ranking
eindhoven
enhances
jagr
tijuana
.###
ecfa
filmmakers
topples
aeroflot
easyjet
anti-islam
gems
supplying
whip
scorecard
repayment
seven-year
foreign-funded
belgians
collaborator
schneider
undercover
lull
cowboy
provokes
batteries
deemed
convince
kenneth
wise
mindanao
fatalities
busan
florence
pardoned
intercepted
openers
provocation
kiefer
fenerbahce
bargains
vigilant
meal
assail
triangle
rebuts
fronts
ledger
racially
teen-ager
comm
u.s.-based
battleground
outlets
wrangle
redemption
reservations
losers
nowhere
biased
nato-led
springbok
marching
carlsberg
yasser
hart
sitting
starving
racket
collectors
colony
salomon
anti-aircraft
eminem
parkinson
poster
egyptair
immunization
examining
harvey
seminary
neil
-lcb-
script
nomo
treatments
u#
wetlands
nacional
breakfast
melamine
faltering
melting
headache
resurgence
sedition
jaya
rhodes
mayweather
scorers
assure
curtis
mickey
suggestions
choi
carmakers
baltics
kewell
castroneves
naomi
olympians
gaudio
yokohama
robberies
djindjic
cosmonauts
enqvist
disciplined
nextel
uc
containers
bullying
mid-air
embryo
ultranationalist
finishing
hannover
unfit
pedophilia
wwi
turk
proclaims
relieve
nearby
duval
byrd
assesses
rebuff
inquiries
kickbacks
aruba
psychiatrist
paula
t.
cosby
transatlantic
restarts
plunging
mantle
throat
overdue
deliberate
torturing
makeup
manned
steadies
triumphant
messier
automotive
refund
prevail
anonymous
dar
commemorative
dome
evaluate
winston
garrison
confucius
purdue
exposition
gasquet
amish
sino-u.s.
excited
inferno
champagne
##-million-dollar
sadness
communist-era
prostitute
mega
krajina
sufferers
zulu
disc
darkness
reminds
pad
mcenroe
schilling
excellent
wrongful
packs
centrist
levi
lieutenant
newmont
sino-russian
barack
clue
pitchers
vaughn
pub
shin
hiv-positive
alarmed
cheats
thefts
fuji
pearson
negotiates
countryside
herbal
vargas
staging
ahern
alliances
viewing
merit
ruiz
boerse
belts
profiling
asteroid
vista
acted
protein
thrives
anita
eastwood
irvin
kla
timor-leste
expelling
architecture
humble
poisonous
al-aqsa
tesco
savimbi
pac
diva
construct
honest
heightens
panchen
noriega
stalker
satisfaction
attendant
breezes
ruin
counter-terrorism
planners
satyam
meyer
pepper
baghdatis
jimenez
centenary
written
checked
acer
sprewell
punjab
withhold
abm
stand-off
staffers
stalling
outlaws
cleansing
zedillo
commons
begun
beckenbauer
plaza
intl
worshippers
stunned
arsonists
tail
ills
purge
spins
goma
lvmh
undermining
jewel
cage
certificates
tempers
basel
sara
nuremberg
individuals
mfn
handles
tout
yosemite
programming
itf
colliery
al-qaida-linked
profitability
kirchner
thumbs
semi
hit-and-run
pflp
affiliate
logs
rwe
calcutta
justified
hurry
willie
visited
excluded
jessica
canon
artistic
youzhny
gatlin
wendy
atm
ravine
soothe
described
watched
bumpy
sullivan
crossroads
mixes
refining
salzburg
barney
bastion
juarez
spikes
paramount
g.
complicates
hakuho
sebastian
urgency
travolta
erase
secession
expires
mid-afternoon
myskina
impress
hardware
catalonia
sleone
severely
watergate
skirmish
verdicts
laugh
matchup
wool
damon
spider-man
legalize
chairs
trustee
usher
eac
biofuels
zardari
realistic
a###m
travellers
classroom
unearth
institutional
beverly
ex-rebel
prolonged
diaz
cambridge
starvation
brake
enel
steering
hungarians
demanded
cub
symbols
circulation
swarm
roses
prods
recognized
altered
rebates
scholarships
normalization
kaczynski
acknowledge
alamos
vegetables
a-rod
plains
lsu
rushing
honeymoon
j.p.
malibu
bn
cripples
heirs
gunshot
omani
mans
skins
normalize
scania
belonging
intentions
km
wines
gradual
swamp
brit
cablevision
trojans
hmos
unify
billing
skilled
zealanders
flagship
banda
toe
boc
cab
confessions
jittery
shuffle
peer
bode
reservation
totti
restricted
supermarkets
genius
spews
openly
lucas
supremacist
retrieve
myth
degrees
ages
nypd
fret
romp
registrations
somaliland
employer
respected
anti-israel
citroen
tremor
anti-bush
rivaldo
exotic
lomu
ecomog
remarkable
jubilee
bearing
anti-racism
brilliant
hook
margin
accountant
riches
rongji
us-iraq
emblem
aikman
integrated
ultra-orthodox
neglect
areva
nomura
coulthard
brews
crippling
covered
exhumed
installs
clinical
reformer
conventions
dull
standby
eberharter
pens
disrupting
roar
significantly
sliding
spectators
payoff
sexy
skaters
observes
networking
transform
guys
takanohana
budget-stp
hung
high-rise
counted
ariane
houllier
lining
smashed
murderers
bhutanese
initiates
mammoth
jalabert
petronas
frances
six-nation
aaron
cancellations
drug-related
sirens
ethical
urumqi
getafe
outreach
diyala
soes
israel-palestinians
mnd
penghu
troopers
superjumbo
motivated
reckless
balladur
trauma
ref
joined
replica
dresden
servant
dynamics
useful
platini
ronald
curse
wisdom
slaves
penny
eurovision
daunting
practical
unocal
dramatically
low-income
brodeur
stokes
frontline
backtracks
grisly
dependence
two-thirds
hurd
dane
pie
axes
stabs
seller
tevez
treaties
galatasaray
nabisco
abandoning
jupiter
bracing
scan
posters
legitimate
nights
lcd
performed
wheels
phony
erosion
steinbrenner
tamiflu
anti-gov
sochi
berkeley
auburn
qurei
boe
masses
wanting
indicator
faldo
isolate
yemenis
maltese
kigali
none
u-turn
cent
chaotic
adopting
zhou
blasphemy
legends
amended
a###s
osasuna
banquet
doomsday
bulk
crossed
handing
suggestion
iconic
recommendation
optical
adjustment
occurs
malfunction
unabomber
gardens
rebate
leather
fightback
ops
irresponsible
hitch
dudayev
churchill
gascoigne
itt
remembrance
secretly
extensive
malacca
locks
nuclear-free
competitions
habits
quashes
seeker
waives
gdf
awaited
nielsen
recess
israel-palestinian
med
gabonese
lukewarm
bartoli
delight
dioxide
brisbane
bilingual
dixon
dravid
financials
preakness
totals
joan
combination
declined
tearful
subpoenaed
emmys
klein
accusing
greg
dresdner
rebuilt
ping
spitting
throne
pressuring
masterpiece
annuls
tbilisi
staffer
clocks
marshals
quantity
zhirinovsky
sunshine
grilled
intercontinental
preferred
hamstring
stripes
basket
thwarts
gauge
obamas
headlines
shenyang
globally
wrongly
rifkind
kallis
weddings
frequent
cruelty
spoil
aluminium
expectation
binding
streamline
obtains
notches
a-league
barber
forbidden
tactic
fact
pettitte
justify
weightlifter
ex-chief
meals
hatch
soong
#-stroke
dragging
reeves
substitute
wilderness
outskirts
grey
inducted
oxfam
witch
prestige
isaf
rhino
potato
leases
horrors
rails
daiwa
chefs
bristol
myers
insight
challengers
encephalitis
fu
translation
va
privileges
delivering
grassroots
trailer
ventura
eli
randy
oaxaca
p&amp;g
ingushetia
connect
overrun
pledged
louise
outsider
redeployment
guessing
vicario
gloves
tissue
azores
mention
aum
machinists
marrow
reparations
births
zealander
conquer
xiang
newport
planted
'em
paving
heiress
monty
hsinchu
counseling
shuffles
examiner
nagoya
gmac
r&amp;d
suitcase
dedicates
texan
dismay
blanket
finalized
adultery
clause
airmen
destroyer
talabani
walsh
rallying
conclusion
verbal
spares
swell
spurns
abbey
unruly
dividends
broadly
crimean
planner
managed
norsk
infosys
recorder
surf
tymoshenko
successes
inning
dutroux
peacemaking
amusement
reductions
fetus
blog
weeklong
litvinenko
unease
cultivation
pedro
synchronized
rmb
computing
distributor
motorway
backpacker
estranged
homosexual
anderlecht
dodges
cellphone
privilege
hackett
dini
gangsters
consular
connections
stave
head-on
generali
catcher
tuneup
maddux
excess
kidman
singers
vacant
paterson
hinges
garage
ricky
lonely
drugmaker
announcing
rosa
diarrhea
abramoff
lou
am-yugoslavia
drought-hit
successive
liquidation
sustain
institution
freak
multi-million
malcolm
brothel
four-month
cannon
confederate
figo
lindros
automatic
lesser
bridgestone
ana
ivanov
ex-spy
bekele
center-right
amounts
assaulted
anticipation
all-stars
woolmer
outlasts
pietersen
paternity
difficulty
dvds
north-south
contraction
libraries
hershey
alcatel-lucent
karpov
sonar
coors
revelations
taxis
policing
salinas
sword
literacy
warplane
pulp
jacques
anglicans
communism
corus
panther
domingo
seizing
treats
eiffel
contains
berry
antwerp
safari
schiavone
pharmaceuticals
zheng
fokker
newsweek
threw
qualcomm
elementary
helen
skilling
talents
thrive
sickens
flowing
unites
hypo
oasis
sanyo
absentia
kagame
projections
jirga
buyouts
tremors
##-point
entries
fizzles
breathing
villeneuve
fijian
sandstorm
objection
stump
dampens
motogp
forecasters
tvs
beneath
beheads
kaiserslautern
timely
romantic
ranariddh
persistent
restraining
zambians
privatized
winehouse
scanners
jamie
attractive
faculty
u.s.-china
-rcb-
ambon
savors
ex-general
balloons
bickering
fergie
liner
braced
camel
vogts
fur
proxy
wrecks
ringleader
toast
thunderstorms
evict
caf
catalan
yards
crescent
respite
lighter
wildcat
input
long-range
nazi-era
obstruction
existence
rainstorm
billboard
cultures
evangelist
teliasonera
scorer
lexus
taser
genentech
recordings
assange
deforestation
swan
bugs
under-fire
regroup
magnetic
wicket
waivers
feminist
outer
shattered
revealing
zhuhai
renewing
whereabouts
depend
doc
balls
weir
us-russia
burglary
legion
ensures
na
rehnquist
unep
payton
reviewed
lava
malaga
gymnasts
warmer
voids
rasmussen
redistricting
azul
peanut
hud
mrt
stimulate
slashed
gaza-egypt
stabilization
belongs
boarding
aware
hardliner
dundee
municipality
physician
kirch
patriotic
vowing
ticks
goat
award-winning
hover
sanofi-aventis
lenovo
enlists
displayed
nest
himalayan
mercenary
robben
griffin
disgruntled
introduction
skoreans
destiny
wesley
locker
hid
louisville
traveler
postseason
p.
taoyuan
absolute
leaf
nasty
salvation
illegals
eliminating
mercedes-benz
looters
thyssenkrupp
expatriates
td
chevrontexaco
shevchenko
competitor
wrestlers
retracts
cremated
disband
superman
electrolux
swept
rated
relegated
calf
exclude
authorize
axed
tunes
midterm
shutting
fend
montserrat
healthier
jumped
aetna
convinced
blaming
top-level
bare
sham
arrears
productive
scams
nanny
acquiring
bloodbath
southampton
speculators
samarra
arrived
memoirs
pesticides
examined
diagnosis
three-nation
malian
bengal
mired
floodwaters
inconclusive
clone
accountability
derailed
prediction
titan
basement
medieval
somber
severance
splitting
echo
smes
summers
memos
us-china
jabs
vodka
cervical
antibiotics
fdic
tomba
andre
follow-up
behead
bureaucracy
logan
outlet
dm
rangebound
halves
coles
one-third
l'oreal
berezovsky
cleans
drum
academia
lockout
autos
baggio
heavyweights
vettel
crowns
hazards
ipos
restates
overture
huber
dims
jiangxi
broadens
inviting
mousavi
germ
sank
jon
crushed
ss
louvre
bradford
marilyn
joel
ex-army
seaman
gucci
justin
tripartite
furyk
sainsbury
shaken
implants
performers
franks
havens
anyone
macarthur
soprano
drawings
portable
trove
tolls
sanofi
revitalize
gunbattles
institutes
disturbing
hampton
breed
mask
backlog
indurain
sickened
meter
starters
magnitude-#
blasted
dossier
den
benjamin
laotian
usair
chlorine
obese
ballesteros
plushenko
armor
chronic
undergoing
collaborate
butt
abuja
gaz
verify
gps
makinen
investigative
lippi
halle
dwindling
exhibits
first-time
angered
sprints
archaeological
slice
atlas
councils
andrews
novotna
polluters
portion
seinfeld
mccall
frist
todd
comptroller
everglades
potro
musashimaru
cepd
vice-chairwoman
slovaks
felony
bavaria
taught
gag
sla
doubling
paisley
sensation
hazard
barbie
latam
benetton
pros
schemes
intifada
booker
op
animated
supermodel
corretja
citic
roils
yorker
hiker
artwork
preparedness
environmentalist
properly
cutoff
industrials
bledsoe
voucher
conscience
quizzed
plagiarism
peace-keeping
infiltrators
nsw
war-crimes
rennes
composite
sat
observatory
schengen
fletcher
liberians
savage
outfielder
censors
matsui
parades
securing
quo
workout
tikrit
followed
worship
manifesto
unconditional
herbert
evokes
cyanide
piles
rebounding
contingency
lowering
fracture
conspiring
classics
dish
mechanical
dorm
ramadi
karaoke
ex-us
repaired
switching
gephardt
laud
dental
mourned
assassins
shipped
pileup
reminder
suggested
intensity
marshal
moynihan
hancock
prep
johnston
ax
colo.
,####
basks
anti-globalization
menace
concentrate
renamed
buddhists
yachting
queries
elf
hardcourt
lament
us-based
atom
guts
pro-israeli
terrible
thigh
luca
checkup
oscar-winning
scuffles
finley
granting
eligibility
fast-track
irks
disastrous
salvages
faked
oh
screenwriter
palau
complicate
comets
butter
results\/standings
okay
axa
commutes
mozart
ex-communist
biodiversity
ferries
burke
lenin
solzhenitsyn
buckingham
daniels
sixers
wide-ranging
salman
tampering
canceling
#.#-billion-dollar
seamen
mont
baath
defer
desecration
recipient
roller
baldwin
briefed
legitimacy
###-run
chorus
ideal
striving
authorized
negotiated
verification
ann
mardi
curator
imclone
defining
indycar
blowout
stabilizing
generate
summaries
medalists
greenback
ashton
muscles
agreeing
strides
landfall
repo
decrees
franco-german
dhl
orphanage
skipping
celta
chalabi
structural
gloria
petty
overwhelming
kaliningrad
cabrera
pollock
##-member
definition
yi
hacked
wushu
abductions
embraer
ayala
deserter
andretti
desertification
malnutrition
plateau
alongside
expertise
kunming
parachute
uighurs
harbin
speedway
strategist
boomers
feinstein
nj
internacional
backdrop
hrw
newborns
marie
distress
sicilian
adriatic
intelligent
maurice
islamiyah
footsteps
firebomb
brits
sehwag
sceptical
us-british
supervisory
dunn
bankruptcies
cardiff
pure
chievo
monica
plenary
surfers
vale
subs
kindergarten
flick
kfc
goalless
clement
acceptable
peers
bellamy
ikea
mutineers
macedonians
balco
moroccans
codes
maids
publicist
carp
joblessness
doses
martinique
helpful
ranger
goetschl
arthritis
betty
liga
u.s.-british
jacobs
bharti
westerners
tenth
crippled
invokes
falungong
revamps
valid
vacuum
chun
groin
wooden
softbank
neutrality
importers
hussain
par
monterrey
klerk
tanzanians
jade
lse
defection
besiktas
enhancing
afford
refrain
temper
warheads
sagging
disclosed
instructor
reader
abe
pebble
giambi
stepanek
defines
deterrent
wilt
daytime
h
levee
duty-free
jemaah
commandments
legionnaires
scenario
mobilizes
weighed
interrupts
eighteen
notch
guaranteed
elevator
trainers
inflow
gilchrist
designates
insults
demining
unhurt
cola
advertisers
spa
downloads
sludge
anaheim
user
loosen
v.
dismantled
biotechnology
tongan
telephones
packaging
hasek
departments
deck
olivetti
kite
ntsb
dreamliner
worthy
d'amato
gerald
averting
takeovers
tang
revisits
hastert
symington
installations
tumbling
indirect
archeologists
crowe
battalion
aquarium
plantation
santiago
gsm
willis
dose
tnt
tongue
hardly
crashing
beefed
murky
curtail
reversing
surfaces
profiles
hans
remembering
takers
penalized
garuda
formerly
reconsiders
downplay
hamm
peek
raich
poorly
preferential
algae
endures
regatta
ellen
fabregas
gators
##-meter
toluca
gul
jams
reflecting
ramps
ousting
kanye
immune
overtures
seasonal
paths
warcrimes
butcher
bunker
topping
gearing
pretoria
abidjan
ida
reprisals
ramp
caves
coffin
condit
reconcile
collecting
airplanes
incest
reggae
bo
secretive
shortened
absentee
punk
jeb
schuettler
unanimously
grosjean
refunds
themes
beyonce
sheen
feb
powerhouse
hayes
councilman
torricelli
co-op
seton
dartmouth
clarin
caledonia
skeptics
festive
knot
commanding
zhao
interpreter
unicom
spiral
fruits
pilgrim
stowaways
new-look
borussia
watchdogs
armies
creek
co-host
thumb
quash
rafael
dishes
wrath
enacts
'm
designated
generates
record-setting
back-to-back
prolong
sakhalin
bjorkman
copies
##th-century
buddy
acclaimed
prime-time
retarded
simmons
methane
cereal
belichick
chilly
katie
styles
siew
thirty
build-up
choppers
toppled
oct
farce
embezzling
sever
keating
sega
post-coup
ailment
bon
assam
stem-cell
lacklustre
proved
leeson
conciliatory
litigation
portal
facelift
rehearsal
unwanted
siblings
sheehan
wired
smell
ricin
needing
fetch
addition
one-month
revels
undisclosed
impending
violinist
misled
tsunamis
counters
deere
anti-govt
layer
basso
jilin
moussa
teen-age
gaffe
yudhoyono
breaching
mocks
pale
sharia
debating
guardian
nova
hydroelectric
hydrogen
santer
converts
isle
aidid
fiancee
pcb
beam
siamese
pockets
supremo
demolished
oceania
squatters
faking
poorer
wyeth
generous
fete
obscene
legally
plaintiffs
slashing
certificate
glitches
usaid
lineman
posco
latinos
center-left
scarf
intrigue
unresolved
parity
glut
ruihuan
textbooks
magna
stint
wears
everywhere
psychologist
firestone
bofa
fliers
micro
kagan
filings
s.c.
bailouts
birdie
admitting
batsmen
dynamite
horns
glitter
fifty
quicker
proposing
altitude
jew
leniency
herd
t-mobile
waratahs
passover
post-saddam
f
rebirth
buoyant
valverde
curry
greats
vying
record-high
congresswoman
lockdown
bumps
scrambling
vague
nips
airing
unifil
carruth
chiayi
incursions
clandestine
sketches
reefs
ambushed
downbeat
ex-yugoslavia
consideration
rovers
bryan
caroline
giggs
communal
bangalore
guarded
concussion
irb
addressing
baxter
kurdistan
vieri
impresses
nobody
upsurge
anti-china
destinations
kpmg
deserve
trezeguet
thorough
alice
ramsey
telenor
landed
kung
relishes
third-round
interrogations
palme
chilling
bruised
shores
dodd
reebok
valujet
jockeys
enact
impression
nicholas
parental
tyler
kramer
vocational
cla
jse
thrill
likens
lambasts
bavarian
wrangling
evicted
gorilla
slay
disarmed
o'sullivan
reiterate
noisy
one-shot
nicolas
guevara
origins
prey
aborted
tossed
fairness
anti-syrian
pakistan-india
informer
reconnaissance
scour
ex-official
finn
ploy
forthcoming
choir
commentator
philosopher
mossad
revoked
overwhelms
revisit
disengagement
glove
all-round
prolific
shaking
molson
jarrett
carson
chengdu
neal
craigslist
y
dignity
ki-moon
beck
duchess
bath
most-wanted
liberalize
hostel
creeps
hansen
experienced
top-ranked
infamous
beatings
impeach
commissioners
heroine
explorers
avoided
angrily
manufacture
trooper
yellowstone
trickle
crusaders
blockades
slutskaya
jurisdiction
evacuating
barthez
preventive
antibiotic
resurfaces
isinbayeva
condoleezza
arlington
cafes
bonanza
minsk
relatively
alcan
pauses
feasibility
shi
innovator
arsenic
amazing
effectiveness
telecommunication
estudiantes
jonathan
igor
disagrees
ears
tricky
high-stakes
bantamweight
stich
washed
selectors
crater
boycotting
worrying
jayasuriya
organizes
indecent
alexandria
libyans
vanished
singtel
bemoans
ranieri
lisa
jewels
seventeen
han
measuring
ripe
wiesenthal
breached
dawson
subsidiaries
vote-buying
bhopal
sparta
descend
occidental
brumbies
arrangement
requested
relic
self-defense
co#
glamour
restitution
thrills
emphasize
compassion
featured
gym
patron
disorders
sickness
forgive
pavilion
cd-rom
discharge
invalid
mannesmann
frost
insanity
nationalize
sudirman
gs
nonprofit
haneya
dioxin
baa
batman
astana
maxwell
arrange
x-ray
mummy
manages
schering
christianity
nationality
justifies
spartak
richmond
darwin
guo
hertha
teaches
congratulations
kenny
cadres
greeting
abiola
treble
mueller
irving
hoddle
authoritarian
motorbike
rosneft
prospective
bloggers
canas
encounters
aker
revelers
friction
halved
fast-food
es
monarchs
revamping
height
nyerere
yew
occur
endowment
freshmen
ancic
alberto
secretaries
activism
aerials
scorsese
educators
wilma
tsonga
csun
criticised
panasonic
throng
anticipates
informed
mayhem
illnesses
antiques
plates
sheet
armitage
doom
rower
creditor
unionist
re-open
magical
pull-out
johnnie
complicated
ambition
michel
leafs
aventis
soyuz
gilbert
defections
spoke
javelin
assisting
condoles
theories
catastrophic
averts
embryonic
greener
ama
involve
nicosia
compuserve
conservationists
plows
ex-prime
robots
waterboarding
grades
transaction
supplements
pentathlon
matsu
traditions
various
nymex
gruesome
anti-american
mistreatment
lean
tack
zia
madness
withholding
tui
driven
portraits
lamy
wipro
designate
strings
fairly
funk
numerous
xstrata
bourdais
stepped-up
identities
wef
components
devastates
smiles
lauded
belle
abruptly
weber
especially
hwa
fits
dixie
nra
hamas-led
woodstock
bullock
az
china-africa
pepperdine
+
maternal
eu-russia
daring
crusader
sutherland
provoke
injections
swisscom
hollinger
hinders
scala
filipina
rhythmic
reeve
receipts
unnecessary
prologue
leslie
remnants
anti-money
technicians
helens
eludes
slovene
mascot
hasty
versatile
pondering
thick
weaver
mystics
negligent
relocated
liz
angolans
quake-stricken
arise
kirk
mileage
ripken
norton
pitino
remedy
infiltrate
hathaway
daimler-benz
lang
convertible
slate
schoolgirl
schoolgirls
season-ending
assessing
detaining
precedent
rewarded
rudolph
engulfs
confiscates
carr
inroads
demarcation
conducting
stash
little-known
overtake
mandelson
####m
fractures
motorist
understands
assurance
comparison
unleashes
revered
defective
foreigner
leaning
oceans
ex-governor
spectrum
episode
coetzer
waning
hog
finalist
kevorkian
genzyme
pond
dirt
ashley
verdasco
phuket
generations
factfile
coop
submitted
solemn
endanger
criticise
qorei
fenway
richter
combatant
crete
taj
snowboarding
quadruple
slums
stupid
overhauls
fiesta
statute
bulldogs
fullback
ernst
assemble
torino
stoppage
ibrahimovic
adequate
abolishes
gadgets
tepid
dynamic
shane
garnett
godfather
pioneers
ruined
helms-burton
consent
tentatively
sci-fi
adjusted
manual
wc
endangers
best-selling
call-up
ittf
andreotti
conde
jong-il
aces
slopes
sutton
howell
valued
overwhelmingly
one-stroke
second-largest
bolshoi
brett
leaderboard
agony
relays
mausoleum
tietmeyer
earned
clerk
pro-russian
sia
burglar
completing
pre-emptive
churns
mig-##
facto
inflows
distributing
cisse
doohan
botha
swans
cahill
modify
malls
doll
devoted
bongo
abolition
sharm
emc
kurt
guerrero
cadillac
triggered
stark
startup
wooing
stardom
amr
collected
zairian
hualien
dm###
klaus
underage
un-backed
relationships
chic
sino-british
rainier
posed
dictionary
#.#-#
desecrated
barbaric
resettle
queue
parreira
guarding
woodgate
robbing
govern
accelerated
msf
platforms
instrument
gusmao
axis
overwhelm
bosnia-herzegovina
temples
thrower
tashkent
watchers
puma
cuisine
tenet
jinx
informs
vinokourov
beans
firecracker
pledging
contributing
lawn
rethinking
walt
locations
tournaments
xbox
kuan
pemex
mid-##
citrus
totally
propels
pavel
trumps
grown
architects
uninsured
qinghai-tibet
e.u.
unannounced
groundbreaking
gig
elevated
luanda
noel
reprimanded
defaults
biting
re-signs
lightly
viruses
umc
rigged
kpn
withholds
mountaineers
mistress
five-month
violators
internationals
depressed
crumbling
recognizing
gorazde
cooperates
ombudsman
piero
contraband
cornerback
nrl
deporting
vaccinate
fonda
anticipated
alleviate
paok
coughlin
fingerprints
balloting
upheaval
leprosy
minivan
pratt
bands
unseat
myths
independiente
well-known
abraham
safeway
continuous
kellogg
china-u.s.
erekat
red-shirts
makeshift
waver
nineteen
cinemas
late-night
vanguard
arming
motorcade
forty
respiratory
bomb-making
busiest
confess
home-made
serb-held
snakes
dubious
importation
expression
tug
courtney
ual
klose
chunghwa
gi
integrate
plotted
prodigy
neither
anti-chavez
wastes
toni
markedly
kicker
replacements
firefighting
catering
skype
mirza
possessing
usage
dunhill
supercomputer
ghosts
cruel
conquers
korda
judging
bu
schmidt
deserters
whirlpool
huaihe
cbc
chela
olson
carol
booster
berdych
k.
eisner
mysteries
suzhou
tones
crimea
sin
rhinos
gradually
coventry
orient
firemen
hurl
edison
parry
repeated
dormitory
divine
substances
clip
##-week
peshawar
wonderful
lit
strongholds
whistle-blower
doherty
metres
mcgrady
drones
kerr
unseeded
confinement
kazak
stuart
defrauding
unctad
felipe
ahmed
identifying
vanishes
mayo
exhume
uber
flour
sunk
insufficient
reforming
backyard
cheat
sufficient
troubling
gestures
bausch
dressed
generator
manuel
aspen
rewrite
edmund
reliever
sybase
t##
dnc
potent
velez
cindy
grachev
scared
downfall
arraignment
stranger
nov
peg
endorsements
anti-trust
rash
thrilling
implicates
antique
blindness
dissatisfied
tripoli
illiteracy
dismayed
jorge
upturn
martyr
calms
bettini
distributes
nail
symonds
madeira
pitfalls
mentor
diversify
prehistoric
runner-up
flush
rockers
premieres
closet
retaliatory
seagram
transnational
cups
shower
purse
revs
bean
mccann
authorization
world-class
malpractice
lynn
kitts
o'donnell
scarves
#,###-meter
#-under
perils
implications
undermines
uncertainties
long-delayed
slush
dmz
crossfire
override
companion
manpower
pires
sooner
either
ralf
suspense
snarls
linda
smelter
polaroid
swearing-in
withheld
discs
lid
tying
zoellick
arab-israeli
mosquito
pharma
rowdy
wizard
holed
brick
mcclaren
tomato
dear
contracting
robbie
exciting
bauer
guerrouj
fetes
allocation
textbook
registry
supervisor
excitement
nostalgia
maternity
continents
hinge
prc
fraudulent
viral
slowest
deadlines
schild
underworld
#com
backer
entertainer
shocking
centrifuges
oats
#-nation
pennetta
akebono
teen-agers
cornell
cos.
collaborators
bardot
vladimir
underwear
ids
completely
garang
dressing
parish
doctorate
mahal
arenas
recently
tyre
weah
heroics
teargas
cartels
selective
imbalance
sitcom
supplement
pantani
discus
lampard
crow
accelerating
johns
villepin
emily
navies
pan-american
multinationals
skanska
bergman
frogs
rehabilitate
abusers
realize
zsa
ricans
melee
ex-girlfriend
breathe
strangled
traced
marco
salaam
cemex
shuttlers
geological
hasbro
yucatan
decathlon
china-asean
bc-israel-palestinians
u.s.-mexico
gridlock
gossip
non-combat
honey
scream
boatpeople
responding
samoan
plunder
articles
cy
gagne
croatians
anti-drugs
huddle
stirring
mcewen
pol
horrific
festivals
isu
quinn
isles
ebadi
hoops
sabmiller
financially
toilets
burqa
ghetto
bowyer
associations
performer
confused
compared
jennings
ecology
transferring
complications
garner
monuments
chee
rerun
resting
tightrope
guidant
concerted
lil
viewed
emergencies
slogan
#-point
trustees
fsu
changhua
lausd
fundamental
dax
china-made
correa
accomplice
divorced
younis
ex-mayor
unveiling
stabilizes
believers
wayward
eu-us
peoplesoft
reinstatement
nottingham
shorten
impacts
frantic
tread
overflights
widows
break-in
les
osprey
interrogate
sprinters
complacency
anz
dunga
constant
committing
diageo
marbury
valdez
punching
twilight
jeans
fanfare
hemingway
extinct
landfill
bazaar
racers
log
precedes
eur
providence
marvel
solicits
borrowers
convenience
dale
a$
hke
girds
kit
perth
andorra
bananas
claus
trucker
cesar
sidesteps
swipe
minimal
emerson
foam
unexploded
bertha
wreaks
sinatra
newt
tulkarem
merchandise
threshold
unlawful
zabel
plunged
implemented
aberdeen
pccw
half-century
duisenberg
itv
bookstore
malik
fringe
pacemaker
philosophy
statesman
barricades
fingerprint
fitzgerald
thornton
artest
orphan
bacon
outsiders
server
impressed
chuck
steffi
tito
hamlet
reasonable
patterson
assert
presides
beckett
yates
pillar
cookbook
dana
gam
cisneros
kangaroo
guardiola
pleasure
couture
vies
limps
lipton
pyramids
blazing
implements
severs
#.#-percent
eurofighter
alaskan
frets
centre
reigning
directed
tractor
decider
hurls
flourishing
spaceship
skinheads
motives
rendition
prank
linux
edmonton
newton
ex-police
bobcats
whitaker
aunt
hiatus
ex-nazi
rockwell
rosie
taxing
scans
amoco
preserving
abdul
superior
collections
chennai
resisting
balloonist
valladolid
privately
expenditure
nina
endure
menendez
guadalajara
qiao
monfils
#-game
pa.
ariz.
hkd
wreak
constellation
socialism
restarting
shepherd
dividing
claes
homosexuals
kwazulu-natal
smiling
offences
supported
ince
indecency
fractured
rangoon
hiking
madame
surfing
favoring
thermal
slugger
agricole
steeplechase
circles
ariel
knesset
ignite
exported
sketch
kashima
steaua
postponing
restructures
medina
whirlwind
adjusting
jude
reyes
chili
endangering
ang
migratory
flops
unprepared
inclusive
obstructing
famer
chinatown
homegrown
destabilize
isaac
deco
beverage
high-end
cunningham
rachel
kitty
delgado
spied
serviceman
rowland
campuses
post-quake
reilly
herb
afloat
camby
tomas
ballpark
lindsey
lomb
t-bonds
signaling
tuareg
deception
shelf
bikes
miliband
allay
anarchists
mombasa
chissano
shortlist
refers
whips
pippen
loosens
ko
flourish
noose
war-ravaged
nan
prosecutions
two-time
trimble
maldini
drifting
purple
gunships
polygamy
oval
fayed
cooler
bjp
linde
largest-ever
manuscript
nedved
positively
aragones
defended
demonstrates
speculative
ante
deteriorates
robbins
metz
perugia
mountaineer
barton
severed
kindle
val
caring
emotion
proposition
archaeologist
martian
subsidize
aquatic
odom
trans
jibe
kadima
refinancing
ono
grandfather
goddess
akzo
unicredit
shedding
dong
alternate
skandia
pentium
consultative
dominicans
attributed
neville
salad
imran
dec
simply
dassault
whatever
function
hobart
leopard
beached
wrestle
cadets
pares
ushers
unsc
drove
supervise
rangel
yanukovych
shoplifting
blades
beckons
resolves
descent
einstein
airlifted
cede
lowly
rumbles
conner
upswing
ex-ceo
parliaments
jammu
welcoming
sophisticated
file-sharing
wii
ex-guantanamo
feng
lantern
forefront
actively
retiree
deliberating
stefan
dignitaries
sandra
specialty
svindal
prairie
ict
minimize
courting
akashi
paratroopers
motions
viduka
abducting
budge
bathroom
administrators
kissing
rakes
pompey
inkatha
rjr
dolls
fends
versace
knighthood
mobs
midway
mint
nepad
satisfactory
feisty
edinburgh
disqualification
revaluation
manson
veiled
electing
holdout
ineffective
needle
tiffany
harboring
shifted
located
pragmatic
fowl
chinese-made
dea
upscale
sinica
dialog
roosevelt
missteps
cilic
vent
novels
machu
civilization
cristiano
o'leary
unstable
ftaa
hideouts
separatism
criticisms
fantastic
hampering
season-opening
short-track
ordinance
praising
louima
attitudes
tomatoes
carlyle
quito
xavier
suspensions
dwellers
olazabal
bjorn
scaling
intruder
omx
crewmen
vampire
tirana
squeezes
open-ended
dismantles
alleviation
mancini
booth
divert
reorganize
matthews
begs
directive
klan
pharmacy
kibaki
assigned
islet
nasd
citicorp
heilongjiang
gio
fay
planets
georgetown
afforestation
levine
cowell
crist
someone
clemson
fy##
belief
remainder
sanaa
macquarie
picchu
transsexual
wipes
wrecked
tajik-afghan
binge
disbands
hongkong
trailing
face-to-face
foundations
halve
airbase
rescinds
gil
compatriots
nudge
wiesel
grouping
deliberates
gayle
grasp
re-elects
memorable
historians
astra
taiwan-china
ex-king
chipmaker
nor
barbarians
sergio
hostage-takers
anti-muslim
readying
roe
ipod
durban
item
filmed
icons
packard
overlooked
coaster
intern
exploiting
projection
drums
altria
payrolls
renovate
mold
displace
frog
bayreuth
prints
airtran
skirts
luring
embroiled
kaiser
prone
bastille
transformed
housewives
ab
vigorous
newsman
sainthood
consultants
docking
chicks
pall
boyle
logic
pounding
savor
protested
broadcom
foxconn
tangled
biogen
staten
plain
acl
twente
n.e.
asu
wakes
ibrahim
ditches
drought-stricken
whistle
destined
henkel
canseco
tasmania
frontrunner
extent
tasmanian
sol
ebbers
ecclestone
algarve
headaches
heroic
francophone
snubbed
absorb
tucker
polynesia
citadel
real-life
kanu
bioterrorism
cipollini
bbva
groove
claws
confronting
commemorating
everybody
sharpens
citation
switched
comatose
midland
bump
drug-trafficking
dynegy
minefield
visible
rosset
midafternoon
ruby
flood-stricken
brando
alfred
maccabi
condo
vulnerability
tucson
er
sequence
ogilvy
sf
prop.
printer
docomo
warhol
ex-aide
pro-kurdish
obey
deceased
ammo
anti-tobacco
overheating
nationalism
juninho
ig
play-off
spearhead
breather
inzamam
hebrew
secretariat
closest
buoys
preval
villager
purpose
harming
re-opens
plugs
listings
wharf
grande
quirky
initiate
disk
tablets
compatriot
unlicensed
coastline
omagh
breeze
mellon
reservist
enriched
heighten
bamboo
careers
bakassi
rifles
contracted
enlist
marley
massacred
daley
liftoff
habit
groom
eternal
bittersweet
univision
dances
astor
colbert
allenby
melzer
misdemeanor
acura
isabel
spraying
elway
pachuca
faith-based
dix
eto
taitung
pants
woe
locally
strife-torn
ringgit
ex-communists
upwards
otto
referred
repurchase
ticking
prompting
climax
expatriate
two-way
mutu
unlimited
medellin
firebrand
curacao
breakthroughs
prize-winning
allegiance
dining
kawasaki
genuine
roland
amidst
foray
boonen
breakers
analyze
starring
swiftly
enthusiastic
locust
bochum
guggenheim
relying
costume
engineered
revisions
repairing
snipers
preconditions
airlifts
slaughtered
fredericks
eln
reggie
romero
referendums
directs
containment
cookies
boundaries
topics
blocs
chemist
stigma
hanks
scarce
footwear
eastbourne
charley
descendants
rancher
tian
fec
sammy
djia
paso
biz
orchid
saint-etienne
year-ago
gaddafi
resilient
brains
scant
trumpets
kouchner
magistrates
breakout
frenchmen
airforce
parliamentarian
enlarged
reserved
unleash
abductors
ascent
aqaba
topless
formosa
pensioners
che
nicotine
clips
legalizing
dispel
off-duty
credited
sags
catalunya
punishing
messaging
mix-up
vaclav
calgary
militancy
mozambicans
waterfront
seville
length
jubilant
jenkins
mcdowell
pipes
dinosaurs
harassing
attractions
glow
lyrics
overpowers
sub-saharan
trusts
renovated
handled
hindering
yu
rahman
jeremy
selena
bolivar
pamplona
luster
weightlifters
hormones
preserved
categories
bachelet
motivation
hello
adobe
norris
richer
wyclef
ribery
portrays
grads
cancelled
pac-##
mcgreevey
changchun
iberdrola
dj
heralds
tate
tooth
prada
illegitimate
aspirations
mutilation
partition
souness
axel
cardoso
dos
hochtief
sikhs
paedophilia
importer
booking
standout
mullah
heather
hurdler
aegon
us-russian
star-studded
daylight
eastman
anti-musharraf
pasta
reorganizes
mushrooms
post-katrina
newsprint
part-time
conserve
upstart
paralyze
jeanne
reborn
everett
kirilenko
batsman
pops
accountants
precaution
californian
erratic
theatre
filter
atalanta
computerized
unmarried
rowling
monoxide
must-win
mutombo
balloonists
uptick
porter
knox
avon
meteorological
skakel
bcs
longhorns
lavrov
scandal-hit
scars
fairy
absurd
atherton
quayle
rupert
buthelezi
savior
hercules
puppet
yoga
fractionally
overweight
beard
commemorations
anti-mafia
gregan
spinal
us-backed
lander
expectancy
cairns
cocktail
swims
delights
rescheduling
independents
pamela
jacob
lamb
hasina
vocal
responses
truly
nudges
griffith
hasten
schering-plough
nieminen
baton
ideology
humiliation
julius
toms
charitable
governor-general
bind
disagreements
pricey
dedication
gregory
detectors
coping
expedite
muse
crumbles
drawdown
shoddy
visions
castillo
lynx
rebuffed
ingredient
compelling
assistants
endorsing
mussina
querrey
spinach
mta
yunlin
flagging
tusk
sabre
detector
bowe
masse
drug-resistant
marrying
unfinished
gough
eight-month
coffers
think-tank
dragged
mona
allowance
second-half
beatification
mishandling
israel-syria
canaries
kvaerner
evergreen
posthumous
tolerate
flew
blunders
payback
african-american
gorillas
altman
youthful
laughing
envisions
clubhouse
beltran
feathers
reinsurer
invention
nip
turbine
sparkle
needles
moderation
avs
dauphine
feeds
flair
ut
hummer
rows
cooke
patrolling
dueling
vanishing
octuplets
ranchers
cbot
marcus
#-hour
jeffords
carla
sleeper
rescuing
effectively
element
schoolboy
gained
scoops
stiffer
cling
bikers
diverts
israeli-syrian
natwest
grinds
midair
taunts
trunk
flak
snares
gillespie
solberg
narrower
eco
hardest
cosmetic
combs
ballerina
inn
lively
gis
grieves
twists
principe
legalization
morgue
incitement
wake-up
irregular
spinning
homework
rusal
uzbeks
massu
obsession
year-old
reassess
relies
disgrace
auditing
cranes
patricia
enduring
anti-subversion
chiquita
suggesting
shipbuilder
keller
bees
reformed
koch
lauren
enormous
tadic
nationsbank
telmex
passions
ekeus
encryption
slots
lutheran
frazier
possibilities
cadet
amelia
small-town
moenchengladbach
imperils
dominating
attached
harrah
lukas
comair
contestant
jlg
baystars
susilo
##-billion-dollar
shadowy
reel
cooks
kyle
thrift
fresno
jeffrey
caviar
senna
deion
stoner
kumble
plagues
repel
merging
loya
scuttle
overcoming
fixtures
alumni
naira
ex-cia
terminals
guadeloupe
epidemics
ideological
skirmishes
playground
unjustified
swear
right-to-die
empowerment
ejects
stormers
aviator
encyclopedia
defeating
pro-kremlin
no-hitter
cave-in
hrbaty
exhausted
terminate
unscheduled
viable
fingerprinting
preaches
eyebrows
opposite
seaside
veers
skyrocket
satire
cracked
ciudad
hybrids
fountain
hoffman
mann
relentless
siena
icj
selecting
suarez
shanahan
nat
chakvetadze
brien
ams
huskies
holloway
megan
a#
wobbles
hbos
rejoice
jp
federated
conditionally
sacrifices
folks
calzaghe
cod
grills
sugiyama
pan-african
matthaeus
zinc
stopover
tycoons
promotions
one-dayers
radovan
greatly
frustrates
sake
pro-taliban
troika
cruiserweight
sheltering
shrek
milton
ecevit
batistuta
bora
monet
urine
lip
subways
henson
culling
touted
bully
hawking
culinary
transcripts
evictions
marketplace
weed
unfolds
invisible
spouse
reproductive
cruiser
powerless
buccaneers
ltd.
owns
cancers
accurate
disbanded
fairs
stemming
connors
beneficial
presentation
pelt
lazard
calamity
unsolved
tee
ebbs
seismic
deluge
b-#
consistent
director-general
hells
vacancy
canoe
scratch
adherence
yomiuri
mukasey
n.t.
shipyards
vigilantes
fatwa
charms
monroe
heaviest
norilsk
arrow
hitzfeld
processor
tutsi
insolvency
full-time
outrageous
ibero-american
putnam
quadruples
half-time
romps
dentist
sabbath
argentinian
wows
eventual
discourage
outdated
k
cutback
represents
multi-billion
beast
wane
thorny
airshow
peking
operatives
glazer
kelley
smoltz
crewman
jacket
aqsa
merges
airfield
handler
friedman
monitored
gamblers
beijingers
helmets
mandarin
fe
sculptures
spiraling
unclaimed
pier
quandary
bud
lili
alamo
movers
gooden
varied
superintendent
limitations
achieving
tar
u.s.-russian
babbitt
broward
tzu
deferred
aga
winding
resurface
weakest
high-risk
slope
rainforest
hides
confidential
##-pct
scoop
thales
stood
showtime
exaggerated
al-islam
wi-fi
jagger
mujahedeen
renegotiate
millionth
erbakan
pri
freely
leo
engaging
audits
###-year
four-way
co-defendants
slaughterhouse
download
andrea
pools
miramax
console
morality
angst
morning-after
troy
mismanagement
atkins
motorcycles
olajuwon
zyuganov
stringent
shenhua
devers
julie
dialysis
gannett
holdouts
leverage
pedestrian
endorsed
types
neglected
assignment
ponzi
anticipate
scrutinize
equipped
'n'
equalizer
bests
scrutinized
talented
lester
conservancy
omv
nato-russia
convincing
infects
restrictive
rues
propel
anarchy
belly
hesitant
karabakh
lorry
fraser
razed
newfoundland
anti-castro
villiers
testifying
communion
guatemalans
caricom
inform
duff
goaltender
sunset
scotia
rethinks
gte
vacate
murali
ms
crespo
cordial
dem
leonardo
boos
pre-olympic
alerted
norfolk
bent
enrich
chileans
refiner
skirt
obscure
soliciting
thorn
bmg
f-#
hitchcock
surged
salem
physicians
rarely
truman
karate
cardiac
jeopardize
vary
wong
comics
interfaith
wetland
commercials
valdes
valentino
surprisingly
mesa
normalcy
ordina
overseas-funded
hanshin
noticias
mulled
adecco
brother-in-law
stalks
tumors
kai-shek
fledgling
bruguera
buddhism
forrest
brazzaville
six-day
trafford
synthetic
chung
synagogues
millar
accomplices
debt-ridden
billionaires
baku
banknotes
ltte
regulating
agnelli
motherland
burying
vip
impeached
granddaughter
a-shares
sharjah
shelve
corrections
preserves
invading
retrieved
commemorated
ahtisaari
postage
payouts
formidable
solitary
jonbenet
knocking
cagliari
catherine
bosque
diouf
villain
tastes
ineligible
vendor
byron
grocer
armani
handlers
connects
kickoff
niagara
cripple
bitterness
hardy
imaging
brunt
us-india
brooke
scaled
helmet
pummels
free-agent
nathan
barr
guided
infusion
nolan
tahoe
ohno
motel
nfc
potash
evolving
recruited
fuzhou
pixar
anymore
aviso
bc-connelly-column-spi
ff###
aviva
meteorite
reshuffled
ravages
rumored
peruvians
lesbians
stab
saatchi
bujumbura
nearer
nhk
deisler
fence-mending
unblock
judgement
oates
contradicts
stowaway
snowstorms
detonate
murcia
hypocrisy
malisse
techs
t-shirt
dragonair
car-bomb
windy
psa
catania
whitewash
ljungberg
supercup
sensors
ebb
assailant
freire
viking
contestants
two-state
roaming
notices
throughput
exist
packer
marxist
secured
weiss
mutola
predicting
resentment
countrymen
manufactured
infantry
guiana
frederick
rhythm
consolidated
revising
dwindle
weird
xu
recorders
rebellious
shriver
irabu
forgives
hanna
newsday
ipu
guilin
allure
allstate
puzzles
mcchrystal
hazing
notification
painkiller
limbaugh
caicos
sallie
nacchio
super-combi
koreas-nuclear
couric
bluefin
meth
mid-####
envelope
simpsons
swirls
soweto
pile-up
anti-tank
assigns
spratly
waigel
soaks
leipzig
rightwing
kits
denier
gunning
crocodiles
compensated
feat
hakkinen
unearths
technician
sustains
birdies
undocumented
kosovar
bahn
choking
scholes
perpetrators
knights
trawlers
copying
keepers
reggina
detour
curious
hawkish
shade
locusts
bondholders
spadea
populous
short-lived
blend
religions
predator
leakage
conferences
bonnie
classrooms
instructions
allocate
cit
perilous
anchors
cements
belong
grupo
msnbc
laboratories
rollover
terminates
directing
moe
generating
sino-german
copes
sampling
asturias
swollen
maglev
judy
munch
karlovic
staffing
falwell
nassau
tulsa
postbank
orderly
rembrandt
creep
excludes
fasting
intrusion
gravely
deliberately
one-two
bruton
firebombs
mufti
firebombing
soda
prolongs
yves
tabs
polisario
ten-man
exploded
assassinations
medallist
bpd
priebke
brew
dashes
amir
ponte
entitled
two-shot
progressive
employ
blacklists
sauce
catfish
bolts
bolstering
fats
industrialist
forwards
reschedules
bails
mcnabb
array
rene
millionaires
hambali
rocca
schizophrenia
joubert
unwelcome
farina
snipes
maleeva
contraceptive
bohai
errant
adjustments
matching
devastate
deems
biologist
tablet
costing
glasses
unscom
foothold
yachtsman
punches
harness
cosmonaut
reliable
prosperous
crossover
accommodate
rochus
charleston
bleeding
simplify
discoveries
riles
vernon
exhibitions
wit
anemia
operates
marvin
cuche
wawrinka
randolph
juveniles
harmonious
omaha
creativity
catalog
#-time
mdgs
disablement
preside
parked
unanswered
eventually
responsibilities
bougainville
mansell
greeted
eight-year
mauling
indy-car
handgun
owe
anti-communist
vicente
arc
war-era
invested
confidant
plaque
stallone
rained
tenants
prelude
poem
installing
waging
micron
lanes
bakery
pernod
gasol
andes
amex
upstages
cough
heptathlon
nuts
jailbreak
relinquish
hank
exhibited
interpretation
hardship
tram
bribing
genetics
defusing
two-stroke
###-day
forbids
freezer
clarity
poulter
carnahan
breeds
majoli
placement
cloudy
coptic
warily
yat-sen
pouring
##-run
arranged
clearer
percentage
diane
pnc
borg
glavine
actually
telecast
garments
saxophonist
bourque
bowden
bros.
novell
certified
doug
levees
andreev
valero
p.m.
legg
cameroun
miami-dade
coding
q&amp;a
licences
streisand
dexia
afar
effigy
gritty
unfortunate
falcon
disturbance
unprofor
arsonist
scoffs
sprained
typhoid
transporting
praying
anti-sars
rabbit
betrayal
mobilcom
angkor
niece
sedans
impotence
brokerages
undertake
rekindles
distraction
pavin
reprimand
hoechst
rested
goats
scathing
telethon
domino
tirreno-adriatico
transfusion
demolitions
chinese-american
berenson
breathes
unravel
welch
introducing
lawless
stan
samba
next-generation
gabriel
natives
blanco
noah
surcharges
us-iraqi
mosquitoes
death-row
annul
hooker
refs
preference
phantom
rations
tillman
simmers
negroponte
destructive
roth
adelphia
lech
unlike
all-africa
sabatini
anti-personnel
cantv
eximbank
disclosures
savvy
bottled
acute
portuguese-speaking
harsher
conventional
refueling
julian
quarantines
shea
conoco
prompted
sculls
gardner
chose
screeners
epee
same-store
burnett
couch
cowardly
yoko
ravage
collusion
intimate
crafts
enquiry
dram
forcibly
east-west
overcrowded
far-reaching
isuzu
mini-summit
stumbling
escorts
socialite
handset
unwilling
pharmacies
graveyard
prewar
component
camacho
forlan
prom
intend
five-nation
hats
trw
shortcomings
peoples
superbike
pro-palestinian
euphoria
ethiopia-eritrea
pro-israel
williamson
stosur
farrell
healy
debit
plantations
ravaged
shippers
confed
lange
paralysis
highlands
openings
denounced
pomp
retrospective
muluzi
one-man
listening
drinkers
schulz
renames
ex-husband
steelworkers
baros
enforces
bonded
imbalances
surgical
unharmed
backfire
mid-###
invitations
herman
proteas
mobilized
aggregate
perkins
trucking
chairmen
writings
mayer
nawaz
sd
saratoga
nantou
drafted
furore
stubborn
wpp
shaft
brescia
bugging
dons
himalayas
sydney-hobart
three-week
break-up
proceeding
accreditation
branded
vukovar
achieved
in-flight
camden
honolulu
hardaway
princes
irvine
continuation
disturbances
query
pro-reform
delray
compromises
ai
tirade
slogans
sharpen
yan
tab
progressing
mountainous
overcrowding
ambushes
penney
glaciers
fortress
normandy
amputee
although
redgrave
hernia
structures
occupancy
stoltenberg
separates
benson
mo
peters
bulldozers
mayon
bg
methodist
overs
ex-deputy
kayak
grounding
depicts
fielding
cordero
pulpit
necessity
autistic
non-communist
atypical
coo
nonproliferation
fritzl
olimpia
hamas-fatah
peanuts
emanuel
matsuzaka
evangelicals
gundy
boyd
segment
cec
essence
deposition
villanova
muqtada
progresses
writedowns
prod
ammonia
eastward
spinners
voodoo
forgo
hutus
kosher
ratified
fungus
palaces
tahiti
lokomotiv
hodgson
vengeance
flotation
recruiters
knives
dunlop
morientes
promoters
mph
teng-hui
flex
demoted
wasps
shimon
hewlett
inkster
israel-lebanon
achilles
sex-abuse
nails
iata
watts
overpower
pest
triggering
gourmet
tow
chery
descends
doctrine
heartbreak
comb
presenter
popov
half-marathon
maestro
concluded
joint-venture
ironman
curriculum
ctbt
commute
harley-davidson
sochaux
biblical
humane
epicenter
nursery
strand
toothpaste
assailed
bjorndalen
antiwar
veterinary
permanently
schuster
rahlves
avandia
sudamericana
line-item
mirrors
veep
enroll
riesch
hoffenheim
ahl
harvick
smu
dresses
parting
demons
marketers
a-bomb
cane
suppression
yamaha
besiege
kluivert
regards
flamboyant
cordon
inheritance
three-time
vanish
cannibal
red-hot
skis
impatient
leisure
educate
strangling
dealership
pep
unfounded
unrwa
centres
bergkamp
anti-immigrant
dominguez
regaining
buoy
dinamo
raft
bates
mick
fiba
versions
immoral
memorials
unpredictable
courageous
brokeback
#-for-#
acp
liquefied
bushfires
avery
ovation
extinguished
grieve
thurmond
oneworld
bares
wakefield
lyle
ottey
clint
compare
electrocuted
coconut
diaries
olsen
alma
reasserts
surrogate
hallmark
gentle
guardsmen
pontiff
moreno
halfpipe
politkovskaya
write-downs
indian-held
disadvantaged
asif
vineyard
eduardo
#-way
subtle
wiring
chevy
header
coliseum
deaflympics
cavendish
schumer
sooners
##-kilometer
us-mexico
censures
mid
coy
delors
craze
blue-chip
dae-jung
iranian-american
ceausescu
custom
lambert
injury-hit
practicing
mi#
foresee
tangle
sixty
kirsten
outnumber
bailed
defaming
cosmic
dillon
ingredients
ssangyong
shan
licensed
nicholson
multimillion
clot
sardinia
toddlers
spilled
minivans
compass
jeers
liar
follower
beliefs
exposing
sermon
directv
reburied
cuny
mobilization
ding
sweeney
woosnam
shrines
improperly
biologists
downey
thrilled
eto'o
angering
imams
mca
fried
permitted
executing
crest
b.c.
receivers
caddie
allison
mermaid
pats
hard-hit
surfer
biology
navarro
offseason
emma
loving
commencement
physicists
wr
jenny
mound
maarten
columbia\/hca
pingtung
weathers
umbrella
goya
juncker
ciba
prized
snack
masterpieces
preps
billboards
ill-fated
gere
presley
peabody
pretrial
owned
kantor
lips
owed
croc
accor
abolishing
signings
meddle
richie
kbr
ansar
wreath
tracing
flare-up
packwood
snowy
covert
non-stop
warmly
veron
start-up
utmost
rust
hooligan
dover
casual
vicious
lawlessness
knowing
bowing
watford
pyrenees
expire
satisfy
braga
soriano
schweppes
makaay
receding
cameroonian
basten
thirst
nix
notion
slurs
slipped
synchro
gaal
lithuanians
coe
generators
webster
spirited
exists
participating
alberta
blowing
oz
cans
remittance
non-oil
merged
quoted
advantages
templeton
j.d.
everyday
substandard
loopholes
energy-saving
chimp
benchmarks
bus-truck
potatoes
expressed
stayed
overruns
andres
modano
nonstop
costner
limited-overs
gaza-bound
hulse
mainz
orbiter
insiders
cheng
ningbo
anatomy
trout
ole
iniesta
bc-iraq
regents
switzer
pay-tv
greed
cheering
biggest-ever
chanderpaul
enclaves
exemptions
unfairly
stasi
plasma
talked
sums
continuity
bashes
boao
simultaneous
kiribati
flattens
shallow
telkom
outdoors
joey
stripping
rai
rotating
enforcing
ram
yorkshire
sidney
crouch
mania
homelessness
brothels
objective
irate
mias
outlast
shakira
bedouin
chertoff
ginepri
subsidized
microscope
realities
wilkins
reprisal
fallon
adjourn
cingular
subside
schwarz
sections
bosch
bordering
sloppy
clearly
cruyff
hiv-infected
metric
module
entities
farrow
dementia
microwave
deeds
excavation
eugene
pujols
glen
ramos-horta
perception
cannons
substantive
alkmaar
cancellara
boone
keelung
disabilities
hasn
talladega
kyushu
navajo
advanta
first-edition
cpn-m
nosedive
flexes
fundamentals
firestorm
barker
oj
tivo
sighting
mariah
irreversible
eats
collaborating
definitive
post-taliban
sabotaging
ldp
turncoat
mechanic
boring
underlying
restrain
trevi
sincerity
massage
transforms
remedies
dorfmeister
logjam
basques
fluid
cherry
retakes
hurled
deployments
contraception
ex-officer
subaru
alpha
hermes
certifies
pickups
tnk-bp
heidi
overboard
zeta-jones
colosseum
consultancy
drastically
beatle
reps
lower-than-expected
misused
acceleration
bravo
redefine
widower
clown
eu-africa
muslim-croat
skates
mahdi
filibuster
salesman
silly
incomplete
illustrates
netflix
issuance
outpoints
span
hr
buffaloes
b-##
musicals
mobsters
franchitti
fraternity
sino-french
televisa
magnet
maytag
twain
garrigues
urbanization
supervisors
##-game
zenit
imus
old-fashioned
dredging
isner
conagra
quaker
statewide
lazarus
nano
beds
fuzzy
gird
raf
achille
lire
kangaroos
grudge
armistice
brightens
spinner
deportees
plenum
hindu-muslim
exploding
lotto
tit-for-tat
tergat
humbled
punter
paralyses
complicity
cures
washing
interrogated
humiliating
slobodan
four-time
fascist
deep-sea
incredible
texts
funded
expats
aborts
combines
trescothick
resistant
rib
reunites
swinging
bouteflika
handshake
quickest
hooliganism
shortstop
contend
mathieu
shakhtar
blossom
allergy
luo
khomeini
unc
chateau
reprimands
abnormal
aspects
imperil
ames
soared
ovitz
bye
surface-to-air
chanel
landmarks
socgen
bassist
paddy
narrowing
significance
veils
lasorda
antilles
conan
mri
gms
sr.
faeroe
muni
:#
nih
distressed
trusted
bruni
interrupted
non
exploratory
leaguers
outokumpu
pena
pre-holiday
mid-term
martyn
invades
no-frills
quarrel
consulates
genital
activated
excuse
blew
harvests
sharper
ex-head
outright
javier
post-####
kramnik
shameful
rubbish
mixing
hamed
eib
putter
####\/##
inflationary
antics
ekes
mathematician
small-scale
highlighted
bravery
confined
flirts
theodore
norms
kucera
sc
frail
rosenborg
subsides
underscore
rents
make-or-break
golkar
acc
ovarian
sinclair
crash-lands
satan
aspirin
redesigned
payne
censured
decorates
fore
estrogen
arbitrator
bullfighting
indie
severstal
port-au-prince
affirm
photojournalist
hoped
###st
pottery
dial
directions
interesting
mack
horton
creators
jeweler
co-defendant
piniella
#-man
j.c.
pntr
nmd
wttc###
milutinovic
priceless
microchip
rothschild
pubs
hunger-striking
windsor
sours
stevenson
arianespace
nativity
yugoslavs
ppr
tenaga
shantytown
dispose
reignites
nicol
spd
fracas
rabbani
cnpc
mwanawasa
sideways
ultra-nationalist
smashing
cargill
vigilante
hamburger
reset
sweetens
slack
eldest
dept
ex-military
english-language
defected
ancestor
pre-dawn
wrestles
vaidisova
forecaster
doldrums
adu
husbands
swirl
excuses
ancestral
competent
fitting
vaccinated
raze
admirals
discriminatory
measured
peasant
gdansk
painted
asprilla
weizman
dorothy
moses
ceremonial
passionate
bipartisanship
rigs
sportsman
artery
celibacy
vazquez
kerik
ginobili
separating
coppola
squeezed
longoria
compounds
ufo
demilitarized
porcelain
mullen
teva
cnbc
calleri
doral
weight-loss
seagate
ce
glover
echostar
dudley
montesinos
philanthropy
malkin
relaxing
haniyeh
spite
sheryl
cookie
k#
horticulture
gwynn
semenya
mancuso
rodham
realty
usf
reich
ranbaxy
mp#
###-million-euro
denouncing
brighten
exhorts
maldivian
obscenity
post-soviet
molester
high-flying
activates
century-old
beacon
mandates
prototype
overseer
disobedience
renounces
burberry
gazza
vigils
onboard
ageing
baseless
retaining
candid
ropes
touching
rostropovich
stagnant
locomotive
protectionist
oak
posh
geely
nine-year
rumble
reliability
unborn
bearish
outweigh
lifter
violin
click
chandler
impartial
riquelme
deserted
mcbride
comparing
sauber
blessings
forth
leans
hospitality
willy
legalizes
awakening
boardroom
shortens
rusty
joyce
indo-pak
rods
rites
authorizing
gum
wasted
greatness
homicides
caller
profound
redesign
edible
scion
grandma
labors
habibie
triangular
eminent
proven
downer
whalers
fielder
conrail
cyrus
smarter
murder-suicide
elegant
farnborough
malvo
hayward
lanqing
skill
greenwich
ivy
shui-bian
zepa
almagro
labonte
u.n
postelection
baqouba
wamu
priced
pnds
minnows
warhead
dior
erotic
pharmacia
seven-month
inflated
storming
deserts
depths
kane
stranding
tax-free
forceful
primed
laxman
litter
delist
addressed
wax
geese
tszyu
overseeing
pigeons
dion
skinhead
scottsdale
poisons
boavista
unrealistic
gambles
roosters
altar
carpenter
exception
fancy
peacemaker
hargreaves
des
buffon
eclectic
distributed
accountable
extract
hunted
floors
messenger
haunting
chittagong
fluctuates
eco-friendly
pro-west
regimes
arrows
bureaucrats
boardman
dove
paceman
aspiring
jump-start
thugs
mailing
rodney
garlic
halls
bicycles
chubais
announcer
sanctioned
astronomer
pine
reversed
short-range
lochte
baosteel
mushroom
magellan
detonates
mahmoud
libere
enterovirus
contemplates
encore
dodger
stellar
deterioration
burris
sightseeing
overstated
preliminaries
for-profit
comp
pellegrini
rodeo
derek
co-owner
wasn
h&amp;r
python
failings
spanish-language
sos
buffet
pedestrians
romeo
splinter
swindle
absorbs
jansher
grobbelaar
nc
luka
higgins
gump
surrounded
syrian-israeli
woodbridge
lpg
enlarge
honesty
dedicate
cassano
smoker
mediating
scanner
poso
choke
saboteurs
iom
gloucester
skulls
consolation
cousins
bedroom
separately
lib
skopje
regardless
reschedule
mauritian
long-haul
babe
non-essential
mates
medicinal
shaughnessy
jehovah
non-governmental
+#
ancelotti
entity
aynaoui
deepest
pensioner
gymnastic
exceptional
guyanese
motorcycling
sputters
palmeiro
sms
cord
pablo
ecumenical
booze
getaway
awash
maskhadov
biaggi
backfires
mizuno
cue
harassed
personally
mitsui
registering
schindler
perish
bio
tci
incumbents
renovations
panetta
stimulant
ozaki
bankamerica
excluding
tina
misusing
candles
wikipedia
tilt
afro-asian
lobster
evert
flourishes
ex-soldier
live-fire
bruising
cosco
storied
insured
patterns
setup
servers
nagasaki
dazzling
predictable
pennant
transgender
simms
snyder
frustrating
nsa
saks
surgeries
automobiles
disparity
jerome
chunichi
contends
islamic-rooted
vanderbilt
knoblauch
armey
hatchet
theologian
affleck
contagion
gatwick
optic
t-shirts
retract
provoking
upside
screened
spawns
lauro
groundwork
hooper
classmates
outpace
jab
beggars
cpo
elias
late-term
oversubscribed
timberlake
eritreans
gutierrez
halladay
spurned
pollard
embarrassing
dailies
organised
rescind
vaults
sesame
blossoms
unsettled
behave
mcqueen
flood-ravaged
jeddah
barghuti
sandstorms
un-iraq
coffins
exhumation
pioline
fixture
aris
abuzz
divac
bottling
trophies
ufj
equitable
ex-presidents
vogue
election-year
gatherings
cirque
xm
penal
stuffed
elie
rivalries
lectures
gunpoint
objectives
distrust
voluntarily
wagon
trilateral
entertaining
devise
underwood
burrell
subjects
blooms
vacations
flips
inequality
overshoots
fide
hollow
bulbs
hepburn
curve
chamberlain
scrolls
longs
stereotypes
lacked
bernstein
flesh
confiscation
d'italia
bahamian
cochran
monthlong
lauder
hao
earthlink
prescriptions
r&amp;b
rb
azarenka
take-off
w
lourdes
mr
aristocrat
preferences
protestor
weu
repays
turbines
bouygues
burglars
antelope
softening
erected
reinforced
in-depth
charred
follow-on
supersonic
levies
dissolving
towed
joaquin
flu-hit
prudent
awol
lookout
hanbo
stifle
finalizing
centre-right
crying
zinni
gale
buyoya
cataract
defunct
bernie
harms
anti-malaria
balcony
alain
persie
europe-wide
ouattara
endurance
jackal
forensics
consolidating
disclosing
fastow
hedges
yilmaz
eccentric
baffert
non-performing
bibby
claude
recedes
unconscious
probers
long-running
videogame
clunkers
futsal
cendant
mentality
gaga
racy
aniston
gambill
beetle
bach
alicia
formulate
evaluates
dismissing
freshwater
doris
buffs
rosicky
ricardo
vanity
brain-damaged
bjoerndalen
contrast
intuit
mailer
belfour
euro###m
medtronic
bc-as-spt-crk
md.
surinamese
cellucci
ntu
longest-serving
depp
fakes
advertisements
craxi
bookies
warburg
stoned
norwich
tight-lipped
borrows
intruders
shatter
demirel
deficiency
longevity
copycat
vladivostok
landlord
realignment
pests
jia
cakes
pathologist
stretched
fume
alley
whitbread
attended
luxor
dinar
arrogant
skoda
darling
pro-tibet
sans
gerard
volcker
remo
interbrew
baseman
mccoy
euroleague
phenomenon
policymakers
harbors
restarted
youngster
gallas
month-long
lemerre
us-bound
celine
kisangani
cassini
scarcity
nordea
seabed
nakamura
pedal
boating
punishments
forfeit
souvenir
hardships
operated
mururoa
eag
unhealthy
ameritech
maze
erect
garrett
corners
decorated
newsroom
allah
resilience
lotte
barbecue
bce
moose
manny
hanover
emmitt
celebs
readied
protege
confab
withstand
gardening
robotic
stricker
visionary
chronicles
blends
tora
morakot
edgar
vince
differing
greco-roman
#-run
grandmothers
ff#
jv
email
us-born
invaders
maul
mere
calvin
moots
germain
trafalgar
banja
tan
publicize
defrocked
rife
mistrust
sync
##.###
minardi
perfection
sparring
squabbling
attorney-general
boks
extravaganza
desailly
exempts
advocaat
contemplating
unido
reckoning
weaknesses
tabloids
relevant
systematic
co
beethoven
hoarding
sarasota
##.#-percent
monde
far-left
garros
attache
lafarge
clutch
sober
sandinista
solheim
refocus
testaverde
marital
critique
lego
refer
overcharging
bentley
stalk
osbourne
giscard
suitor
para
terminally
valve
internationally
abkhazian
erik
fax
classmate
injustice
bend
merits
bing
schlumberger
thanou
glider
emporium
israel-plo
hoop
magician
sift
bottler
dealerships
placing
typical
fashions
updating
alligator
leaguer
patrons
shootouts
quaid
seibu
desmond
nixed
kamsky
gamba
nut
multiyear
automated
spaces
molinari
xie
westchester
aarp
particle
fuming
calmer
revel
firecrackers
atheist
lessen
lear
stonehenge
sadat
prognosis
divest
koller
one-off
dubrovnik
yorke
osteoporosis
unjust
freeport
breweries
suicidal
practitioners
torching
magpies
akram
tug-of-war
rain-hit
gouging
sorts
halifax
pre-poll
iv
differently
chunk
pleaded
suitors
spectator
streaks
redford
cannavaro
hack
functions
puppy
post-sept
check-up
static
davids
necessarily
clemente
edging
pollutants
intolerance
exel
barrett
manly
sprain
amphetamine
shoulders
offensives
jiabao
sabah
kanaan
grandparents
charismatic
kenteris
meaningful
underdogs
gomes
reluctantly
ayatollah
protocols
chick
melvin
manuscripts
retaliates
quarterbacks
clerides
fragments
reconstruct
culls
limp
brasil
meteor
machete
simulation
rooftop
andaman
cantor
visual
selanne
allan
white-collar
cooperatives
schalken
looked
bemba
eroding
monsters
tagliabue
indication
phased
accent
walters
four-man
houghton
specifics
bucking
unusually
harshly
stabbings
ecosystem
barbaro
odor
insulin
excel
lebanon-israel
yearlong
portray
#-#-#
accuracy
yourself
steele
fervor
fetuses
ligety
mich.
robles
stent
aren
alishan
zeleny
tsb
heartbeat
stamping
fodder
policewoman
defences
amputated
geothermal
alfredsson
abkhaz
runways
nazareth
man-made
larkham
guillen
harmison
rename
keenan
high-powered
outfit
bowie
test-tube
niro
tonne
curbed
rounded
sturgeon
outfield
lo
seeding
slater
robs
devalues
gnp
anti-cancer
dares
kumar
##-nation
fulfills
mig
downside
tri
heel
kibbutz
nemesis
shelled
fanning
tactical
biometric
thumbs-up
tsang
solace
onassis
perfume
jacksonville
culprits
taba
conte
islets
disparities
helene
shooters
lionel
sandy
oils
vacancies
snatched
cashing
bengkulu
giles
rca
anti-nato
dimarco
gabor
unload
brides
long-time
legalized
affiliates
taxpayer
know-how
dye
whiz
ruthless
iliescu
lugar
grievances
dunk
bloodiest
shannon
nighttime
harden
basilica
frustrations
spyker
cradle
jute
maya
nsc
evian
hypertension
dempsey
fries
newell
dispatched
dolan
penarol
posada
shotgun
rihanna
kerviel
undersecretary
workweek
miranda
wariner
urawa
yousuf
informants
menswear
premier-designate
freiburg
earthquake-hit
olympia
visitation
ernest
relation
connecting
mcgraw
henriette
u.s.-russia
strengths
al-bashir
taitra
mid-western
maher
doubters
tarnish
itunes
wiped
ici
earners
booed
samurai
sparkles
stoichkov
strictly
five-star
schism
penis
healthsouth
hotspot
hygiene
tarantino
impunity
sizzling
drubbing
situations
coveted
primate
al-qaeda-linked
red-faced
shoaib
ackermann
hobbit
last-gasp
clerks
ayodhya
o'malley
scud
bald
rugova
ladder
mediates
sangakkara
kongers
swatch
softwood
congregation
anti-narcotics
cliffhanger
relieves
attributes
anti-torture
heras
rollins
retention
molik
scourge
refined
ruud
backward
thinner
ituri
transcript
#x###
saic
tags
russia-ukraine
volley
haggle
dashed
leaner
sanchez-vicario
butterflies
thankful
motherhood
hwang
berasategui
mello
pinpoint
sows
copyrights
unilaterally
wallet
neverland
chinalco
blogs
readings
bombard
elaborate
artworks
mcnair
new-home
nast
flanders
advertisement
outpaces
vans
hendrix
mirren
trailers
sidewalk
cctv
bicker
wha
anthropologist
denuclearization
assembling
superdelegates
fahrenheit
commended
promotional
plummer
rooted
recreativo
carmen
stagehands
ginsburg
bc-as-pol
kenseth
#-meter
wakanohana
lt.
nabucco
sailboat
donkey
persona
financiers
stabilise
manipulating
disciplines
societies
recoup
thyssen
sermons
bcci
corridors
segregation
sleepy
harding
bahrainis
squadron
clones
oriental
holdup
scratched
queiroz
pattaya
in-form
portrayal
digests
stink
closed-door
gardener
lined
refute
julio
full-scale
disavows
mettle
ansett
beg
otago
barenboim
poiree
ex-foreign
chastises
metlife
rousing
precision
jayawardene
mailed
changeover
dissatisfaction
ecologists
kluft
hendrick
penguin
bratislava
andijan
mcgee
penalize
lacroix
prejudice
impatience
shroud
scandinavia
heavier
enthusiasts
salim
exactly
rightists
reflection
bison
clerical
anyway
forgets
discredit
herbs
china-us
erodes
people-smuggling
hospitalization
prospecting
thrust
leeway
luna
whisky
salazar
duran
guilders
sacchi
plavsic
tiff
yamaichi
railroads
hatton
walchhofer
forecasting
e-book
strauss-kahn
paypal
melt
notifies
smartphone
abstract
faint
ve
crab
loaned
adebayor
supremacy
manners
grind
o'meara
miniseries
bypassing
aqueduct
pontiac
uncomfortable
jeopardizes
buckley
hoffa
woodson
cvs
ex-prosecutor
cme
labeled
sirius
anti-bird
preschool
jamestown
answering
bronco
bc-un-gen
janitors
davidian
isidore
desegregation
dunhuang
npa
marbles
riga
short-selling
mofaz
editions
mcafee
tarnished
adverse
low-level
toes
round-the-clock
meciar
blistering
middle-class
differs
sealing
redevelopment
pro-us
terra
pupil
ashdown
interrupt
ligament
hots
repercussions
launchers
mg
big-ticket
eu-china
listless
grad
magnificent
all-night
deplore
reindeer
ostrich
ex-bosnian
highlanders
###-million
dflp
bangui
moyes
geared
sweetened
prosecuting
adhere
bunch
dreaming
booked
stora
paces
budgetary
portfolios
katyusha
miserable
disguised
cheated
cink
peppers
civilizations
galloway
podolski
re-run
ridiculous
shirley
bird-flu
maintained
converting
messina
loggerheads
derides
caning
slamming
costumes
pedrosa
distributors
irishman
rebuilds
estonians
folds
glimmer
awacs
influences
destabilizing
restructured
rugged
mondesi
immelman
montpellier
flora
'n
dysentery
botox
architectural
archeological
slew
el-sheikh
lofty
hagi
khun
exhaust
sandwich
dwindles
angle
cfe
indifference
ku
waterway
spacey
namesake
cech
donating
arco
annie
ifp
intensifying
glee
first-day
molina
multiparty
inter-parliamentary
#:##
calpers
third-place
elisabeth
streaming
fuller
jovi
earnest
dazzles
expired
golovin
genesis
stepfather
merc
saint-germain
downsizing
refco
wusa
soe
conn.
gentler
designator
cigna
jing
dm##
arranges
speedier
salon
kumaratunga
mercantile
secessionist
tripled
pinto
pollsters
im
ipswich
allardyce
provocations
unlucky
pleases
groundless
thg
underestimated
molotov
coldplay
mutilated
kwasniewski
carling
xmas
landless
yachts
tick
ex-soldiers
restate
designation
boils
ic
implanted
surrey
hornish
royce
curfews
jin
leipheimer
cs
wavers
douse
fukuoka
prosper
divorces
lopsided
tugboat
empower
pro-syrian
coronation
fairfax
trespassing
herdsmen
over-the-counter
retailing
atrocity
claw
rudy
gullit
ito
edgy
time-trial
notable
pointing
sticky
henrik
goa
carrey
wolfgang
saban
swamps
anti-immigration
cafeteria
hahn
shades
kipketer
recycled
anti-whaling
thierry
salsa
robitaille
mcmahon
t-bond
tariq
ripple
bystanders
morton
diabetics
unused
plug-in
degeneres
suite
jay-z
zito
paddlers
visteon
ex-fbi
ccb
triple-a
thom
circular
pamuk
ncc
parenthood
undercut
orix
bankboston
travers
pistorius
wash.
ga.
goias
tesla
instructors
anti-qaeda
att
reinforcement
turkeys
facial
almsick
darby
kalimantan
lagardere
vendetta
feted
freer
mid-atlantic
about-face
horrible
firepower
consistency
culprit
livorno
eurocopter
firework
razzaq
mussolini
abramovich
thurman
minister-designate
haley
pharaonic
centuries-old
wilander
riot-hit
nesta
cremation
cellist
proclaim
parlor
overrules
dsm
razes
ganges
russia-nato
penske
gangland
returnees
vest
salvo
karlsson
nld
karstadtquelle
toro
bluetongue
cvrd
bihar
decision-making
conspirator
durham
mature
headless
spectacle
sizzles
converted
theron
stylish
subscriber
repeals
post-poll
guiding
sarwan
re-enter
traitor
self-sufficiency
subic
bog
inter-american
unaccounted
first-class
ex-defense
cannibalism
jesuit
mantilla
judaism
ordination
iq
alight
kilometers
conglomerates
liberate
industrialists
combats
expressways
imagine
swindler
six-week
lifelong
caravan
roethlisberger
bam
culled
chills
precarious
abstinence
rekindle
productions
ingrid
paroled
essien
arab-american
verdy
amending
arranging
scouting
kostner
representing
shouting
consciousness
qi
deepwater
krakow
bicentennial
droughts
greer
solicit
borat
berbatov
incidence
lowell
kilimanjaro
hogan
brinkley
contrasts
stats
kohlschreiber
loew
burress
farther
first-leg
ill.
phils
lyme
suffolk
kazmir
pirro
cna
aggies
awkward
isolating
anxiously
smithkline
personalities
hijacks
extraditing
dependent
conclusions
accompany
occupying
gunshots
candle
dili
abrupt
glickman
faulk
sclerosis
amin
pirelli
infecting
warmth
terminator
fortum
offence
jewellery
torrance
war-weary
democratization
macgill
narcotic
demotion
sigh
slavia
ozawa
frustrate
llodra
pounce
self-proclaimed
barents
sponsoring
hitman
alvarez
profession
reclusive
cashes
merry
###kg
pre-season
chiron
berisha
amcham
deschamps
marburg
earmark
#,###-point
dominion
misunderstood
nurture
sow
goose
treads
provisionally
authenticity
anti-islamic
fainting
riggs
limo
chalks
oaks
sausage
invoke
sensing
restless
intake
silences
pastors
filters
nunn
rue
mistreating
polynesian
ex-khmer
clayton
inventors
mahindra
trent
chow
resolute
terrain
tallies
concealed
jun
##-story
outshines
verona
sino-foreign
antiterror
boil
mat
outs
wiggins
freeh
mosaic
geologist
kovalev
goodman
grass-roots
shellfish
falsifying
streamlining
inspecting
charming
insane
natalie
chimps
levin
innovations
swelling
darren
kitzbuehel
testy
marathoner
aliev
gregg
burlington
ex-boyfriend
clarkson
primer
#s
#st-round
dietary
puffy
mckinney
haikou
dm#
galveston
druze
gurkhas
multi-party
beginnings
bolivians
dali
disbelief
goverment
coastguard
desperately
brittan
worms
federalism
shook
alcoholic
keynote
painkillers
mooted
stenson
diploma
oven
all-clear
beattie
holiest
casio
awe
palander
westlb
reactivate
kjus
accusers
narrowed
santo
rave
archipelago
peddling
almodovar
anguish
ransack
child-sex
ensuring
speculate
bystander
lecturer
toasts
holcim
bluegrass
dovish
escude
serra
reluctance
ernie
skydiver
federations
simmering
eu-wide
vending
denials
shrank
ants
repatriating
liang
embracing
bungled
sistani
midfield
enforced
clinching
pleading
landings
shas
itinerary
toughness
surrendered
demilitarization
brcko
correspondents
defied
vests
diners
stymied
snuff
bowles
bachchan
bodes
asml
inspiring
creatures
qbs
acquired
shebab
civility
noir
spurt
mcdermott
unfpa
deceptive
midst
economically
relocates
bred
bubka
inter-party
dragila
trivia
precautionary
endless
simpler
concealing
equip
grove
decreasing
benefiting
seymour
partizan
plaintiff
recreation
rnc
cutler
stockton
episcopalians
tubes
flutie
awarding
transforming
federline
participates
hakka
topalov
safeco
calif
legislatures
####.##
maddon
det-digest-####
leste
abyss
georgia-russia
misunderstanding
preston
alfa
nujoma
tuvalu
waterhouse
thwarting
sensational
rptn
shootdown
renamo
milestones
embarrassment
bookings
offshoot
ridicules
cecafa
freetown
deflects
pitcairn
afridi
kedo
canio
crawl
granada
refrigerator
baffles
dropouts
affluent
deadbeat
gurkha
secularism
rawlings
schmitt
cell-phone
igad
simoni
gadget
widened
josh
blade
silverstone
ricard
witty
lecce
sukhoi
hendry
nikko
masood
emigrants
muller
linz
menchov
wheldon
hsu
expropriation
finest
wires
heatley
salinger
rituals
mcguire
revelation
filly
restaurateur
poe
royalist
enigma
unaids
cushion
aggressively
printed
rant
jamaicans
interrogators
perec
boulder
sincere
snacks
cinderella
cbi
pont
dictate
pigeon
departed
nynex
scripps
swastika
front-runners
mathematics
anti-fraud
chord
roundtable
octopus
shelved
denise
trimmed
clamor
attach
sensor
alba
pro-eu
ideals
anti-iraq
reservoirs
intriguing
cork
renminbi
co-workers
diller
fomenting
payoffs
edwin
carjacking
cashew
nigerien
##-yr
donaldson
flemish
dp
rancor
imax
stronger-than-expected
wasting
camping
huffington
gill
pro-am
edict
classification
drake
initially
jimena
grueling
dreamgirls
waltrip
anmen
yar
wobble
daredevil
pharmacists
pre-christmas
miracles
srinagar
oppression
racks
okocha
lycos
poems
drownings
hekmatyar
emigration
privatise
waltz
warden
launcher
kkr
flavors
simmer
counterattack
forte
franz
overrides
annulled
useless
exert
matta
##-million
sonera
paes
ishii
kfor
epilepsy
camels
scuba
addict
newly-elected
miffed
wiranto
hoch
brawn
thames
jostle
pluto
messy
harmless
kingfisher
larsen
tankan
fizzle
harrowing
ratifying
saha
bulger
mutation
helmut
hangover
face-off
fractious
salas
anti-french
theatrical
reinsurance
fiance
nostalgic
ex-first
durant
printers
gould
taipower
rational
obelisk
aliyev
embarrassed
##.##-##
hyde
anywhere
drugmakers
suppress
displaces
stationed
depreciation
pokes
commissioned
aaa
saunders
creamer
stressing
win-win
ha
saddam-era
obtaining
caste
accomplished
two-man
eclipses
interception
haye
toxin
actual
hannah
shoe-thrower
scenarios
franken
toney
hess
gravity
resettled
snowboarder
purposes
unconfirmed
newsletter
xavi
homeowner
taufik
stojakovic
industrialized
relaxation
rostock
silicone
demobilization
inductees
pennington
triathlete
peterhansel
spurrier
fassel
worsened
angela
yugoslavian
kovalchuk
baking
atlante
dreifort
ankiel
ga
kiriyenko
eurogroup
sabotaged
tumultuous
hardens
prof
cerberus
savers
crumble
ripples
carlton
englishman
sumatran
implores
squatter
franchises
ominous
torpedo
marlboro
twenty-one
hussey
spiderman
thyroid
gods
seve
chats
anarchist
petit
decent
resending
nasiriyah
rehhagel
turabi
oakley
counter-terror
llosa
fueled
metall
sibneft
maastricht
amer
vote-rigging
respirator
frigates
gallagher
sorting
danielle
prohibits
mauls
mother-in-law
cheung
hemorrhage
harbhajan
hypovereinsbank
ex-russian
ceases
e-business
westminster
fond
compensates
whipping
gaulle
magath
fireman
howe
absolutely
trumpeter
pm-designate
kinder
downloading
santoro
spearheads
anfield
afl
arusha
fist
deserved
eagerly
frei
coordinating
pres
inflict
abba
highlighting
cocktails
michelangelo
vitesse
ribs
balances
sakic
walton
rominger
safe-haven
wealthiest
hurley
rebecca
aia
intimidating
boast
assign
dumb
##-year-olds
marina
ashamed
collar
bunia
transformers
halo
blur
coney
gel
seongnam
reit
median
handouts
icesave
invented
ticketmaster
fabric
starwood
virenque
##-minute
qualifications
falsely
valentin
autoworkers
huntington
sci-tech
hawkins
definitely
safeguarding
flores
floridians
commands
poets
rentals
employed
regulates
modifies
all-party
donna
controversies
ample
colt
chronicler
rochester
tejada
igc
fetal
southland
fund-raisers
mikhail
albums
spacewalking
evident
localities
almeria
psychology
gonzaga
frankel
tenn.
krispy
kreme
export-oriented
myanma
cobra
insure
mol
defuses
prado
booths
bristles
neck-and-neck
impetus
noon-hour
madam
masterminds
involves
dodging
bachelor
violently
sven
torches
acehnese
aero
q-school
saracens
rhone-poulenc
hemorrhagic
occurred
contesting
mathis
editor-in-chief
tracked
writedown
skari
certify
wasim
tenerife
refrains
handheld
ri
srebotnik
kubica
constituencies
collingwood
obligation
ronnie
lai
winemaker
taboo
stings
exceeding
cruising
branding
unconventional
headscarves
fortify
reads
zola
coat
rev
one-sided
well-being
educated
third-party
alec
vera
giveaway
adventures
ridder
bre-x
problematic
swallow
journals
comparisons
strangers
zain
larijani
tut
volcanoes
sheets
exploits
ghali
artifact
jolly
parallels
gut
kunduz
patches
volandri
tattoo
dike
unraveling
darkens
strickland
wrigley
intrepid
ticketing
jackman
citgo
beefing
delete
russia-georgia
conscious
ipad
faded
plumber
txu
spices
biodiesel
varieties
taco
denis
directory
dialogues
nyu
selections
loc
outplays
wellpoint
peas
gama
spurring
rate-cut
zell
coni
abercrombie
prez
eu-summit
u.s.-canada
garza
bc-south
ceramics
excavated
soul-searching
scandal-plagued
streep
beheadings
leaky
hut
schooling
mussa
qpr
seizinger
crenshaw
nasreen
constituent
justification
circumstances
wields
mid-year
self-determination
long-lost
tcl
iceberg
geologists
unlock
mcmillan
lifters
takahashi
explicit
triple-double
automation
ignorance
assessments
sighted
kay
anti-jewish
pettersen
malysz
second-hand
anti-pollution
misgivings
lurks
accommodation
eurobond
inco
previews
beiersdorf
unheralded
sowing
succumbs
sociologist
loss-making
cheruiyot
amway
impeding
glum
stoudemire
crocker
cabinda
cautioned
protour
brittany
semester
wrecking
cabbies
chalk
exorcism
flocking
value-added
bubbles
indebted
consoles
ate
bioterror
neumann
vi
gall
complained
aamodt
tunisians
booted
minaret
midwestern
interest-rate
dubbed
peugeot-citroen
shimizu
placido
conscription
disturbed
zedong
kos
distracted
fluke
valuation
pans
sins
rejoices
pointed
corporal
shady
proclaimed
diaspora
israeli-allied
censor
depositors
shia
annulment
china-taiwan
heerenveen
overloaded
yimou
supportive
healer
evaluating
bao
tandem
unser
dot-com
goodwin
hoogenband
accessible
sexist
re-elect
sars-hit
canoeing
semiconductors
deadlocks
briefings
zeal
ashura
goldberg
wyatt
retreating
earmarked
keyes
sherpa
oilman
hundley
third-largest
torrence
szabo
offbeat
ismail
bonfire
fleury
hosp
doe
jill
additive
antenna
insights
impaired
bric
pacs
livelihood
hamlin
voeller
benzema
universidad
donnell
csx
xfl
erstad
pm-yugoslavia
hui
rear
ex-ministers
pagoda
ex-lawmaker
hari
blesses
fool
viability
flynn
barricade
gec
abort
mart
caltex
ingush
cessation
unbeatable
spoof
chant
costello
ailments
greek-turkish
berates
mirnyi
considerable
rendezvous
strike-hit
intimidate
governorship
dockers
entourage
dummy
solar-powered
andersson
allowances
begging
benefactor
pan-european
ertl
kazakhs
mummies
supposed
stoking
send-off
shuttered
demonstrator
realnetworks
whampoa
gutted
earful
altercation
pankisi
pointman
aug
penultimate
sfor
cronje
csa
cornerstone
goss
erode
popcorn
barrera
pumped
flyhalf
bobsleigh
orangutans
raffarin
gentleman
essay
shout
arf
belated
basayev
garners
eruptions
gilberto
relents
reimburse
simitis
backbone
males
unstoppable
soggy
listens
dredge
stockholders
tko
flier
pursued
seesaw
stevie
references
un-au
cubic
episodes
mormons
diverge
aired
fininvest
shielding
wynn
martina
marlon
jalalabad
knees
kylie
hash
kooyong
flashes
premises
bemoan
u-#
masterminding
human-rights
bladder
bayi
brennan
beatty
millrose
contributor
quantum
bering
eden
shale
whooping
alexandra
bouts
beagle
norbert
mil
leiter
morelia
antidepressants
distractions
jogger
second-seeded
callaway
npr
j&amp;j
mid-us
eeoc
costco
shantou
cks
cetra
witchcraft
mocking
benign
scorn
abolished
#-yr
inter-palestinian
t-bill
biopic
shutters
calcavecchia
invincible
slandering
degussa
sophia
guerillas
strobl
trainee
zip
matrix
empoli
bielsa
london-based
supplied
scheduling
spectre
simplified
lafayette
bosman
flays
upjohn
brightest
wbf
hotspots
riot-torn
clergyman
gigantic
pradesh
toppling
truckmaker
nonsense
handcuffs
bulldozer
retrace
rain-soaked
lame
raucous
luger
dug
dentists
diarra
diminished
arias
workouts
rude
synod
gored
rijkaard
flanker
regrettable
hossa
defoe
soleil
medic
stalwart
tendon
repeatedly
undo
winona
ex-enron
keiko
upton
hauls
rhine
duet
oilfields
acb
tweaks
sonny
jubilation
hogs
peron
convergence
kdp
bore
transmitted
watchful
supertanker
lingerie
picnic
typhoons
evade
footprints
cellphones
falsified
quake-ravaged
gamers
neglecting
glitz
plame
mohamed
brazen
skeet
one-week
traveled
wellcome
inaccurate
conducive
zou
roil
arises
iris
worrisome
coverup
fossilized
savannah
madden
yrs
louder
excite
browne
reese
flip
hitters
caffeine
albrecht
burdens
off-road
so-called
likelihood
grievance
gehrig
spacewalkers
pines
ginn
weyerhaeuser
dot
stents
yielding
usually
euthanized
tebow
bondarenko
radwanska
roush
mayfield
u.s.-south
turnpike
miss.
obuchi
govt.
opening-up
staunch
anti-coup
silenced
###-mln-euro
catwalk
kbc
nkoreans
liquidate
herzog
re-arrested
laudrup
centrists
boutique
relaunches
aru
inconsistent
arrogance
bookstores
healey
barzani
liberalisation
reconvenes
trophee
nordics
satanic
undeclared
tsar
impounded
mcleish
murderous
combatting
jingsheng
politburo
pudding
bogged
lunches
carving
dare
serono
puzzling
vijay
vu
interviewed
ld
enso
china-eu
commuted
harmed
recuperating
reprocessing
dechy
reyna
ua
de-mining
methamphetamine
blacklisted
raider
co-pilot
detonated
pertamina
granny
lagat
heinze
home-grown
orientation
excellence
gehry
desktop
sympathetic
syndicated
socks
panionios
shave
triplets
smoke-free
freud
daddy
loop
recruiter
hop
petrochemicals
dine
skeletons
quicken
toxins
vetting
hostage-taker
radios
logistical
unrelated
anti
retry
cabbie
vaas
shutter
sweats
hectic
re-entry
conscripts
cellar
sixes
exonerated
pumpkin
ex-un
ncr
eldredge
harvesting
jurists
handful
retrieves
tractors
insect
blizzards
resurrect
revelry
kildow
multiply
ak
koubek
viktor
touchdown
baathists
fast-growing
desperation
piper
insulation
collisions
betrayed
geldof
relocating
roommate
snooping
distorted
salvaged
aretha
nationalizes
fayyad
parody
heston
cpp
prominence
rowers
expiration
gatti
buzzing
glare
improbable
benn
transformer
militaries
seated
mishandled
cervantes
observing
holmgren
languishes
peacemakers
misguided
otherwise
china-russia
cottbus
swoon
postings
ruben
caa
gratitude
cheetahs
medium-sized
hale
cbo
teller
joys
snl
pavlik
schleck
al-zawahri
tripp
utilization
brawley
##c-shr
jaruzelski
damning
towel
competes
sandoz
unseen
rudolf
scooter
marshalls
malnourished
dramas
accra
debtors
anonymity
highland
undercuts
eject
boiler
voa
kruger
motorcyclist
kazan
exact
conveys
ailton
strachan
wandering
pro-moscow
amc
moselle
stain
counterfeiters
statistical
litmus
thirsty
demonstrating
sweatshop
banished
countering
tabled
ypf
plebiscite
neill
sophie
top-seed
installment
disqualify
pariah
haute
peirsol
bounds
molecular
mad-cow
waldner
beit
coruna
motherwell
incompetent
hermitage
calmly
fin
kamchatka
donadoni
acasuso
levante
ahn
pts
shilling
luxemburgo
translate
faiths
jetstar
cairn
freddy
banknote
functioning
cigars
maturity
ingmar
fabled
qassam
katherine
reclamation
adieu
unfazed
thongchai
suntrust
privatizing
loosening
reconvene
russia-eu
canvas
glorious
saigon
spawn
abductees
doorstep
asahi
barefoot
horry
daycare
indications
paz
trilogy
chokes
anti-smuggling
receivership
chinese-language
courtesy
arl
soviets
charters
ethnically
bypasses
clashing
businesswoman
grizzly
kovalainen
warmest
puck
granite
disaster-hit
sniff
underline
inundate
kirin
perfectly
garth
cleaners
erred
asleep
sweltering
texting
mt
clever
modification
golota
#,###-year
jonas
adm
biennial
karros
luncheon
open-air
pittman
marty
leery
christina
forums
snoop
obtained
zimmer
chemo
determines
terri
hourly
nickelodeon
residue
head-to-head
tend
boyhood
favoritism
trevor
heparin
financed
anadarko
experiencing
dusty
modem
cavagnoud
judd
instructs
clarence
adrian
ricco
niemann
doubleheader
reflections
barghouti
d-backs
buckeyes
kahne
yilan
unfriendly
spurn
normally
fright
buckle
sweets
syringe
penthouse
serbians
transvaal
dents
props
amphetamines
modahl
empty-handed
stroll
souvenirs
taint
macintosh
meager
piraeus
overjoyed
iodine
one-on-one
rack
undertakes
boer
pairing
geopolitical
ranges
andreas
haste
selector
superb
anti-polio
xp
scent
mckenzie
exhibitors
mayan
mural
pedophiles
ordnance
frankie
presidium
halal
xenophobia
comoran
wildcats
incompetence
desalination
oliveira
dracula
unilateralism
busta
zooms
qana
mummified
nepotism
maynard
twenty-two
wildcard
omen
chesney
o'driscoll
sizemore
contents
amber
trainees
cho
woolworths
edmonds
roaring
hated
notified
belongings
trulli
socceroos
hotly
description
manipulated
collarbone
marginal
pldt
manner
steak
hidayat
temelin
resurrects
detecting
locates
timothy
varig
confusing
rosemary
contributors
shunned
wore
entangled
industrialization
psychic
chewing
axle
collateral
flyer
docked
enable
shui
bushehr
stainless
spymaster
restrained
blessed
displeasure
high-altitude
infielder
complaining
altering
phasing
leigh
preaching
ancestors
answered
x-files
mccullough
###-plus
stances
liberators
propane
watkins
alomar
humiliated
oranges
miley
humpback
arguing
faye
rousseff
invasive
singer-songwriter
jenna
calipari
eaton
grassland
circulates
diddy
wondering
siegfried
ibp
prevalence
wipo
itu
scored
genre
hare
talk-show
specialized
#-party
shuttler
acorn
hkex
gay-marriage
gori
gilmore
homebuilder
last-place
shepard
kaymer
bathtub
off-broadway
paine
biffle
trans-dniester
montanes
winery
ellison
anti-
shanker
telebras
handy
entice
urals
rbi
greyhound
fragment
bea
beams
pietro
watershed
saleh
kuomintang
anglers
ballroom
sprains
swearing
plucky
pro-business
bungling
routed
migrating
beige
reassuring
bot
boulevard
deprived
kimberly-clark
tigris
shaves
ginola
catalyst
half-brother
sleaze
refiners
misuari
circulate
combining
macho
sniffer
crime-fighting
belt-tightening
jinan
saddened
exhaustion
skydiving
wades
polygamous
boa
hertz
three-stroke
simplifies
novo
mai
jazeera
carrot
venerable
battering
guineas
lynching
endemic
elia
comfortably
millwall
enlisted
verkerk
consulted
hardball
multibillion-dollar
cheltenham
snail
griese
enraged
teflon
depots
protracted
massood
ipi
vaulter
stockbroker
us-iran
extinguish
stephanie
kingston
erases
shuttles
dragnet
husbandry
mast
state-controlled
fruitless
tweets
spider
waitress
amphibious
post-holiday
elena
siren
diplomas
lausanne
discounted
kroger
matisse
marker
azinger
unisys
blanchett
parsons
realtors
boise
tauziat
madcow
bashing
traitors
cdma
jungles
inhalation
electors
touting
weighty
quarry
heroism
rubio
claiborne
retro
fy
electrification
retirements
fabiano
hand-held
cotto
recycle
adoptive
h.k.
pulse
illustrator
greenberg
revlon
pharmacist
scanning
lured
tong
nantucket
russia-belarus
excels
estee
doubleclick
steelmakers
avoidance
fritz
rwandese
mcilroy
tsa
botanical
sheppard
netizens
cma
parton
prohibited
kosovars
ferraro
designing
mariner
tejano
boehner
lucy
panhandle
osu
councilors
sebastien
cerro
bc-northern
angelides
grottoes
cmc
uf
shenzhou-#
pollster
rosenberg
swank
hammered
sibling
ex-yugoslav
amnesties
bastia
bentsen
razing
hanukkah
chunnel
racetrack
peseta
alsthom
conform
us-north
pearce
prohibit
gaborik
yagudin
twisted
particles
gmo
wwii-era
alike
mediaset
tames
salvi
gently
vendee
swastikas
snare
novice
superhighway
kendall
half-point
successors
hondurans
constituency
mutinous
wafer
stand-by
parnevik
scrubs
coexistence
handsets
ambulances
trimming
deja
baywatch
parched
quizzes
sympathizers
co-star
taurus
bikini
mammal
re-examine
cedes
frequency
csc
induction
cheered
darken
duisburg
maruti
discriminating
baidu
evading
anti-gang
employs
bunny
furcal
daiei
parrot
hgh
occasion
rotten
sanya
flamenco
obsolete
atonement
hick
remorse
lenient
sellout
pickers
lashing
playmaker
yanukovich
workshops
bis
backpackers
handguns
ittihad
caches
cemeteries
rewrites
spirals
poppies
surrendering
abilities
repulse
sidestep
ascend
bouncing
pt
laundry
dessert
defecting
budweiser
throngs
loren
insects
roam
ep
risking
year-long
cons
dahlan
henri
free-market
statoilhydro
purges
extensions
nationalized
rounding
gifted
idles
solider
milito
witt
seating
recurrence
combative
clots
carved
determining
exiting
rejuvenated
vigor
egan
overwhelmed
cute
subcommittee
imagination
karlsruhe
giovanni
winnipeg
sampson
zoos
motown
stella
jetliners
awful
zeppelin
diminish
jubilo
allergies
towering
norah
klim
day-care
hd
mba
dafoe
elevates
idf
braun
brickyard
goteborg
fencer
evolves
la.
dhoni
secondhand
vols
pre-membership
pg&amp;e
nate
ou
motc
fmd
lanzhou
collider
mobilise
wilts
pre-trial
biscuits
queues
rollout
populated
anti-eu
elysee
paralysed
tse
makelele
substitutes
lucio
fawcett
csfb
crows
ex-priest
pro-beijing
hinckley
buster
kanoute
multimillion-dollar
angles
tango
yashin
sung
locomotives
akayev
razor
ex-kgb
traction
gerg
lorient
teachings
al-ahly
stateless
cuper
minnelli
melts
abuser
deduction
fairer
amputation
remands
depicting
comrade
insider-trading
amateurs
wonderland
clara
ex-champ
mcginley
austen
pauline
tds
forfeits
informers
milder
caen
contraceptives
dino
undocks
parishioners
mclennan
oversees
convey
essex
rebuked
ariane-#
paltrow
jie
##:##
washington-area
anticipating
mara
paved
asiana
beside
stifling
laughter
bechtel
ferocious
barnett
herat
teamwork
unfamiliar
barrick
anglo-irish
deutch
bakeries
environmentally
dostam
mechanisms
spooks
stitches
omega
disposable
fraudster
populations
discarded
intraday
revote
hilary
juggles
arch
fabricated
enriching
malaise
sasha
mccaw
chopra
sewer
np
trafficked
schwartz
south-south
acquit
grisham
breasts
hug
glaus
ex-officials
meaningless
azlan
lemon
validity
flag-raising
placid
proximity
alcoholism
hugs
conseco
hotbed
pro-european
lasts
dee
eatery
astronomy
editing
carrie
galarraga
spars
brees
stored
epstein
johan
idec
rupture
admonishes
betters
swimsuit
carib
cube
unitedhealth
baritone
shawn
nwa
explored
rhein
hard-liner
conflicted
kintetsu
fordham
unlv
fuhrman
chmura
u.s.-iraqi
hhs
burbank
pan-blue
ba'asyir
lambastes
walcott
hurricane-hit
downwards
iridium
slays
georges
parley
refinance
shaath
vanunu
walkouts
bruges
campo
decade-long
voller
ephedra
portillo
mercer
wobbly
dismembered
ex-liberian
diverting
tamarine
ex-finance
best-seller
bibles
comforts
cynical
ye
mn
criticising
regiment
squibb
bootleg
professionalism
pistols
thuram
exceeded
ex-philippine
dekker
wargames
enhancement
marconi
pan-arab
roast
orbiting
fry
metalworkers
bashar
rupees
elkington
ex-french
sextuplets
sabathia
evicts
davidson
thai-myanmar
shaolin
fisichella
awesome
domecq
hooked
desertion
rampaging
dearth
kezman
vaart
woodside
real-estate
marcel
tonic
vibrant
succeeding
breast-feeding
thunderstorm
harmonize
aegis
connor
ration
infiltrating
jewell
kick-off
stems
noodles
escobar
delinquency
rudder
convening
bus-train
tigana
spurred
lodged
conversions
hay
westpac
mater
confronted
newfound
avis
careless
prozac
legco
gen
energetic
gauntlet
sanford
tile
identical
gsk
bagram
posthumously
acupuncture
wallets
waterford
redress
off-season
murtha
clans
mistreated
entertainers
sidekick
tribeca
il-sung
front-line
onshore
democracies
vigorously
antidumping
regal
scioscia
crooner
sino-vietnamese
payday
trendy
subscription
carew
pulitzers
exploited
yesterday
conqueror
friesinger
oyster
buybacks
mcclellan
coupons
fatah-hamas
erickson
agendas
sutter
roost
involuntary
refereeing
termination
higuain
girardi
starace
olga
marcelo
wild-card
reunify
wills
perseverance
disable
nanotechnology
roofs
guarani
milken
delinquencies
discovering
yakult
bilking
unasur
seemed
agbank
judith
grasso
cosafa
croix
bc-na-a
sarsfield
shaquille
kerrey
trenton
#.###-#
sino-african
devotees
flawless
#.#-bln-dlr
ex-british
elated
bradman
londoners
chop
relish
reciprocal
steams
burundians
snubbing
mediocre
rajasthan
frenchwoman
preemptive
unsustainable
lancashire
pre-war
loggers
shen
plum
arab-americans
muddy
erm
preachers
processors
persson
cam
latvians
relishing
zeroual
mep
decreased
excise
steadfast
abode
sabbatini
livingston
mizuho
netanya
re-arrest
pastrana
hai
shocker
adversity
programme
koehler
morphine
hey
toure
connolly
baikal
zionist
scandal-tainted
jaw
rd
petrov
warwickshire
nomads
puzzled
biomedical
film-maker
anti-arab
gambhir
abel
ritchie
zellweger
shrouds
terracotta
joyous
sizes
cranks
nord
multi-billion-dollar
dunfermline
quattrone
dooms
witnessed
rocked
airstrip
bait
bukavu
netcom
sombre
calais
digit
despicable
rope
canine
fabrication
fortuyn
philippe
contagious
resounding
hasidic
sightings
overflight
stature
mas
liffe
disguise
shivers
avtovaz
write-down
ahonen
steamy
authentic
seaworld
enforcer
heckled
eradicating
feeble
seedings
replies
wolfensohn
caetano
squid
bandwagon
redstone
televangelist
xanthi
archers
stadler
meditation
o.
fedorov
hotter
dearly
dibaba
degradation
analog
camdessus
bolder
moto
cepa
avengers
thrifty
v-e
cb
gaze
currents
drenches
shalit
powered
judoka
earhart
kkk
ex-chairman
quigley
counselor
romandie
additions
testosterone
realism
laredo
grit
positives
pdvsa
forrester
dimaggio
aryan
cortina
babel
vivid
ms.
murder-for-hire
roda
springfield
erie
letdown
revitalized
felons
mesaba
sprawl
bompard
kickstart
decades-old
parthenon
adamant
whouse
senseless
cabs
starve
townsend
vialli
childbirth
dour
prolonging
diversification
pacifists
prohibition
ethylene
eu-turkey
non-eu
colored
discourages
iraq-kuwait
lagoon
wardrobe
cherie
###-pound
madikizela-mandela
nikon
siding
diarrhoea
dyer
represented
juggernaut
inzaghi
ejection
prowess
limping
menopause
communicate
sparkling
copters
oleksy
mammals
vitoria
sato
casamance
china-bound
prepaid
ndereba
malay
safest
zew
enrique
zoom
modernizing
boucher
brash
francais
dries
martyrdom
breastfeeding
blackmailing
stinging
effenberg
twenty-three
documentaries
emergence
galaxies
rosario
ripped
recants
kang
estes
hibs
counselors
ensemble
tulane
monza
disqualifies
outduels
friedel
taker
emilio
erin
vattenfall
####\/####
erroneous
gibernau
marsalis
outperform
tipping
optional
entirely
write-off
courtship
tanasugarn
cebu
chimpanzee
hoy
hostess
lome
lim
populism
mitzna
ramon
brack
all-american
mccarron
manninen
billed
ex-nba
velvet
maruyama
leftwing
broad-based
composition
netted
jamming
sterilization
mobility
rediscovers
sunbeam
entertain
c-###
montillet
impostor
glue
nobel-winning
elan
aversion
provident
mtn
ifo
explanations
miyazato
dud
katyn
thain
timeframe
glitzy
bereaved
orbital
minogue
techno
arteries
f-###
remained
soundtrack
bormio
bushes
hospice
derrick
incite
nonessential
sastre
electrocution
emissary
lamm
renting
envelopes
facade
j.k.
screenings
upsetting
fleiss
outbound
frenzied
frigid
unsolicited
back-to-school
polygram
solves
laureus
ultranationalists
alves
contreras
disks
dads
egypt-gaza
assuming
maddie
topped
trudeau
obvious
persevere
gold-medal
dressage
koo
hopper
centrifuge
mail-order
low-profile
jc
sitter
chin
court-ordered
ling
holden
fertilizers
salaried
principals
barrymore
divestment
bricks
liggett
jake
regularly
race-based
calcium
espy
waking
inferior
tigres
scalia
ex-u.s.
mashaal
superfund
sherman
shouldn
resonates
horticultural
moyer
mcsorley
versailles
wield
sulu
travis
ysl
jammed
morceli
bunkers
collymore
hijackings
sharpe
big-time
foreign-born
expiry
lecturers
djorkaeff
asylum-seeker
spoiled
tranche
wgc
dallaglio
stade
swoops
context
mallon
al-arabiya
hamann
palffy
arthurs
bloodied
mute
awry
muslim-christian
reassurances
elber
subdue
#####
ammann
vettori
foote
precinct
zico
constitutionality
roeder
bumped
neighbouring
nakata
canned
one-child
decency
mido
referral
barometer
championed
syphilis
wilde
shareholding
inhumane
arbitrary
feuds
gulag
##-hole
erupting
visibility
unifying
cosmos
carve
munoz
swindling
tragedies
micronesia
counsels
cereals
otis
aboriginals
izmir
tangshan
bart
sportswear
wallenberg
campese
brasilia
bergen
spoken
librarian
lust
lighthouse
trampled
hibernian
uma
afghan-pakistan
worst-ever
lan
metropolis
record-low
pacify
baikonur
hyderabad
self-reliance
delisting
gemayel
refine
lore
adventurers
humidity
kariya
sharpest
winslet
pinter
carves
kitajima
dougherty
zanardi
stew
basically
jena
door-to-door
spilling
influenced
swagger
nidal
claire
fascinating
mcdougal
virtuoso
colgate-palmolive
unchecked
pancreatic
marketer
quieter
qing
fuss
zoning
vandalize
inexperienced
meats
riis
witherspoon
weathering
lefty
dwi
badge
valuev
basescu
sme
kinds
lackey
low-fat
marin
non-traditional
splendor
tseng
announcements
stringer
aspirants
jo
revisiting
dizzying
indeed
beasley
willem
dodi
d-#
marlin
xangsane
kessler
confrontations
advancement
d.a.
ganassi
balanced-budget
u.s.-funded
antidepressant
vh#
lorena
drainage
u.n.-sponsored
w.r.
academicians
litton
menino
moj
chairperson
sk#
volt
staggering
al-fitr
airbag
sheringham
taslima
newlyweds
beth
slaughters
suitable
swansong
screw
#.#-bln-euro
telia
unravels
rot
linguist
cultivate
cdu
day-to-day
code-sharing
putt
emirate
owning
candlelight
worthless
high-definition
ranatunga
linkage
saa
range-bound
regan
scorns
frosty
ringing
unsung
netball
o'grady
astle
titanium
abandonment
stand-in
ottoman
lahoud
one-party
hurst
impounds
hard-fought
pots
tareq
declassified
short-covering
pro-islamic
umts
emulate
qataris
frontman
hangar
porno
cantwell
anti-monopoly
baquba
slimmer
portman
impartiality
rebellin
destroyers
connery
portrayed
hannawald
contemplate
autocratic
foie
sounding
alvin
presiding
rankles
banners
partying
wallop
iraklis
acosta
randall
impedes
blasting
undemocratic
sounded
cybersecurity
conservationist
descendant
retried
ecstatic
ambivalent
naga
dobbs
christine
burgers
confirming
brondby
quincy
evita
simone
plummeting
ex-employee
renders
krone
inward
##er
sheraton
galore
distinguished
viet
hua
faints
dismissals
bakiyev
kolkata
bitterly
buttons
poutiainen
crooked
debt-laden
endeavor
snows
camara
sun-times
guerin
macroeconomic
ribbon
trademarks
tabasco
adversaries
scrabble
jaws
lowery
jacobsen
bruijn
edouard
bure
unregistered
jumpers
coutts
coats
cate
non-state
utrecht
psychologists
crematory
hamid
leyland
grower
md
vineyards
dutt
anorexia
devotion
edged
oscar-nominated
pi
remy
energizes
fraught
temblor
poignant
puerta
argued
decay
cabanas
judah
overload
vindication
accessories
livedoor
inscription
uga
xia
gauges
environment-friendly
fiorina
ruptures
mountaintop
polk
souls
primitive
fsc
benneteau
norm
imperiled
phish
necaxa
landlords
mustang
jelena
cliburn
raines
bynum
socog
seminars
hand-foot-mouth
dikes
versatility
clinton-jiang
atletico-mg
bard
church-state
heinous
jibes
instinct
frightened
peach
judged
normalizing
authorises
organisation
europol
motorbikes
carbide
mengistu
gripping
huston
neolithic
whom
full-strength
greening
surreal
nestor
farrah
ballooning
substantially
undervalued
inspected
intentional
fathered
banca
kuril
botero
havelange
contrasting
sarin
uproot
anton
insulted
electorate
indignation
three-shot
omission
finmeccanica
mainlanders
colossal
bove
demobilized
milky
depress
ghosn
hacks
ark
legionnaire
methadone
gridiron
supervised
dettori
transporter
catch-up
gallon
armory
transplanted
tdc
distraught
sorensen
biarritz
nullify
puyol
strays
tajiks
###-mln-dlr
poise
bosnich
fdr
hobbled
heartburn
employing
aguirre
toil
tatters
penetrate
shorts
bushfire
escorted
grids
reassurance
maronite
amicable
worse-than-expected
staffs
cabaret
futile
cheek
cezanne
weeping
scorching
oreal
scientologists
herrera
touched
evades
mole
soak
wow
snowfalls
yuvraj
joyful
concluding
detente
imola
skinner
addicted
re-emerges
ex-im
isolates
extort
kwazulu\/natal
mountaineering
usain
envy
marble
zabaleta
perk
fulfilling
hampered
prefecture
lettuce
tomjanovich
alibi
colonies
craven
cliches
grazing
zamorano
lb
governmental
bari
wagoner
docs
presenting
tightly
lily
analyzing
paramedic
consumes
carolinas
smithfield
abounds
juries
escorting
ivo
arable
arid
riverside
niners
first-place
skinny
kerrigan
woodruff
cerebral
andalucia
lame-duck
credit-card
congratulatory
wide-open
thai-cambodian
germs
modernized
pyeongchang
conversations
waterways
asada
cafta
kiln
discriminated
hanford
#-month-old
dh
starzz
anti-quran
lamar
turnovers
oxycontin
oceanic
yuanxi
el-naggar
cplp
moftec
mee######hke
samak
artefacts
leoneans
pius
pro-thaksin
unspecified
anti-india
budding
sonic
noses
bookmakers
prost
nine-man
slaughtering
incorrect
monopolies
fundamentalism
israeli-backed
sniping
super-middleweight
toray
bubonic
maclean
bowled
intestinal
mystic
blight
agip
revoking
santini
giteau
bevan
hemispheric
kucinich
#.#-pct
cancer-stricken
us-eu
sushi
gaultier
kwangju
destabilization
pechiney
hoard
menus
gallo
gallows
telemarketing
housewife
rump
brighton
mounted
tangible
high-security
natal
shortest
banish
offing
cousteau
glowing
scot
bliss
etna
mdc
milan-san
violence-hit
anti-rebel
physically
ebbing
spaceport
duhalde
kgaa
hatches
unavoidable
three-game
collina
vigo
disbanding
ernesto
asian-american
obrador
phillip
batasuna
overflow
embarrass
scarlett
liabilities
deep-water
interviewing
noodle
###-###s
vain
temasek
estates
theo
centrica
impropriety
pro-russia
frings
salvadorans
melissa
inflammatory
tell-all
chants
illusions
sylvester
year-round
polite
rain-delayed
guimaraes
anti-flu
###-billion-dollar
lagerfeld
election-related
blackwell
garzelli
nominating
riddle
alou
##-cent
olivier
lawrie
orphaned
afta
vegetarian
ground-breaking
implies
scuttles
ex-convict
atoll
showalter
pharaoh
flogging
partisanship
ieng
magsaysay
luke
harley
fascination
tequila
sustainability
matriarch
syngenta
baer
govts
kalou
cozy
centenarians
schiphol
afflicts
mag
headwinds
overturning
oversaw
stymie
irked
##th-hour
farr
billups
disproportionate
hermann
hyatt
mcclatchy
nkunda
hefner
hulk
reintroduce
january-may
bafana
rocking
gruenigen
osmond
mori
enforcers
fling
shortlisted
witter
briggs
prioritize
bruises
nebiolo
slippery
drains
eurobonds
standardized
somewhat
exempted
obstruct
outlined
sub-regional
vickers
sled
devalued
guardians
crackdowns
byrne
giraffe
pizarro
md-##
haier
butch
tasty
fran
foggy
carry-on
invalidates
kingmaker
anytime
deflect
rolled
dei
aguilera
swann
cleaned
scalpers
conditioning
barn
justine
bonilla
cherokee
midtown
melrose
blackpool
playbook
overpass
databases
prohibiting
vandalizing
samsonov
interaction
hoover
contradictions
bobsledder
######
gator
vail
polgar
hershiser
mamet
valenciennes
jammu-kashmir
nrc
claymores
u.s.-made
u.s.-north
zambrano
spores
concussions
bc-world
ark.
sneijder
wouldn
workfare
oosthuizen
explaining
taiwan-u.s.
lsquo
storm-hit
diminishing
taming
puntland
evoke
rebut
marred
advert
lounge
atr
falkland
quintuplets
jensen
gan
pleasant
humberto
outflow
right-hand
jacobson
sime
muscular
caymans
uday
decoration
languish
cabbage
impresario
bartlett
mcnulty
glastonbury
fraudsters
kirkland
french-speaking
nutritional
organise
harrods
breeder
pollutes
wiberg
simulated
faxon
hakim
kai
swath
iwata
#.#-billion-euro
icty
solvay
targetted
peta
monumental
arcade
spin-off
impede
buzzer
angioplasty
bodybuilding
indirectly
pundits
ote
siebel
lawson
sexes
futuristic
counterterror
antidote
nervously
knife-edge
six-way
starved
macro-economic
certainty
anti-violence
kindergartens
sluman
wicked
unscathed
cylinder
heskey
sizzle
wintry
booty
detailing
herders
auctioning
ts
dependency
defined
rejoining
sugarcane
lessing
cecil
whiff
ex-vice
landowners
rum
inuit
cuban-americans
gustafsson
raiser
advising
peregrine
cadre
aa
darker
spiking
listeners
yemenia
coal-fired
mending
antiviral
clyde
senses
tobin
astrid
furnace
aura
wrongs
csn
rumsas
kisses
verdi
movil
khalid
negro
contacted
eintracht
demolishing
beluga
unprotected
handicraft
internally
funcinpec
unrepentant
stripper
politicizing
multibillion
outsource
pbl
abrams
invasions
ilgauskas
mammograms
buff
flux
payless
caw
renaming
scenery
roenick
fertile
co-chair
vultures
essar
rain-shortened
displacement
sur
cares
ikb
doubted
ethic
badges
renditions
erased
arouses
bb
h&amp;m
eca
kennedys
bunds
virtue
dropout
symbolizes
hush
crimp
peace-keepers
ordains
clifford
weaker-than-expected
banc
borough
onstage
fulton
out-of-state
kilmarnock
tam
paloma
sporty
temptation
parenting
canoeist
hal
overblown
durable-goods
filmmaking
fei
pediatric
penalizes
fellowship
unqualified
stand-up
nonprofits
#nd-round
vermeil
acreage
midseason
beltre
p&amp;o
eu-u.s.
nightline
d'
publicizes
a.m.
previewing
facilitates
sez
black-faced
itri
percival
#-##-##
sino-portuguese
wttc
adua
boar
relive
wsj
indiscriminate
castration
foreseen
slovenians
prudence
arcandor
bernhard
sanguinetti
lay-off
unsold
moviegoers
fitted
normalise
redeploy
enola
paolo
sworn-in
dense
beatrix
gia
futility
jeered
fresenius
mortlock
wiser
bern
havas
onions
raves
helpers
maharashtra
gal
bettman
brigitte
krajisnik
busting
shutdowns
availability
quashed
foyt
troussier
babcock
frigo
anti-fascist
broadside
waqar
hysteria
cut-off
bombards
mobilises
iran-eu
quote
microchips
wording
zawahiri
lamont
nightmares
#-billion-dollar
tait
allays
plank
bouncer
stud
screws
repressive
almunia
sneaks
realizes
tomlinson
oscar-winner
tends
career-best
ulcer
thrashing
belo
koala
celebratory
kenyon
dangerously
coalmine
discharges
cancelation
left-leaning
luciano
ww
sexuality
solidify
testified
morals
confidentiality
triad
ravanelli
ir
indo-pakistan
burner
dwarf
herbicide
permitting
kemper
yogurt
maneuvering
absolves
aerospatiale
tenant
undisputed
vacationing
bland
liquids
sary
diversified
priesthood
rescuer
victors
ex-policeman
glittering
embarrasses
outrages
abyei
relevance
orascom
verifying
damp
pedals
accelerator
five-week
ea
ip
yu-na
mimic
testament
quorum
igman
non-nuclear
zuelle
downpor
deregulate
ambrose
offspring
khaled
sleuths
admirers
transports
x-rays
massing
edith
mckay
torturer
tattoos
duesseldorf
drugged
cynicism
whistler
replays
regroups
hayek
umm
faux
audrey
parachutist
millwood
dormant
lalas
womb
awakes
e-trade
grenfell
pals
regis
tuskegee
carlisle
affiliation
su
observance
redeem
coercion
showcased
monasteries
tursunov
falconbridge
acclaim
clive
foxx
elude
rollback
evens
sergei
consume
anxieties
dice
mango
sturm
isiah
blige
nias
r.j.
noticed
aerosmith
fulfilled
paralyzing
ceramic
hanescu
mozzarella
massey
eu-imf
recast
ata
cobb
mystique
traumatized
examples
asian-pacific
patty
mitt
o'hare
reassigned
calories
iroquois
presbyterian
saberhagen
aggravated
spoleto
flint
socal
libertad
byu
fifth-seeded
theorist
hoc
katmandu
minn.
paterno
okla.
szavay
suny
landry
u.s.-iran
lecavalier
assemblyman
bratton
mackey
nanning
gillibrand
qinghua
marianas
spanair
fuelling
panicked
tyres
wrangles
wimax
hre
bebeto
correcting
lungs
luton
scalfaro
jvc
revellers
modena
unrelenting
fire-ravaged
imagery
tuqiri
self-government
hogg
inhuman
stam
non-aggression
etiquette
flashy
creeping
gasp
glides
defaced
saviola
coetzee
amok
all-rounder
southerners
carriage
jayasinghe
ntv
guerilla
n-tests
advertise
feofanova
environnement
arduous
rsf
beneficiaries
iraq-un
solskjaer
comoro
brilliance
chopped
fraction
holt
metzelder
criterium
shebaa
marooned
unfavorable
ferran
encouragement
totaling
aborigine
hamptons
###-mile
mendes
loads
sauna
yzerman
interceptor
raiding
superdome
neon
tusks
##-fold
michalak
ruptured
us-nkorea
southernmost
zamalek
inked
hide-out
jurassic
cutter
battled
pre-vote
stone-throwing
shipbuilders
infiltrator
saddle
rhodia
decode
debutant
satisfying
career-high
tolerant
merely
dissenters
khorkina
outlining
far-rightist
taskforce
unabated
jailhouse
molested
soothes
klansman
originally
savoldelli
heists
insolvent
omitted
unconcerned
gerber
oysters
repels
anti-nuke
gaudenzi
no-shows
edmundo
sills
harass
severing
discreet
uncharted
sheltered
procedural
preach
pusan
compagnoni
extols
tyranny
tides
cronkite
ahmad
elsevier
danforth
wanda
intermediary
looser
fearless
burials
galleon
yun
ribeiro
canton
entwistle
percy
endgame
vinyl
unsettles
tees
hemp
lme
stagnation
snowboarders
superbug
hatcher
ulihrach
mud-rock
marta
excavate
macdonald
generosity
r.e.m.
pitched
speedskater
struggled
rewriting
untrue
borrowed
dictators
cloth
rediscover
high-quality
one-stop
eilat
coerced
mcgovern
anti-thaksin
airtel
requesting
procure
dawns
stormed
#-eleven
lamps
shiver
web-based
sally
mongolians
textron
ascot
take-two
outpouring
rae
elbe
culpepper
godzilla
backstage
world-record
sykora
anti-submarine
stunts
bilis
coupe
fleetboston
benched
whoever
erasing
ritter
video-game
markus
second-division
estefan
indymac
mindful
donuts
melanie
piling
anti-foreigner
overhauling
superdelegate
responders
elliot
mascherano
titlist
patti
sophomore
keyboard
caldas
maturing
surpluses
fiedler
radioshack
wickmayer
godo
brandeis
washburn
close-up
walgreen
dwain
mattingly
tjx
atf
rantisi
formulates
filene
ba-ca
popularize
unabom
lilco
primera
coen
vilnius
haggling
champs-elysees
boldly
condor
sleeps
nationalisation
poverty-stricken
silajdzic
loading
eubank
awake
finalises
bulletproof
aramco
starks
holzmann
entertains
imperialism
medium-range
precise
kudos
much-needed
cordoba
#e#
labourers
baffled
off-limits
secede
intesa
stout
ruelas
father-in-law
malinga
benz
occupiers
jilted
d'or
six-year-old
barbuda
johnstone
hon
lent
aching
abundant
pre-world
promulgates
blacklisting
truths
sentimental
claimants
inflicts
agitation
twenty-five
deloitte
sneaking
campers
spillover
tutsis
kirwan
vcds
wilder
omits
varitek
injury-plagued
bommel
bomb-maker
bushmen
ovechkin
erects
cloak
swipes
cristal
lurking
torrent
handbook
mcnamara
veolia
mundine
cunego
yarn
banque
dyson
participant
women-only
hamza
werner
meares
tintin
ozzy
scepticism
commander-in-chief
animator
womens
twickenham
turkish-cypriot
tier
masai
extra-time
reinforcing
us-iranian
moons
camry
contra
spewing
lancaster
vicenza
self-immolation
lurch
recreational
normalisation
shortfalls
emerald
pisa
uprooted
catholicism
modern-day
indifferent
framed
miniature
rake
duped
academies
gaston
mein
portions
steinberg
treacherous
puk
weeps
nuclear-armed
tortoise
cassava
caritas
yad
vashem
dread
complexity
horizons
reminded
nomadic
symantec
irrational
tacoma
enzyme
ex-guerrilla
dispels
sadrists
gillett
footprint
metallica
cottage
stabilized
violence-wracked
ginger
lennox
furloughs
hooks
talbott
boiling
streams
kick-start
ex-hostage
forego
contrary
gladiator
brugge
jerseys
kiplagat
meg
imperative
hearn
lineups
regrouping
ratchets
imperfect
russa
two-game
mondavi
vowed
satirical
bourne
pregnancies
cedras
bid-rigging
velde
mingle
sweepstakes
chevrolet
bits
stojko
navigator
bauxite
puff
straining
snarl
acs
trailblazing
hedging
blu-ray
frugal
pooh
marinos
puebla
interpreters
municipalities
chide
tsunami-ravaged
post-tsunami
anti-discrimination
lebanon-syria
sino-eu
ehud
nabokov
booksellers
positioned
preceded
pedroso
yum
gravel
castilla
ds
mama
thessaloniki
weihai
fermin
displeased
multilateralism
revitalization
coyote
tocchet
burt
quiets
divergent
boggs
slugged
einhorn
cftc
oudin
khaleda
bc-af-gen
#-wicket
best-picture
alianza
choicepoint
helton
first-division
seminoles
tonys
kubrick
natalee
villaraigosa
fpg
sebnem
arsu
messinger
gilmour
pics
juliette
oktoberfest
blaine
rtl
existing-home
superpower
gambler
outcast
dazzle
anti-inflation
martins
televisions
five-wicket
pips
kasyanov
dugarry
ex-manager
sobhraj
groping
suffocate
succumb
botswanan
proficiency
wat
niki
shunning
ferrell
journeys
prowl
myer
rosberg
bolstered
plaudits
healers
co-premier
claudia
autopsies
radars
bless
oversupply
middlesex
publicis
hellenic
lindgren
lizarazu
occupies
liza
kirchmedia
erste
chops
pick-up
summertime
emirati
koruna
heartfelt
carriages
scandalous
plundered
rato
bush-putin
unhelpful
re-establish
objector
syrup
mackenzie
two-match
scorch
crawls
sleepless
contradictory
hippie
bask
burnout
swoopes
coax
wrest
benq
rocketing
confidence-building
airfares
baird
stumping
tailor
chieftain
extreme-right
shopkeepers
berg
lonard
unimpressed
svensson
plume
eyesight
token
voiced
ntini
zagallo
bofors
herpes
devolution
slicks
samuels
awakens
radioactivity
hanssen
cardiovascular
peca
mutant
warehouses
wait-and-see
equally
fuselage
steward
chopin
pinochet-era
taunt
reconsidering
sandinistas
chemists
lurk
antlers
dunblane
evolve
unexplained
ex-ambassador
tele-communications
rabbits
tupac
offending
tweet
bailed-out
inherit
manure
elbowing
ex-lover
bertuzzi
nicobar
repentant
flatten
nilsson
joshua
nicaraguans
krona
herring
bottlers
bearer
misdeeds
smells
regained
rooting
diagnostic
luxurious
nevis
bielefeld
waterfall
blockage
flu-like
middle-aged
disillusioned
maguire
menaces
cypress
departures
ex-cop
alaves
tandy
pragmatism
generics
gulfstream
indispensable
indian-born
fulbright
puckett
fateful
stein
annoyed
lewd
outcomes
jockeying
unorthodox
auriol
letup
usta
unwavering
sv
newer
tenuous
matador
safarova
cookbooks
septuplets
jang
lighten
elaine
sanitary
phases
flunks
render
koppel
reinstating
rewarding
hitter
cide
leach
satisfies
helmsley
parasite
mascots
super-combined
analyzes
guardsman
waited
bcr
mnlf
unionize
#-star
d.r.
tuned
villegas
nasdaq-###
c#
urbanites
lyric
cross-examination
forbid
bilked
#k
red-shirt
mid-autumn
noms
nea
coachella
u.s.-bound
pocono
besides
pads
al-arian
meadowlands
re-employment
glendale
#ot
clean-air
fumbles
presbyterians
vitality
faeroes
pasadena
gay-rights
djldf
lbj
##c
swc
##c-share
#.##-shr
fixed-line
freefall
sputtering
mcdonalds
joyner-kersee
shalikashvili
agf
diphtheria
hops
frauds
osborne
squares
silvestre
multi-year
inspirational
climbdown
buy-back
talisman
bra
ex-diplomat
accomplishments
us-funded
tailspin
post-communist
maersk
israel-jordan
gastroenteritis
perch
spla
torment
combo
set-up
disarms
firebombed
asahara
genghis
frowns
swire
erez
chided
scaled-down
eritrea-ethiopia
bayliss
fehr
four-year-old
directionless
barnsley
pillars
fertiliser
materazzi
scorpion
nou
siam
greensboro
casagrande
dwight
dbs
recreate
superstars
gunship
briatore
utley
nasrallah
pereiro
curtails
ex-israeli
trousers
streaking
vents
prelate
janitor
right-winger
youhana
actresses
invoking
deby
disorderly
broadening
lau
normality
brandenburg
aloha
walkers
overfishing
aurora
edu
reinvents
parishes
distorting
flatley
ex-judge
damming
loyalties
unconditionally
bangguo
alejandro
yasukuni
renegades
evaders
cuban-american
nullifies
ex-iraqi
daum
lodging
tiles
barons
unsatisfied
tenors
cejka
dockworkers
fascism
balaguer
dai-ichi
yom
kippur
stifles
diminishes
samaritan
grandchildren
flirting
unreliable
four-party
ferris
upholding
sizable
cao
andrei
kampf
bucaram
cana
sobering
bioethics
beaver
nedbank
tremendous
colgate
deccan
carlin
cockfighting
emancipation
marvels
elegance
mariana
liam
untested
bookseller
goh
silvio
no-go
micronesian
frentzen
boldon
vnu
dismembering
demotes
narnia
moo-hyun
relives
stackhouse
extraditions
cabinet-level
persuades
ex-senator
shaheen
joachim
unfold
folding
painters
catholic-protestant
soderbergh
wards
medications
hazy
nazarbayev
rosenthal
verplank
koeman
scalping
aquila
obsessed
rigorous
megi
wahaha
extremes
darlington
low-carbon
limbs
esmark
holly
gilardino
trampoline
lovely
odinga
clouded
shove
iwo
jima
sloan
temp
illustrated
katharine
leftover
dimension
ex-congressman
regulars
arsons
pendleton
free-speech
comedians
profiting
jars
##-kg
niedermayer
owl
worn
rink
bogut
linares
anchorage
prosecutor-general
wedge
mastery
krauss
brownback
maritimo
no-bid
cues
#par
molly
excerpt
powerball
jasper
savoring
octuplet
khabibulin
decorating
dismemberment
burk
u.s.-mexican
martinsville
nordstrom
#-state
cipro
mazar-e-sharif
bc-sri
holtz
cmgi
chisox
cielo
sele
tms
osha
riordan
isere
curlin
neymar
reliant
unsettling
nhra
spano
bc-lebanon-israel
tertiary
dlj
yantai
tip-off
dubs
anti-globalisation
nyt
empties
conquest
liquidated
ukranian
mahfouz
bossi
soyinka
woeful
scotch
counterproductive
dasa
instruction
psychiatrists
young-sam
stranglehold
squabbles
stoppages
buss
slims
veggies
altana
schreiber
cut-price
bust-up
advani
flouting
ictr
buddhas
llorente
annika
maxis
paris-dakar
tindall
bilfinger
bakun
drummond
vetoed
dissenting
goebel
squeezing
schiffer
tweak
chaney
compromised
sami
toshack
berber
pirating
anjouan
cebit
golfing
anglogold
hasselbaink
duels
enke
dudek
globalisation
attracted
positioning
engulf
privileged
burgeoning
anti-hiv
fleeting
reclaiming
upm-kymmene
disruptive
munster
german-born
ramsay
abizaid
hushovd
make-up
hines
three-match
anti-putin
angling
matthaus
cofidis
nuclear-powered
mayorga
freelance
ivica
stymies
wasteful
multiplex
anti-kerry
two-run
constraints
five-point
felon
ayers
trumpet
jermaine
vandalised
violence-plagued
hume
teeters
asa
expectant
hones
minsheng
enshrined
fireball
literally
como
sentiments
premeditated
pm-elect
detractors
limousine
aoki
fabrics
cougar
ex-white
pawn
calves
sang
victorian
placate
loch
brolin
chong
irene
sensible
sunrise
grown-up
shrouded
mcgraw-hill
delicious
end-of-life
impressionist
spousal
scarred
half-day
bales
remarkably
dismays
bail-out
heartbroken
curiosity
ultrasound
israel-gaza
nation-wide
sweeten
caged
inbound
cooked
abstain
starlet
x-men
oppositions
stankovic
shoemaker
uniting
zamora
callers
remind
invent
tempest
shack
waikato
translated
purification
zulle
purchased
peaked
sickle
relinquishes
rojas
chuan
ferre
chandra
cartoonists
unimpressive
corpus
realm
sebring
guideline
stains
anti-obama
working-class
tilts
conundrum
turkoglu
ex-coach
operas
ludicrous
tumult
outlawing
distillate
lurid
civet
extraction
asarco
sandler
scatter
nicely
post-#
orangutan
record-tying
rex
caremark
gaza-israel
pompeii
murkowski
opus
chinese-born
iglesias
ego
yitzhak
workload
smoky
peck
sportsmen
mislead
malvinas
freemen
garble
musher
big-name
yokozuna
strategists
third-seeded
ainge
ifad
baumann
casillas
idled
dobson
garland
alcs
halen
georgia-pacific
wipha
o'reilly
arshavin
u.s.-born
pohang
meredith
n.m.
margarito
pres.
megachurch
yearend
underprivileged
tailback
mlk
wye
r.i.
flood-affected
agribusiness
muehlegg
endeavors
boft
bunkley
-----
star-telegram
uw
cpv
righteous
troublemakers
greenlights
savages
banderas
roller-coaster
enigmatic
graceful
schaeffler
fuel-efficient
frontiers
lutherans
lever
sylvia
offical
ecologist
plymouth
yugo
ltv
moeller
valderrama
krupp
predecessors
rayo
mugging
russia-china
umaga
hierarchy
catt
eguinea
t-online
breaker
eels
sympathies
malawians
five-fold
distinct
privatizations
chained
us-israeli
flaming
bop
gaffes
toad
polishes
end-####
ravalomanana
idi
afoul
hoggard
denzel
drink-driving
smelly
stretching
connelly
vickery
manama
pinned
snails
numbered
shredding
transfusions
euro-mediterranean
ethio-eritrean
qaboos
tundra
whitewashes
outlooks
jealous
catalans
sweating
usada
intentionally
s-###
dangles
batista
pinpoints
rejuvenate
link-up
nordisk
eighty
brockovich
stickers
cauldron
mesic
chanting
sock
decentralization
five-set
rafters
altadis
unreasonable
longo
loit
mohammad
inhabitants
fitz-gerald
overdrive
mondale
irrelevant
ode
gathered
bombshell
expressing
rubens
wavering
unaffected
intermediate
self-help
lifestyles
floral
dutch\/shell
ballmer
mitigate
subversive
francois
sprawling
abdominal
invents
doped
disbursement
opal
enables
rush-hour
draining
pegs
townships
ogata
injected
ti
conceal
vulgar
wailing
vance
bulge
fictional
commences
tattered
ex-bangladesh
solicitor
conjures
chatter
compassionate
flocks
centurions
seismologists
##-month-old
reverberates
nudity
virtues
barren
bends
bmi
penelope
maggie
imprint
pediatrician
dishonest
hosted
two-hour
fittipaldi
retained
inter-bank
alliedsignal
digits
caregivers
downpors
cancerous
mof
countryman
mysteriously
yucca
dreary
unwise
costliest
mule
bledisloe
esquire
skydivers
fabulous
childs
climbed
reuniting
teaming
steeply
proclamation
diets
hinting
comebacks
oca
surpassing
pollack
irk
discredited
wharton
commune
pinnacle
sbs
salo
gbissau
thai-cambodia
bush-era
reflected
waged
daylong
age-old
beta
alltel
limb
cyclones
gambari
yiddish
so-so
refurbished
radiohead
solstice
whistles
rectify
swarms
andrade
accessory
steyn
abbas-olmert
tt
huntsman
jellyfish
condos
gotten
weinstein
revisited
potomac
colonoscopy
outweighs
concepts
karan
disabling
extras
hustle
fiercely
harnessing
alaskans
specials
hand-over
vonage
restraints
spotters
vlasic
noncommittal
datsyuk
selves
valenti
beijing-shanghai
ruckus
gambino
heavenly
complicating
spitz
guess
frames
hedrick
morrow
gondola
hornet
crabs
fostering
aaliyah
elicits
ct
columns
mora
u.a.e.
bluewave
pro-u.s.
bc-eu-spt-soc
opry
sadler
anguilla
tryout
handyman
around-the-world
spokane
pegasus
aba
dayne
goodell
robotics
sheldon
relate
depict
intangible
sanger
bc-indonesia
transient
adelphi
tanglewood
fespic
ucpn-m
ruffles
stocking
cybercrime
damien
bother
paedophiles
corruption-tainted
factbox
blushes
lift-off
matched
stabilises
flats
fulfil
inching
relent
heidfeld
lel
dried
five-year-old
hitches
klimt
advisories
latif
fairytale
iran-iraq
yo-yo
banishes
draconian
impersonating
scripts
sch
sexiest
[...]
