the
,
.
a
of
to
in
and
on
's
for
said
that
with
at
an
as
##
from
by
tuesday
has
wednesday
thursday
his
monday
was
its
<unk>
friday
is
after
-lrb-
-rrb-
president
will
new
it
``
their
government
have
two
u.s.
''
be
sunday
he
over
world
saturday
china
minister
were
####
first
who
here
year
against
people
this
more
country
percent
###
are
up
officials
united
police
reported
us
million
one
into
state
been
but
official
last
they
than
about
international
would
had
not
south
three
former
states
years
foreign
out
week
which
european
city
prime
national
killed
when
military
#-#
group
#
dollars
today
#.#
announced
billion
news
chinese
next
her
security
iraq
prices
bank
day
between
court
according
or
war
--
company
leader
down
'
during
#.##
economic
party
top
agency
off
$
could
second
some
four
american
stock
trade
oil
cup
other
time
union
talks
local
month
federal
british
market
central
points
major
all
french
hong
may
most
israeli
kong
bush
called
before
team
palestinian
five
closed
political
southern
authorities
early
home
capital
house
province
north
russian
peace
nations
general
died
leaders
least
israel
ministry
york
taiwan
countries
-
months
chief
end
set
him
while
russia
back
since
visit
defense
korea
east
if
held
night
help
exchange
under
presidential
region
#,###
african
man
share
days
no
nuclear
nation
northern
opposition
left
six
them
france
following
being
league
dollar
_
won
close
troops
forces
death
made
open
health
german
report
through
public
secretary
india
higher
women
stocks
financial
killing
army
west
plans
office
saying
largest
elections
meeting
take
economy
george
ago
pakistan
final
another
high
election
there
win
because
part
media
rose
rights
including
attack
third
expected
where
n't
senior
global
lower
victory
says
arrested
john
un
iran
air
men
u.n.
attacks
plan
asian
dealers
amid
what
africa
iraqi
spokesman
accused
crisis
britain
corp.
support
members
australian
index
##.#
republic
opened
despite
afghanistan
clinton
late
record
season
key
investors
street
germany
force
power
found
lead
can
near
she
reports
make
thousands
democratic
##th
agreed
campaign
released
urged
department
council
games
:
nearly
administration
business
center
agreement
head
just
##,###
fell
charges
development
program
took
should
deal
australia
workers
w.
only
indian
service
olympic
ahead
injured
parliament
trading
efforts
press
work
morning
white
europe
obama
washington
round
bid
hit
industry
gold
commission
###,###
beijing
across
human
trial
leading
recent
way
signed
seven
committee
wall
companies
soldiers
children
warned
markets
inc.
still
border
any
around
many
shares
eu
coach
island
bill
told
fire
several
began
even
islamic
say
due
organization
number
suspected
law
cooperation
weekend
rebels
congress
beat
champion
dead
case
others
giant
series
met
drug
western
eastern
sales
eight
america
quarter
system
weeks
biggest
conference
test
game
barack
energy
car
latest
past
prison
england
italian
newspaper
bomb
shot
arrived
match
town
gaza
london
violence
decision
aid
now
start
strong
so
ended
growth
interest
move
korean
whether
television
led
race
cut
school
gas
judge
main
tour
sources
##.##
rate
meet
mexico
both
among
control
premier
food
chairman
return
co.
ruling
club
soccer
hundreds
life
strike
sri
##-year-old
republican
###.##
scored
turkey
pay
long
profit
possible
middle
summit
put
release
earlier
executive
half
university
investment
become
championship
special
like
senate
coast
increase
do
family
woman
show
opening
nato
how
italy
use
without
taking
times
spain
title
us$
launched
fight
money
protest
march
further
hospital
get
association
face
football
militants
airport
relations
tournament
charged
indonesia
policy
thailand
went
used
free
zealand
arab
hours
much
continued
whose
board
philippine
trying
california
hold
baghdad
give
ordered
labor
future
los
vote
price
canada
showed
failed
terrorist
finance
aimed
asia
muslim
demand
nine
june
play
spanish
yen
vice
groups
area
investigation
alleged
reached
turkish
again
rival
indonesian
supreme
ban
did
fighting
small
angeles
fourth
fund
outside
wounded
regional
big
contract
daily
annual
hopes
place
star
de
july
decided
making
run
lost
sent
same
body
armed
away
statement
civil
vietnam
san
internet
action
rebel
confirmed
ministers
##-##
services
effort
concerns
member
weapons
joint
keep
afghan
suicide
private
players
information
medical
such
red
terrorism
brazil
young
go
own
budget
michael
discuss
space
might
rates
production
history
ties
building
total
mark
communist
illegal
emergency
planned
japan
right
step
sentenced
toward
growing
gains
plane
asked
you
previous
grand
until
data
tax
championships
session
little
champions
justice
palestinians
canadian
expressed
best
technology
texas
mission
murder
tokyo
water
deadly
reserve
xinhua
process
lanka
thai
iranian
likely
role
order
pressure
radio
ii
stop
saudi
lebanon
pakistani
shanghai
crimes
issue
soon
later
proposed
strip
few
those
sea
director
well
issued
japanese
boost
students
earnings
euro
zimbabwe
battle
afternoon
continue
net
prosecutors
loss
coalition
banks
heavy
seeking
legal
myanmar
egypt
change
claimed
affairs
gulf
rally
officers
within
lawmakers
gave
september
results
far
victims
almost
missing
firm
community
earthquake
maker
paris
black
rejected
airlines
behind
visiting
moscow
station
came
period
good
officer
cricket
nigeria
candidate
issues
along
flu
dlrs
scheduled
winning
david
named
fired
level
deputy
convicted
malaysia
dutch
must
operations
disease
king
received
rising
helped
taliban
straight
construction
americans
film
denied
jobs
also
caused
summer
turned
negotiations
robert
fears
call
egyptian
domestic
current
sector
industrial
january
county
paul
philippines
stage
movement
measures
post
line
parties
working
once
massive
cabinet
offer
fresh
losses
ever
forced
rise
moved
returned
ruled
buy
build
detained
each
dispute
areas
kosovo
embassy
ireland
bombing
calling
sign
problems
allow
research
job
dropped
published
operation
network
church
residents
reach
crashed
corruption
join
products
anniversary
authority
taken
greek
worth
land
moving
experts
fall
tennis
less
november
carrying
field
governor
hamas
mayor
computer
threat
road
bosnian
social
taipei
manager
parliamentary
already
large
statistics
side
florida
real
event
#,###.##
overnight
hussein
started
attempt
swiss
provide
leaving
project
allegedly
greece
launch
olympics
safety
figures
training
euros
increased
better
begin
known
come
jewish
concern
site
october
inflation
wife
plant
ground
leave
park
became
study
april
decades
host
himself
interior
spending
threatened
player
recently
powerful
try
old
ending
currency
i
brazilian
education
jordan
warning
cases
bangladesh
homes
conflict
river
base
flight
full
airline
millions
debt
travel
pacific
coming
credit
great
troubled
running
approved
sports
protests
diplomatic
bosnia
port
using
reform
sharply
ambassador
goal
ethnic
al
controversial
given
terror
does
august
competition
district
camp
train
bus
ready
profits
democrats
front
bring
prevent
condemned
evening
tried
consumer
heart
debate
delegation
czech
dozens
seized
sell
jail
broke
vowed
forward
analysts
mexican
yuan
suspended
lawyer
beating
aircraft
criminal
december
staff
fuel
planning
holding
arrest
tv
pledged
low
intelligence
mixed
see
guilty
poor
wants
too
got
declared
sen.
crude
care
insurance
send
civilians
militant
sudan
sanctions
saddam
career
envoy
explosion
basketball
&amp;
kenya
territory
voters
recovery
arms
reaching
music
guard
commercial
claims
worst
enough
list
popular
refugees
division
tony
rescue
allegations
hope
son
raised
highest
yet
english
having
evidence
southeast
going
improve
filed
sept.
brought
attorney
starting
funds
serious
finish
federation
drugs
child
minutes
toll
offered
northwest
shooting
find
independent
slightly
lebanese
gov.
cuba
facing
remain
banking
vladimir
boston
scandal
upcoming
charge
proposal
drop
alliance
soldier
confidence
parts
remained
struck
chicago
crash
trip
argentina
defending
supporters
then
century
georgia
malaysian
bay
####s
stadium
activists
bilateral
relief
fans
tamil
term
nepal
huge
need
protect
rugby
february
raise
search
banned
storm
crime
progress
no.
giving
costs
commander
employees
tiger
environmental
hurricane
exports
religious
traffic
representatives
serb
counterpart
mass
seek
point
situation
injuring
arafat
mainland
ukraine
every
zone
performance
protection
catholic
cities
injury
fifth
pope
sweden
voted
##-year
streets
hillary
scientists
medal
rule
source
remains
positive
poland
rules
fraud
break
bureau
management
festival
protesters
wanted
overseas
madrid
draw
yasser
sale
legislation
assembly
striker
shiite
never
winter
cancer
conservative
short
phone
natural
push
navy
calls
unit
form
sought
attacked
settlement
polls
welcomed
deaths
democracy
challenge
passengers
syria
elected
selling
colombia
promote
seen
.##
majority
college
clashes
damage
village
involved
bringing
movie
prosecutor
secretary-general
name
independence
suspects
deficit
swedish
resolution
ship
light
prepared
conditions
compared
lawyers
teams
cash
looking
futures
reduce
these
monetary
separatist
goals
baseball
attend
played
jose
nigerian
sides
headed
lives
venezuela
flights
holiday
congressional
auto
cost
track
athens
ceremony
republicans
immigration
missile
refused
potential
candidates
###.#
headquarters
promised
southwest
schools
st.
living
cars
tourism
stay
putin
securities
appeared
wounding
hotel
though
arabia
age
tehran
corporate
passenger
pounds
suffered
chancellor
kashmir
sold
witnesses
important
response
draft
decade
sending
joined
position
doctors
treaty
congo
cyprus
posted
passed
gunmen
online
housing
aids
gathered
raising
exploded
turn
bodies
irish
investigating
disputed
inside
treatment
buying
person
criticism
citizens
cuts
clear
setting
tensions
closing
winner
virus
sharp
hand
investigators
agriculture
al-qaida
atlanta
james
combat
losing
royal
violent
programs
defeat
nationwide
book
very
resigned
suspect
captain
manchester
survey
jerusalem
risk
getting
truck
prize
boy
uganda
believed
serbia
climate
together
resume
supply
chance
drive
personal
families
falling
lawsuit
paid
equipment
switzerland
motor
allowed
closer
bird
expectations
father
want
weather
unemployment
create
avoid
rice
cross
bombings
kuwait
historic
accident
tourists
governing
governments
northeast
squad
student
package
ag
blair
projects
kurdish
plc
latin
mother
criticized
two-day
struggling
needed
increasing
signs
jury
prominent
tons
reforms
businesses
traders
playing
spent
disaster
brown
jersey
friendly
export
prisoners
tests
immigrants
look
activities
legislative
developing
row
jailed
renewed
agencies
finally
carrier
crew
panel
defeated
act
humanitarian
stake
leadership
showing
laws
considering
property
kept
interview
single
offensive
common
tough
figure
treasury
access
##,###.##
recession
spread
beginning
saw
changes
fiscal
jet
ways
extended
transport
hockey
qualifying
vehicles
software
roman
demanded
seriously
worldwide
netherlands
executives
sex
review
guerrillas
supplies
poll
hard
constitution
mobile
pulled
commerce
involving
outbreak
francisco
secret
civilian
museum
rivals
girl
zambia
linked
rare
blue
based
offering
helping
prix
deep
crackdown
ounce
crucial
journalists
communications
problem
chen
develop
regime
above
art
soviet
presidency
unveiled
abuse
probe
polish
farmers
course
boris
hoping
ensure
mahmoud
annan
newly
helicopter
plunged
faced
allies
green
stand
islands
hall
pleaded
telecommunications
dismissed
consecutive
richard
environment
super
expand
croatia
rain
milan
advanced
faces
peacekeeping
lee
surgery
hollywood
levels
average
request
diplomats
neighboring
commissioner
institute
veteran
tens
bad
strengthen
jacques
clients
blamed
policies
leg
speaker
shut
connection
martin
fair
yugoslavia
ltd.
completed
result
kofi
state-run
austria
video
driver
loan
resolve
becoming
motors
chavez
lankan
halt
documents
immediate
pentagon
christmas
claim
hugo
double
bin
?
causing
wake
cambodia
per
target
enterprises
refugee
mike
wave
discovered
autonomous
fighters
rallied
decline
dozen
three-day
needs
spring
resort
focus
colombian
rest
vehicle
themselves
weak
direct
separate
speech
telephone
continuing
microsoft
jones
although
referendum
golf
award
hearing
operating
severe
sudanese
injuries
prince
failure
currencies
portugal
mine
stories
aviation
darfur
classic
caribbean
ali
failing
steel
live
preparing
haiti
wo
ongoing
threats
hk
chechnya
organizers
added
christian
charles
miles
hands
population
producer
bob
romania
consider
apparently
organizations
assistance
terms
mostly
terrorists
peter
resources
diplomat
advance
admitted
goods
finals
afp
lines
ocean
cause
room
journalist
tourist
patients
mccain
traditional
defended
firms
systems
sentence
status
boat
forum
strategy
threatening
agents
syrian
rodham
message
greater
committed
itself
address
demanding
steps
assets
carlos
assault
grew
aboard
tribunal
norway
muslims
provincial
let
carried
cuban
spokeswoman
blow
save
fellow
benchmark
williams
web
parents
finished
revenue
chemical
ease
davis
northeastern
nba
talk
described
nicolas
instead
waters
begun
stars
loans
beach
owner
serbian
politics
li
manhattan
extend
we
regulators
matches
entered
destroyed
miss
watchdog
resignation
euro#
blast
freedom
questions
decide
practice
designed
takeover
retail
urging
delay
stepped
overall
standing
quickly
kenyan
accord
abdullah
atlantic
mountain
sparked
exhibition
formally
links
bonds
deadline
midfielder
replace
primary
bankruptcy
gained
citing
rocket
officially
bombs
success
clash
awards
william
hostage
raid
stability
abroad
colin
handed
constitutional
remote
cultural
increasingly
block
imports
surprise
backed
kim
allowing
sport
daughter
gore
able
northwestern
sydney
insurgents
cargo
meters
politicians
lifted
accusing
impact
ousted
yugoslav
powers
boeing
penalty
square
longer
gmt
pace
coup
records
science
state-owned
fbi
consumers
staged
cold
strikes
voting
marked
nobel
critical
serbs
attention
quoted
gay
landmark
one-day
gain
austrian
magazine
sixth
driving
vietnamese
.#
airways
mining
electricity
venezuelan
approval
barrel
liberation
abbas
shows
canceled
nt$
lift
berlin
belgian
accept
below
runs
pushed
responsible
convention
sexual
letter
jr.
stopped
value
appeal
eve
customs
traded
highway
your
husband
interim
involvement
van
jets
trust
female
output
belgium
contracts
income
yeltsin
changed
immediately
built
satellite
often
giants
famous
rock
radical
somalia
detention
corporation
argentine
imposed
;
researchers
dialogue
spend
lack
speed
surged
auction
estimated
channel
petroleum
unity
forecast
planes
carry
bomber
agent
caught
suffering
electoral
formula
revealed
tom
offices
senator
worries
twice
illegally
bloc
postponed
sa
seconds
successful
product
custody
benefits
delayed
divided
newspapers
poverty
retired
youth
judicial
swept
events
assassination
rural
different
downtown
technical
lake
trafficking
thomas
chile
hailed
holy
expects
johnson
###.##-###
representative
atomic
steve
demands
southeastern
thought
significant
claiming
ivory
unions
queen
activist
euro##
kill
nomination
#.###
euro###
expansion
marking
peacekeepers
culture
receive
sites
investigate
created
signing
safe
manufacturing
preliminary
administrative
complete
blood
strongly
insisted
chechen
resumed
taiwanese
putting
electronics
farm
society
couple
resistance
sharon
danish
chirac
coal
edged
strategic
orders
macao
estate
possibility
considered
withdrawal
ten
guantanamo
peaceful
boosted
detroit
##-#
adding
denmark
ukrainian
pilot
spot
towards
houston
operator
know
sweeping
grant
throughout
massachusetts
additional
votes
initial
racing
ford
rangers
emirates
philadelphia
declined
shuttle
marine
captured
opponents
internal
albanian
sarkozy
targets
actor
musharraf
probably
peru
freed
cell
norwegian
ugandan
alert
testing
factory
doctor
jan.
tropical
returning
withdraw
alexander
question
concluded
guards
arsenal
#-year-old
joseph
agricultural
jumped
ice
tanzania
developed
semifinals
adopted
angry
believe
fifa
pervez
benjamin
fast
tiny
thanks
visited
range
effect
volatile
finland
powell
dangerous
memorial
hezbollah
tobacco
regions
minority
heads
critics
forest
taxes
gun
automaker
blocked
rather
scotland
southwestern
customers
jackson
ariel
palace
standards
valley
restore
devastating
enforcement
venture
industries
jakarta
sentiment
embattled
investor
p.m.
granted
demonstrators
bulgaria
remaining
measure
arizona
related
fishing
relatives
ran
appeals
forcing
baby
floods
unless
debut
masters
celebrated
laden
fighter
shenzhen
somali
gen.
hurt
defender
recovered
worked
streak
ethiopia
bond
mubarak
table
angola
maintain
invest
cutting
weekly
policemen
cast
commonwealth
limited
honor
joe
struggle
miami
qualifier
personnel
slow
date
serve
militia
solution
fear
appointed
buildings
produce
announce
electric
abu
my
stations
foundation
settle
singer
secure
friends
railway
louis
barcelona
genocide
establish
transfer
hosni
coastal
kind
hoped
commitment
plants
carolina
broken
smuggling
partner
el
seat
awarded
houses
pass
exchanges
concerned
positions
gordon
`
plot
restrictions
heading
crowd
lowest
drew
speculation
placed
neighbors
improved
professional
brother
transportation
stores
tibet
membership
dallas
triggered
responsibility
collapse
announcement
watch
website
enter
bangkok
rwanda
us-led
seed
mideast
cable
u.s.-led
presence
libya
slammed
guangdong
suggested
hill
providing
rains
democrat
accepted
nasa
rome
vatican
presented
cleared
highly
keeping
survivors
serving
scale
ehud
jordanian
lawmaker
owners
athletes
antonio
milosevic
praised
bowl
certain
telecom
portuguese
surge
upset
colorado
kingdom
something
stronger
looked
think
boxing
israelis
steady
ailing
outlook
hu
academy
ancient
bloody
stood
moderate
quarterfinals
largely
bridge
determine
condition
institutions
unprecedented
resign
present
strength
osama
retirement
condoleezza
fierce
ask
croatian
president-elect
cease-fire
prospects
warming
jiang
landing
howard
pushing
sank
hour
clashed
love
joining
proposals
partnership
slobodan
command
shui-bian
turning
juan
nothing
provided
complex
discussed
tsunami
donald
quit
mugabe
meetings
funding
prepare
la
pipeline
gasoline
breakaway
agenda
activity
cocaine
acting
threw
sars
advertising
al-qaeda
damaged
chris
kilometers
leftist
hungary
breaking
available
conduct
naval
swine
knee
emerged
peninsula
inquiry
story
details
marathon
exercise
store
finding
moves
welcome
opec
onto
partners
associated
minute
smith
politician
tie
apparent
feared
rocked
improving
why
cycling
bitter
include
predicted
fidel
widespread
oct.
chelsea
difficult
turmoil
cleric
dprk
homeland
nazi
relationship
pull
comments
entry
iraqis
chain
golden
accusations
heavily
bought
missiles
casualties
snow
pact
doing
ahmed
standard
pilots
modern
recorded
contest
mortgage
earth
curb
defend
long-term
flying
heard
nelson
winds
suspicion
appealed
amount
municipal
tribal
mutual
virginia
broadcast
legislature
businessman
patrol
xvi
ally
lot
wild
romanian
cia
numbers
mosque
fled
indicted
denver
fields
reportedly
singapore
kansas
pair
yankees
##-day
aide
favorite
continues
our
agreements
dec.
diego
hamid
negotiators
books
explosives
purchase
comes
optimism
kicked
swimming
seventh
fought
kerry
facilities
third-quarter
interests
reiterated
incident
mounting
zimbabwean
flooding
cover
benedict
celebrate
kabul
investments
potentially
#:##
stalled
uefa
athletics
reserves
boycott
sierra
differences
dow
rail
various
especially
daniel
expert
overhaul
prompted
luxury
seattle
timor
roger
task
heat
shopping
blew
intended
cambodian
ring
appear
invitation
extra
dick
willing
unrest
creating
spy
scores
re-election
drivers
permanent
airbus
clean
gone
takes
quality
doping
widely
facility
merger
visitors
tight
friend
profit-taking
compensation
billions
berlusconi
aside
reporters
route
playoff
entertainment
adviser
funeral
girls
agree
hang
standoff
fashion
traveling
continent
era
marched
teachers
dramatic
netanyahu
silvio
jump
kevin
backing
produced
rockets
flood
similar
flew
organized
foreigners
rich
fully
formed
nov.
crown
jack
works
kennedy
sun
view
jintao
appears
welfare
ceasefire
chances
marriage
ben
belarus
abortion
hot
worker
roadside
pop
founder
vast
voiced
killings
fernando
removed
broad
shortly
wide
class
indies
units
anatolia
done
cairo
slipped
asylum
munich
accounting
destruction
established
ethiopian
previously
nfl
gang
invasion
sets
delivered
electronic
remove
judges
wing
zemin
influence
karzai
massacre
wales
import
birth
pyongyang
climbed
dr.
tackle
anti-government
offset
woods
zambian
registered
desert
animal
discovery
alive
producers
reconstruction
beyond
longtime
jim
formal
names
beef
initiative
buried
four-day
makes
rio
socialist
picked
liverpool
reduced
war-torn
neighborhood
brief
thing
alan
rwandan
truce
weighted
cpc
qatar
account
hostages
version
uranium
islamist
asean
georgian
cypriot
a.m.
yemen
denounced
attempts
killer
inspectors
macedonia
image
remarks
asking
fine
acknowledged
wto
shareholders
singles
dubai
confident
soaring
string
mainly
interfax
sunni
collided
chips
frank
introduced
idea
networks
innings
helicopters
eighth
invited
gates
choice
soared
unchanged
favor
ecuador
chiefs
restructuring
ninth
composite
senators
seemed
actress
delta
ski
teenager
successfully
flat
scientific
islam
junior
two-year
digital
lay
regular
believes
gross
affected
extremists
bills
wang
scene
questioned
rebound
presidents
compromise
striking
feet
birthday
worried
promising
tested
launching
arm
five-year
card
slump
're
holdings
hitting
selected
##-month
amnesty
provinces
fatal
promoting
flag
closely
bulgarian
cooperate
arrive
patrick
voice
bail
deals
plotting
trouble
gathering
walked
compete
seats
guerrilla
pollution
bailout
handling
revive
entire
erupted
alberto
riot
yesterday
scheme
algeria
theater
victim
eased
quick
boss
tampa
seoul
schedule
moment
limit
computers
entering
means
struggled
quiet
waiting
effective
opposed
trillion
impose
expect
roads
fined
language
split
reconciliation
###th
f.
possibly
determined
actions
witness
scott
manufacturer
pick
villages
firing
minnesota
belgrade
expanding
premiership
urban
kremlin
phoenix
calm
jews
protested
stable
borders
rep.
always
first-quarter
nearby
earned
establishment
####-####
ships
disarmament
stressed
finnish
acquire
things
grow
suspension
katrina
included
author
junta
unlikely
generation
fate
mount
falls
slowdown
regulations
express
monitoring
lose
silver
j.
receiving
firefighters
medicine
violations
airports
active
basis
demonstration
charity
subsidiary
aug.
restaurant
assistant
attended
mediterranean
abandoned
minor
broadcasting
nationals
box
participate
owned
stem
andy
surplus
liberal
gloria
trucks
watched
employment
drove
lady
camps
ohio
places
financing
convoy
dominated
castro
seems
emerging
reporting
paying
served
brian
tim
costa
attempted
controversy
crowded
sure
protesting
benefit
challenges
deutsche
guinea
tension
prosecution
pga
kilograms
cautious
display
advantage
henry
manuel
shook
accounts
hospitals
warnings
utility
delegates
morocco
m.
libyan
perhaps
kazakhstan
viktor
offshore
brokers
chilean
bangladeshi
whom
payments
temporary
extending
fc
comeback
landed
easy
high-level
temporarily
toyota
dealing
fox
boosting
foot
deliver
manila
writer
monitor
makers
sarajevo
questioning
feb.
words
recover
towns
burundi
fly
promise
trophy
basque
restive
ahmadinejad
battered
demonstrations
medals
sox
apartment
preparations
creation
raids
easing
economies
imf
looks
dictator
stolen
crossing
coverage
nepali
identified
fourth-quarter
recovering
dodgers
testified
brothers
revolution
surrounding
mountains
mandela
algerian
necessary
ability
nominee
supporting
upon
crack
stephen
model
leone
material
hunger
angela
pledge
second-quarter
begins
evacuated
heavyweight
bar
simpson
luis
occupied
laid
searching
discussions
executed
ambitious
band
scottish
prompting
declaration
three-year
reporter
factions
alex
####-##
mail
explosions
holocaust
races
survived
ill
branch
cleveland
veterans
indicated
seng
waste
organisation
gerhard
currently
fatah
lending
oscar
familiar
complaints
hopeful
experience
modest
##-hour
centers
representing
appearance
conducted
delhi
matter
targeting
opportunity
concert
albania
aides
anger
doubt
illness
poised
opinion
wimbledon
mozambique
movies
particularly
google
risks
respect
downturn
istanbul
ca
mohammed
omar
dissident
attending
suit
materials
everything
heroin
courts
eurozone
territories
engine
vision
paper
individual
tanks
sheikh
quarterback
unusual
expanded
drought
elite
weaker
phase
citizen
rescued
tumbled
nhl
volume
supported
upper
infected
native
clubs
lakers
drawing
marketing
rescuers
equity
boys
editor
infrastructure
fish
schroeder
deployed
combined
ballots
inning
toronto
enhance
file
suspend
emissions
anyone
followed
views
warplanes
approach
detainees
negotiator
spill
hear
jointly
communities
execution
packed
lord
frankfurt
da
targeted
testimony
contain
meant
pharmaceutical
changing
miners
elderly
effects
follow
celebrations
bolster
marks
torture
sued
sweep
merkel
opera
participation
briefly
raided
showdown
revolutionary
ki-moon
monthly
negative
link
disney
telling
comprehensive
elizabeth
check
murdering
collection
abuses
stormed
dole
professor
hospitalized
cheney
yemeni
intense
##st
aceh
marines
stimulus
withdrew
calif.
hunting
arts
s.
wind
eye
policeman
wage
extradition
rafael
wen
##.###
bernard
tell
negotiating
normal
observers
fastest
inmates
gunman
epidemic
solid
influential
#\/#
cruise
priest
understanding
wrong
tense
wearing
columbia
door
shots
manufacturers
danger
slovakia
orleans
sensitive
collapsed
balance
morgan
volleyball
chosen
pressed
drc
opener
bp
billionaire
legislators
busy
chip
announcing
e.
pittsburgh
hero
subway
ballot
kuwaiti
suggesting
shipping
liberia
increases
homeless
sao
directors
insurgency
goes
moslem
edge
driven
users
recommended
brussels
burned
prospect
sustained
vessel
angolan
bhutto
slain
managed
pro-democracy
controls
stranded
fugitive
tear
word
floor
phil
practices
h.
fame
olmert
underground
unidentified
four-year
fleet
missed
animals
refusing
#,###.#
hundred
hungarian
high-tech
oklahoma
persons
returns
focused
giuliani
tigers
balkan
rapid
oldest
slowing
itar-tass
drama
retailer
feature
path
winners
sworn
wu
delays
jean
thaksin
implementation
motion
neighbor
learned
whole
overcome
reasons
globe
princess
pole
mohammad
publicly
unknown
wireless
sprint
uncertainty
unbeaten
sectors
teacher
written
chrysler
prove
reducing
damages
hired
bali
ripped
pension
violating
spying
sichuan
strait
maria
films
racial
sexually
guns
b
#th
pirates
strain
warren
shinawatra
cow
brain
andrew
year-on-year
tael
engineering
ferry
riots
recall
highs
metal
high-profile
momentum
taylor
ma
troop
bases
picture
settled
introduce
oil-rich
ghana
ap
managers
arnold
shift
villagers
journal
lewis
employee
deployment
coffee
pitcher
rebounded
memory
puerto
battling
escalating
tied
adopt
covered
strengthening
dream
tibetan
watching
locked
christopher
s
born
defensive
benazir
answer
score
nationalist
ball
ratings
doubled
right-wing
species
r.
progressive
gaining
aung
peruvian
paramilitary
jiabao
'll
sound
windows
replaced
accidents
contact
opponent
dawn
grave
slalom
encourage
harry
fallen
tel
hindu
grenade
basic
notorious
reason
mines
revised
!
drawn
absence
beirut
spiritual
compound
false
beaten
hiv
johannesburg
lashed
airliner
separatists
fires
acquired
richter
add
mad
importance
passing
first-round
visits
teenage
measuring
aviv
verdict
hike
approve
five-day
knew
suburban
fed
kyi
atp
shock
trapped
percentage
reflecting
battled
stepping
dropping
linking
risen
inter
violated
quarterly
duty
tea
fleeing
shortage
priority
silva
kuomintang
baltic
parade
colleagues
skating
artillery
visa
typhoon
laurent
surging
awaited
antitrust
cents
counterparts
spreading
mikhail
aggressive
achieve
trials
either
smaller
ac
goalkeeper
scoring
've
attempting
collision
freeze
francs
irna
blasted
organisers
note
lifting
disputes
hunt
suu
narrow
las
wheat
shared
battles
vaccine
revenues
implement
bayern
exile
ticket
extremist
all-star
stanley
conspiracy
michigan
palm
kidnapped
extension
halted
lived
negotiate
stance
bombers
rebuild
recalled
capture
permission
chaos
outgoing
challenger
publisher
brutal
celebration
sentences
dan
section
aiming
required
chamber
donors
urgent
fragile
felt
pursue
die
plo
bolivia
alaska
unable
greatest
prestigious
second-largest
counter
blame
transit
declaring
andre
apart
optimistic
jason
travelers
rounds
arrival
solve
acquisition
midday
mandate
liu
document
devastated
closure
existing
easily
consortium
explosive
belonging
lama
wins
disabled
starts
jeff
publishing
settlements
paulo
perfect
require
wars
technologies
successor
azerbaijan
impoverished
politically
rookie
filled
hostile
fiji
includes
angels
barred
trend
a.
amman
wildlife
santa
inspection
demonstrated
brand
guarantee
so-called
donated
landslide
conviction
pound
wait
stronghold
census
unexpected
persuade
vital
semifinal
mary
ranks
universities
orthodox
gary
tries
diseases
reduction
rating
scientist
mets
eliminate
artist
fees
endorsed
disappointing
enron
bars
occupation
subsidies
sometimes
allen
design
promises
iron
thrown
kings
bombay
lineup
limits
repair
twin
bit
incidents
exit
searched
assured
dennis
eric
trail
controlled
complaint
smoking
enclave
tanzanian
deeply
hosts
listed
wrote
bigger
indians
capacity
hotels
tribute
chemicals
prevention
hardline
kyrgyzstan
reading
wickets
grain
conflicts
assist
rumsfeld
badly
unanimously
geneva
victories
arroyo
seem
promotion
mind
kmt
zaire
,###
rapidly
conservatives
#-under
doubts
cards
aim
sovereignty
walk
overturned
slam
plea
alone
lawsuits
trains
conglomerate
tougher
doubles
device
pete
shore
hole
treated
talking
opportunities
bidding
tanker
setback
audience
carter
shell
singh
panama
reality
pending
a\/h#n#
smoke
barometer
brooklyn
dog
attract
spoke
dpp
suburb
endangered
virtually
javier
attorneys
statements
acts
automobile
parent
legend
bundesliga
##-nation
shown
breakthrough
petersburg
screen
immigrant
tank
haitian
yellow
bear
attacking
prisoner
exercises
dominican
submitted
ones
banning
businessmen
expelled
one-year
charter
options
improvement
bishop
longest
campus
confrontation
moon
o.j.
estimates
chase
healthy
unexpectedly
eyes
studies
escape
miller
displaced
significantly
competitive
chad
schwarzenegger
distribution
vegas
employers
resumption
dalai
\/
incumbent
song
wayne
succeed
last-minute
gambling
slowed
investigations
blasts
boats
###-##
burst
intensified
offers
friendship
mumbai
imported
ibrahim
hills
shootout
respiratory
tickets
npc
damaging
complained
nbc
federer
uae
vowing
legislator
##-member
youths
sat
grounds
islamabad
luiz
punishment
commanders
sacked
connecticut
rodriguez
sky
trees
rudolph
deadlock
sony
l.
gunfire
learn
vancouver
leads
burning
deadliest
jurors
toxic
stayed
jerry
choose
causes
containing
wine
mongolia
frozen
drinking
delivery
jobless
kick
fishermen
plunge
gonzalez
pulling
astronauts
tech
outcome
nature
items
reputation
buddhist
disclosed
lunch
exiled
poultry
influenza
playoffs
guatemala
temperatures
medvedev
xinjiang
neighbouring
devices
tunnel
larger
cowboys
jimmy
mounted
slaying
weakened
wedding
rush
garden
stunning
bahrain
slide
opens
fan
sense
concrete
defeating
agreeing
protecting
withdrawn
zhejiang
faster
discrimination
blocking
vienna
weakness
thousand
maritime
casino
gets
producing
wages
decisions
dark
nominated
platform
warner
pain
rubber
dmitry
seasons
developments
comedy
contributions
identity
factories
residence
###-meter
count
respond
illinois
amendment
fewer
piece
dance
laboratory
en
niger
weighed
rouge
murdered
del
shoulder
flames
intervention
refusal
bound
all-time
stands
first-half
fever
bat
kaohsiung
solidarity
plays
rolled
phones
rand
stone
robbery
maintained
top-seeded
sergei
bloomberg
regulatory
relay
alternative
institution
original
reaffirmed
barely
anti-terrorism
cbs
sister
midnight
tycoon
mohamed
orange
directly
arena
style
really
migrants
exploration
doors
mena
laundering
rumors
stretch
reactor
pledging
subject
long-awaited
pennsylvania
khmer
machine
upheld
warrant
narrowly
faction
traveled
booming
inaugural
indoor
nikkei
ride
uzbekistan
slumped
innocent
direction
fatally
size
abandon
ioc
moroccan
edition
triple
barry
horse
newcastle
integration
aerospace
cyclone
capitol
reaction
greenhouse
milk
uruguay
true
nairobi
meat
surveillance
bell
shop
high-ranking
cope
pregnant
throwing
patient
cartel
corps
harsh
peres
contested
secured
forming
expensive
holds
easier
feel
tonight
acute
serie
passage
inaugurated
flow
savings
veto
couples
via
seeks
khan
proved
recognize
elect
felipe
married
threaten
engaged
harvard
malawi
temple
fort
honduras
himalayan
knocked
founding
montreal
shimon
baltimore
slovenia
marijuana
supports
lithuania
celebrating
ministerial
musical
h#n#
cells
slated
novel
code
debts
acquitted
edward
testify
everyone
looming
academic
overcame
imminent
settlers
clearing
hidden
me
colombo
lance
provider
pool
duties
advocates
soil
smashed
syndrome
challenging
jazz
kidnapping
allied
covering
vice-premier
affect
regulation
hometown
intends
carl
wealthy
divisions
nato-led
rushed
damascus
juventus
quest
sectarian
declare
evacuation
rick
anything
high-speed
overwhelmingly
karachi
polling
gdp
kentucky
overtime
declines
utah
aims
pressing
nasdaq
elsewhere
filipino
journey
deported
license
anna
volcano
crossed
retain
silence
competing
beer
challenged
sugar
someone
universal
operators
toss
obtained
knows
filing
posts
desperate
rejecting
thin
outlawed
beleaguered
steep
transition
hiding
copenhagen
usa
preparation
iowa
reopened
extraordinary
###-###
retire
fla.
mbeki
larry
bottom
corner
behavior
sam
cancel
herself
inauguration
wta
deepening
explain
spa
##-man
flee
fujian
sparking
titles
organizing
images
fake
km
buyers
wrapped
sar
buses
finishing
read
uprising
anticipated
affair
male
hits
treat
peng
featuring
engineers
ray
violation
arguing
christians
hebron
mortar
escaped
copa
avert
upbeat
severely
stealing
multinational
criminals
occurred
requested
bribery
arrests
sitting
threatens
refinery
automakers
don
resolving
clinched
waves
melbourne
hassan
badminton
intel
abdul
lucrative
barrels
downhill
thabo
disappeared
albanians
ordering
athletic
derby
god
artists
indiana
barrier
asia-pacific
exporting
birds
districts
encouraging
goodwill
sluggish
campaigns
messages
forthcoming
metropolitan
declining
pitch
external
ying-jeou
judiciary
shortages
dragged
repeated
correspondent
distance
ankle
ranking
armstrong
rallies
arriving
mozambican
louisiana
forecasts
hijacked
montenegro
partial
guangzhou
theme
selection
stakes
ftse
medicare
weight
estonia
nordic
simple
ceo
empire
millennium
zhang
sporting
ankara
fail
cross-border
anthrax
stroke
terminal
pat
torrential
warm
freestyle
crews
legendary
reacted
pilgrims
encouraged
managing
writers
barak
peak
alcohol
'd
jamaica
waited
drowned
tentative
shandong
worse
boom
monopoly
designer
ramos
riding
##:##
greg
leak
bargain
ends
circuit
ambush
theft
zoo
aftermath
ryan
imprisoned
simon
lula
submarine
airplane
honored
reverse
donations
infection
broadway
marc
kuala
volkswagen
mahmud
storms
advisers
murders
salvador
soft
bourse
six-month
vacation
buoyed
mental
quake
effectively
retailers
semi-official
nascar
lows
insurer
alleging
pictures
outstanding
campaigning
crops
dogs
rape
earn
richest
eventually
gather
substantial
hiv\/aids
economists
letters
shield
israeli-palestinian
diplomacy
advisory
gop
postal
le
consumption
focusing
supposed
lumpur
undergo
harbor
emotional
critically
fit
inacio
shops
resolved
maoist
cool
roy
preventing
sidelines
contentious
heritage
robust
signal
clothing
holidays
hearings
abc
ports
sarah
outrage
shed
minimum
cincinnati
slash
machines
rico
magic
exchanged
abducted
anthony
sharing
payment
tragedy
rebuilding
replacing
sailors
ethics
worsening
first-ever
consultative
pan
writing
handle
tighten
possession
hariri
missions
enrichment
skiing
muhammad
far-right
semiconductor
flooded
deposed
mourning
speak
siege
dissidents
rica
master
proceedings
guy
isolated
faith
carriers
surrender
deputies
plastic
zhu
secrets
retained
copper
older
mario
solar
eta
reopen
bloodshed
consensus
recognition
continental
ivan
framework
michelle
departure
jiangsu
strict
partly
jihad
bobby
atop
urge
participating
decisive
stabbed
charging
aziz
runoff
strengthened
blacks
followers
contribute
armored
restaurants
roll
hub
cement
c.
eritrea
criticised
tonnes
bulls
requiring
cape
regarding
awaiting
guide
jan
grip
two-time
aged
disrupted
breast
expressing
enemy
core
liaoning
bronze
bruce
##nd
fill
underway
adb
orlando
albert
palestine
advice
lingering
establishing
sessions
reject
cigarette
priests
archbishop
dinner
yunnan
hampshire
studio
tree
oakland
achieved
teammate
shape
summoned
foods
corn
same-sex
triumph
behalf
cameroon
paraguay
upgrade
dean
tower
exposed
communication
prevented
yitzhak
suddenly
sir
mysterious
sinking
tennessee
inventories
walt
dipped
magnitude
spirit
ira
library
participants
villa
greenspan
lender
e-mail
salt
yang
drilling
publication
miguel
inspections
blaze
bombed
strongest
clark
governors
blockade
educational
loyal
eleven
rev.
woes
cattle
famed
amsterdam
terry
roberto
michel
usually
deciding
mean
week-long
commodity
kenneth
insisting
destroying
operate
frontier
sudden
tajikistan
diamond
ownership
balkans
scare
batch
seeing
analyst
lightning
chess
humanity
quietly
catch
territorial
liberian
fact
quite
seminar
pursued
mystery
tariffs
herald
heightened
salary
ken
disarm
posed
relatively
qualify
fueled
residential
lethal
stewart
rolling
documentary
describing
dna
oppose
conservation
nv
courtroom
edwards
runway
icon
pursuit
prepares
ronaldo
commodities
procedures
type
assessment
interested
latvia
decree
explore
retaliation
collected
crop
iceland
colony
carbon
semi-finals
mahathir
poisoning
schumacher
patriots
spectacular
photo
repeatedly
laos
churches
dramatically
topped
rivers
principle
ahmad
buffalo
sang
madeleine
commit
chose
alpine
#-under-par
bishops
sidelined
generally
leaves
rabin
institutional
consequences
mohamad
strained
speaking
replacement
blaming
performances
armenia
checkpoint
statistical
panic
tightened
spate
qualified
zones
planet
teenagers
evacuate
###m
sick
routine
album
sealed
penalties
ian
cardinals
matt
serena
sole
deploy
scandals
else
ron
pro
prague
arguments
diana
suing
standings
throw
discussing
protestant
pna
saved
long-running
shattered
berth
babies
undermine
confirmation
madagascar
undergoing
bribes
short-term
responding
steven
rebounds
anaheim
monitors
feeling
coaches
hosted
handing
tore
predecessor
intention
slight
flags
mississippi
inspired
holder
stole
assess
mafia
destroy
iii
supplier
window
twins
#.####
uncovered
oust
multiple
bryant
knicks
kids
columns
perform
traffickers
congressman
slid
concessions
gray
truth
finances
insurgent
surrendered
appointment
one-time
textile
checks
counts
quarter-finals
slowly
knowledge
chi
processing
wilson
memorandum
exactly
surprising
select
large-scale
levy
formation
guidelines
tommy
romano
imposing
tracking
ranging
hosting
sees
abusing
raging
poorest
ncaa
values
condolences
concerning
imprisonment
renowned
informed
learning
suffer
persistent
founded
girlfriend
avalanche
tianjin
objections
ucla
brink
perry
performed
sue
vicente
flash
renew
resulted
clinic
am
harm
younger
fix
monica
prisons
ruler
macedonian
wreckage
stockholm
outskirts
symbol
powerhouse
citizenship
prodi
regulator
lowered
ambitions
caucasus
eliminated
option
inner
parks
rampage
helmut
transferred
dumped
accepting
prescription
lying
spotlight
hiring
sustainable
persian
####.##
airstrikes
crowds
religion
ho
experienced
lpga
bullets
notice
mogadishu
happy
gap
uncertain
models
congratulated
signaled
confederation
usual
bankers
weapon
bowler
dhaka
saint
chang
studying
senegal
ashes
u.k.
congolese
investigated
pieces
alongside
disasters
farewell
tunisia
seize
provisional
ferrari
equal
empty
broadcaster
n.y.
espionage
directed
represent
lagos
gear
zero
category
au
slashed
winger
stones
physical
discussion
harare
voter
completing
prayers
lyon
power-sharing
posting
detected
mass.
consulate
actors
meets
shareholder
character
volunteers
sciences
indefinitely
forge
wal-mart
venue
incoming
underwent
salvage
gives
timothy
##ers
eating
walking
remember
ambushed
medalist
sensex
anti-war
structure
yards
farms
marred
kohl
lunar
tomorrow
aging
militiamen
notes
depression
individuals
departments
obtain
advancing
motorcycle
virgin
shrine
chan
ash
venus
foster
bbc
papers
tradition
khartoum
vincent
newest
kobe
popularity
igor
philip
milwaukee
promoted
sons
celebrity
economics
cardinal
sight
revenge
routes
arctic
detailed
nets
arabs
stemming
hurricanes
bids
santos
agassi
beckham
convince
referee
critic
denying
exporters
braced
rioting
confessed
nicole
postpone
crunch
detonated
devils
d.
wings
wealth
hague
warring
skipper
article
lisbon
surprised
cholera
honors
under-##
wholesale
museveni
protocol
quarterfinal
inspector
contractor
contacts
engineer
##rd
solana
autonomy
nicaragua
dealt
moments
grabbed
teammates
reception
prophet
dominant
eager
carmaker
punish
seal
roma
thinking
russians
al-maliki
indianapolis
beauty
obasanjo
bashar
smuggle
argued
bankrupt
actually
stunned
visas
criticizing
component
extreme
reigning
fines
citigroup
mall
youngest
triggering
yangtze
roles
requirements
atrocities
piracy
taiex
ignored
weakening
nick
abused
stabilize
fred
alvaro
kurds
bruins
estrada
loaded
pandemic
conducting
celtic
prayer
bernanke
maximum
maintenance
shelter
incentives
impasse
staging
transactions
seekers
televised
tactics
holes
withdrawing
impressive
collect
ceremonies
recognized
fa
homer
maintaining
plunging
skies
gift
bipartisan
coca-cola
suspicious
olusegun
torch
surrounded
yahoo
vice-president
privatization
hainan
braves
rican
bout
yoweri
shocked
authorized
alabama
mac
swing
rehabilitation
semi-final
amateur
wounds
celtics
tottenham
dairy
debris
ex-soviet
swift
craig
trinidad
shipments
superstar
scholars
petition
embassies
valencia
candidacy
ammunition
staying
amr
better-than-expected
extensive
preserve
stuck
protected
java
shoot
examine
troubles
widow
broker
municipality
vessels
dry
anti-
slovak
victoria
comment
airspace
pitched
greeted
abruptly
indictment
albright
cemetery
overwhelming
happened
missouri
spree
mob
todd
pounded
except
metro
impeachment
chicken
crushed
restored
warsaw
radovan
intellectual
hair
reversing
survival
merge
garcia
karadzic
fallout
repeat
harassment
straits
defuse
nightclub
raw
contingent
mountainous
nadal
war-ravaged
acres
condemning
salaries
gunned
dam
rulers
offense
text
contribution
respectively
ronald
struggles
wildfires
praise
simply
racism
mars
signaling
issuing
cloud
qualifiers
photos
electrical
adam
refuge
brands
ross
allows
enjoyed
cameras
landslides
ideas
valuable
franchise
peacefully
inmate
painting
identify
worry
dedicated
cox
opposing
unilateral
brokerage
advisor
lottery
torn
leeds
cyclist
ordinary
robinson
supermarket
witnessed
solo
aristide
verge
wider
canal
sacramento
frenchman
curfew
counsel
survive
fireworks
difficulties
laureate
fortune
retreated
regain
glass
coaching
monaco
populous
suharto
poured
gangs
mavericks
historical
freight
touch
orbit
projected
dating
jungle
biological
hectares
expecting
delivering
investigator
marseille
extradited
cigarettes
counting
accelerate
honda
shipment
sect
adults
jetliner
comply
classified
stripped
mcdonald
openly
saving
ad
second-half
three-month
controlling
broader
malaria
deeper
engines
nursing
divorce
maryland
rift
uygur
rider
equities
queens
bench
valued
amazon
vulnerable
competitors
ibm
rebellion
assailants
nancy
administrator
privacy
bmw
dying
rubble
clinch
caution
crippling
servants
two-week
completely
remarkable
observer
borrowing
batsman
straw
donor
estimate
deportation
capable
capitalization
al-assad
railroad
speedway
seas
climb
wound
arresting
located
troy
grenades
b.
nepalese
reversed
matters
contaminated
intensive
write
indigenous
consultations
fallujah
wells
would-be
cap
recording
snapped
excessive
easter
paving
derailed
neck
spots
hard-line
defenseman
commemorate
breach
turns
securing
rejection
lions
contributed
resident
grown
fixed
at&amp;t
widening
principal
pride
'##s
serial
commuter
tyson
arbitration
shadow
taxi
receiver
suggests
rattled
raul
scrutiny
indicating
storage
economist
advised
asset
angel
smuggled
touched
twelve
manage
planted
fiat
oregon
defiance
flown
fruit
unfair
attracted
envoys
favored
jumping
forms
radioactive
analysis
morales
lasting
disrupt
map
bags
austerity
#-##
frustrated
lined
anti-doping
lynch
mistake
graham
attackers
g.
pump
hanging
songs
closest
safely
lobbying
stamp
ted
buenos
aires
tightening
hanoi
unicef
heights
restart
prior
emerge
wear
substance
ravaged
tainted
resulting
desire
##-percent
harder
trained
installed
tortured
expenses
farmer
deposits
scrambled
blues
associates
warship
racist
embargo
samsung
endorsement
pioneer
horn
roof
janeiro
ramadan
contender
slumping
liberty
performing
developer
firmly
shaanxi
africans
g#
forests
humans
moldova
handful
parking
automotive
ottawa
roster
stress
laying
magistrate
gesture
tang
alarm
casting
transitional
hispanic
intervene
dealer
entrance
pierre
anti-corruption
turkmenistan
pose
greenpeace
bright
kandahar
luxembourg
awareness
rongji
condemnation
seizing
breaks
gingrich
koreans
arthur
bolivian
generals
stopping
defiant
banker
turnover
commitments
jolted
feed
eddie
defied
enjoy
drink
ernesto
prosperity
facilitate
diving
jesus
erdogan
defying
speeding
pitching
dominique
spare
highways
topple
overthrow
guangxi
atmosphere
cook
murray
austin
conspiring
cppcc
talent
reunification
painful
smooth
germans
wartime
permit
rampant
specific
eduardo
ab
haven
foes
chapter
regret
confirm
heated
daimlerchrysler
expulsion
grim
centuries
jonathan
sean
full-year
skills
francois
plagued
nevada
a###
annually
mediator
vaclav
spacecraft
klaus
variety
shoes
circle
manslaughter
rays
client
origin
portion
irregularities
compatriot
christie
peso
contractors
extradite
jorge
muscle
douglas
goldman
noon
samuel
restoring
literature
supervision
sumatra
cotton
automatic
gate
lone
unified
toppled
radar
bet
firmer
bears
barriers
pesos
counties
well-known
misconduct
narcotics
avenue
ranch
martinez
shootings
ivanov
discount
gymnastics
household
pataki
palin
contracted
ferguson
application
plenty
overshadowed
ignoring
conceded
walter
licenses
hikes
page
walls
neighborhoods
enable
container
committing
siemens
responded
earthquakes
anti-terror
oman
mate
greenback
nazis
suburbs
top-ranked
avoided
tayyip
granting
environmentalists
delaying
disgraced
legacy
hinted
rough
catholics
pursuing
dave
expo
lengthy
newt
angered
lawrence
laura
degrees
oversee
turin
immunity
coordinator
unacceptable
deteriorating
mitchell
pullout
harvest
cooperative
re-elected
outlined
second-round
minorities
extremely
shoppers
americas
martina
romney
pilgrimage
exclusive
million-dollar
yevgeny
hurled
kelly
burma
stern
properties
guest
ramallah
cnn
clothes
recep
reshuffle
ouster
costly
adams
nominations
il
signals
brad
bradley
register
tracks
lung
broncos
clues
vice-chairman
fearing
anwar
sharif
burns
u.s.-based
sprawling
quell
nor
evasion
roh
neither
cubs
ward
determination
originally
leonid
informal
stages
victor
ericsson
timetable
boutros
ec
karl
statue
lindsay
marginally
dubbed
doha
teaching
sheriff
gene
yacht
rifle
widened
picking
efficiency
robin
f-##
corp
foiled
bold
honduran
seizure
surface
stick
confront
dublin
heating
warlord
hawaii
norodom
odds
sanchez
arabian
u.
connected
bearing
besieged
roberts
khatami
milestone
paintings
guests
kathmandu
warn
sen
yushchenko
partially
crushing
mothers
libertadores
hefty
pretty
henan
spurred
proposing
enemies
equivalent
viewers
year-end
recruiting
genetically
colonial
fein
designated
maybe
bse
kg
none
rein
p.
swung
third-largest
studios
walker
moral
militias
disappearance
successive
farming
thick
trainer
turnout
probing
sinn
vajpayee
donate
fundamentalist
confiscated
registration
po
unhcr
afghans
hans
cult
cited
coordinated
movements
mastermind
oversight
technological
pickup
jacob
contained
amounts
paralyzed
stanford
negotiated
oslo
anderson
understand
bayer
numerous
submit
duke
symbolic
metals
relative
lights
ismail
quoting
nissan
limited-overs
jay
surviving
mild
nokia
genetic
outspoken
prolonged
stabbing
civic
shells
enterprise
mourners
mosul
undisclosed
purchases
approaching
releasing
reds
hire
tuberculosis
islanders
provides
shutdown
oil-for-food
classes
pledges
bag
belfast
hutu
comfortable
hunan
depot
pave
disastrous
lopez
arkansas
unusually
initiatives
quarters
lufthansa
snap
filmmaker
restraint
crippled
frederick
overseeing
graft
sampras
birmingham
otherwise
anti-drug
disciplinary
scrap
c
norman
roddick
caretaker
pages
sit
adoption
encounter
secretly
rocks
kabila
conversation
retreat
bolton
front-runner
financier
nervous
talked
bull
fischer
wildfire
mechanism
livestock
havana
principles
campbell
conclusion
weightlifting
colleges
cameron
chair
dressed
frustration
loved
shane
shaky
example
justin
hebei
zhuang
johnny
bonuses
creditors
fujimori
###-#
bone
midwest
hun
propose
telecoms
copyright
blocks
portland
ambassadors
janet
favorites
hate
gases
ossetia
architect
convened
qian
plummeted
guarantees
bed
elementary
three-time
hubei
mongolian
lakes
ads
dictatorship
shrugged
implementing
argument
eagles
mitt
lithuanian
flagship
atal
pointed
millionaire
rod
credibility
removal
instability
switch
treating
dirty
adult
impossible
spur
eligible
essential
camera
bambang
bordering
removing
deny
assassinated
kaczynski
photographs
reward
six-year
files
freezing
survivor
lobby
gunbattle
specialist
nikkei-###
abuja
archaeologists
reviving
self-rule
surprisingly
intensify
meltdown
rocky
mood
applied
spell
beneath
basra
lech
affecting
medicines
morris
shaken
treason
unveil
fiery
slower
procedure
six-day
downed
hamilton
jong
escalation
coordinate
sniper
consolidated
protestors
enforce
unite
tone
pedro
ratified
fledgling
alain
discipline
monument
elements
pearl
sponsor
screening
corporations
homemade
proof
everton
jon
revived
hedge
left-wing
achievements
yields
u.s.-backed
corrupt
namibia
mentally
modestly
destination
andrei
lu
content
reveal
experimental
leaked
quebec
angrily
arson
accession
layoffs
privately
oval
unarmed
contenders
ryder
wish
lies
apply
taxpayers
accidentally
recount
sovereign
faltering
pack
susilo
boxer
gazprom
seeds
reviewing
hamburg
rooms
uribe
diesel
mps
cellular
bronx
ayatollah
raced
hksar
risky
mariners
margin
unique
stationed
yukos
grozny
moderately
crises
rupees
passport
hewitt
barbara
bounced
kicking
go-ahead
kuchma
probation
par
recalling
restoration
fence
combination
proper
lehman
exposure
memories
athlete
maine
reassure
medics
advocate
lenders
madison
yudhoyono
expel
ladies
injection
long-standing
carlo
formerly
betting
safeguard
merrill
infections
ricky
insider
rises
hung
trips
armenian
boutros-ghali
tears
cycle
raged
teng-hui
ranked
infant
restrict
sailing
pneumonia
coordination
resuming
profile
mediation
solomon
sleep
weighing
feud
hurdles
belt
hardly
dismissal
anhui
precious
refuse
climbing
jesse
nurses
volvo
cannes
roughly
fog
noted
wire
lands
shelling
hat
pressures
rupiah
blue-chip
gifts
locker
lukashenko
willingness
autumn
intent
quarter-final
togo
accords
researcher
seemingly
hyundai
unanimous
thompson
respected
tip
ricardo
columbus
charlotte
initially
billy
croat
australians
indication
mitsubishi
hui
lure
sort
collective
detainee
mile
mir
lin
avian
bundesbank
assassinate
macau
servicemen
edging
zagreb
biotechnology
retiring
riyadh
cheap
transplant
mighty
mediators
highlighted
reconsider
operated
fails
meteorological
charlie
monks
passports
outfielder
penguins
gm
particular
wood
proceed
spurs
one-stroke
landscape
convinced
findings
unleashed
liquidity
rallying
internationally
literary
fee
interference
stricken
oau
cautiously
silent
drinks
separated
favorable
moore
outbreaks
d.c.
suspending
settling
extremism
letting
adjusted
revival
acted
fun
satisfied
lazio
chongqing
rid
controllers
condemn
concluding
outdoor
editors
pla
grounded
patent
suggestions
smart
organize
owns
jean-bertrand
enormous
motivated
competitions
felix
cote
provisions
dumping
reagan
forged
jewelry
defendants
hammer
dismiss
boxes
methods
sadc
diagnosed
yard
qichen
sergio
sponsored
strokes
drunken
kiev
britons
naming
republics
chest
marco
teen
thanksgiving
exporter
investing
migrant
embarrassing
plate
raymond
cancellation
resolutions
smugglers
trigger
briefed
barrage
regained
prostitution
consolidate
highlight
tale
renault
biden
color
beheaded
blockbuster
st
mainstream
margaret
plus
uzbek
forget
baht
unita
narrowed
machinery
fernandez
stalemate
unofficial
cross-country
cautioned
handover
indexes
best-selling
barring
scholar
colleague
drill
industrials
hemisphere
trader
scattered
disperse
grants
burden
martial
illicit
install
location
unpopular
marcos
forecasters
reactors
consulting
cheered
lock
remembered
state-controlled
choosing
pre-tax
sharks
mud
orchestra
volumes
modified
powered
unearthed
addition
toy
killers
applications
reeling
spark
failures
admitting
copies
potter
considers
uniform
ruins
francis
akbar
scrambling
gbagbo
lieutenant
hsbc
epic
transmission
busiest
runner
merchant
astronaut
europeans
hewlett-packard
homeowners
warships
lincoln
counted
low-cost
derail
holed
atletico
amounted
unconstitutional
murdoch
financially
reformist
sprinter
introduction
clearly
flowers
interrogation
channels
becomes
symptoms
usc
galaxy
non-governmental
sebastian
twenty
tenure
ajax
keith
pharmaceuticals
fund-raising
rupert
andres
sachs
clock
samples
prosecute
premiere
pti
aston
long-distance
turnaround
guarded
normally
strategies
tung
earning
emirate
o'neal
tire
nawaz
upward
customer
brawl
sell-off
thriller
succeeded
compensate
assaulting
slim
virtual
utilities
knockout
deficits
marion
finds
divide
mistakes
cole
ham
turner
clay
kidney
suggest
hurdle
matthew
thinks
alitalia
engage
wooden
carefully
devoted
regulate
patrols
martha
kazakh
two-month
nile
generations
lleyton
partisan
apple
algiers
factors
confidential
moi
voluntary
moussa
subprime
beaches
dominate
approached
professionals
audit
singing
prop
kumaratunga
forestry
glenn
pardon
guatemalan
abkhazia
volcanic
completion
honorary
ensuring
intercepted
buyout
arrangements
confirming
exported
township
poet
airstrike
baseman
skin
disappointment
auckland
keeps
gallery
chandrika
priorities
steam
buildup
weeklong
telekom
examining
sentencing
handled
zurich
tajik
punished
holders
twist
happen
certainly
hudson
councilor
colonel
fundamental
roots
cruised
violate
stressing
secular
halfway
pornography
wary
brett
megawati
evo
botswana
wide-ranging
eat
horses
ducks
dancing
combating
blind
overturn
legally
atlantis
tools
takeoff
scenes
toys
deliveries
augusto
run-up
dynasty
devil
jitters
ubs
achievement
escalated
addressed
tsvangirai
six-nation
warriors
moody
sahara
##th-century
viewed
childhood
petrol
propaganda
iaaf
halting
sheffield
courthouse
shutting
manmohan
deadlocked
evil
mouth
addressing
mandatory
theory
cost-cutting
downing
crystal
shanxi
advocacy
properly
aluminum
lionel
saakashvili
repatriation
calderon
celebrities
six-party
disclosure
crush
slipping
calendar
tap
furious
posing
solutions
grab
ringgit
tunisian
eliminating
moo-hyun
zanzibar
randy
wrestling
soybean
haul
batting
##-kilometer
sultan
wisconsin
mauritania
washed
winston
pkk
elimination
macapagal
head-on
cracked
restricted
assists
cinema
flyers
owing
us-based
##s
uss
harper
pro-western
swiftly
wfp
donation
pet
examination
endorse
recommendations
cal
tumbling
post-war
perez
floyd
turbulent
attitude
composer
reaches
madoff
barroso
nationalists
interviews
opium
dominance
branches
surgeon
complaining
queensland
pinochet
danny
implicated
shake
fifteen
industrialized
warfare
pretax
skeptical
cathedral
deemed
postwar
blake
casualty
sounded
tackling
complications
specialists
toughest
label
demonstrate
kyrgyz
daughters
migration
thieves
integrity
leon
sadr
superior
iaea
predicting
debates
admission
column
warehouse
kampala
rafah
adopting
assurances
balanced
dust
chronic
antara
incursion
elena
parole
rafik
acquiring
generated
ratify
developers
rankings
homered
lab
powder
sumo
slaughter
lifetime
g##
briton
caracas
two-thirds
error
heroes
year-old
masked
revered
yangon
tide
bolstered
offenders
vacant
isolation
spin
lloyd
nominees
spike
dispatched
marshall
cypriots
dangers
improvements
regarded
expense
communists
last-ditch
separation
bracing
listing
novelist
unemployed
array
horror
rifles
di
actively
two-run
downward
communique
introducing
laborers
facebook
diabetes
rob
nablus
stiff
anti-terrorist
al-sadr
inciting
engulfed
aggression
dengue
outpost
costas
dealings
leaking
quotas
...
fortunes
avoiding
nicaraguan
#.#-magnitude
trans-atlantic
degree
executions
publicity
opposes
represented
scam
icc
concentration
second-seeded
chartered
authoritarian
obstacles
transform
porto
readiness
ex-president
exhibit
satellites
branded
glory
tighter
silicon
satisfaction
hybrid
abdel
'm
roc
dale
graduate
embrace
qantas
tires
counterterrorism
signature
hijackers
m
capped
thirteen
hearts
railways
ace
nice
flurry
archipelago
commanding
tender
cabinet-level
rout
all-out
attracting
convene
taichung
ana
greatly
judgment
observe
predominantly
features
networking
four-month
root
dhabi
richardson
riders
v.
osce
zuma
bottles
clergy
totaling
garbage
undermining
embezzlement
tool
radiation
dismal
entrepreneurs
floating
ralph
helen
undercover
highlighting
dolphins
fisheries
insulting
three-week
##-foot
bethlehem
motorola
##kg
suns
plight
gorges
swimmer
gansu
dreams
assigned
mix
tripoli
###,###-dollar
substitute
alfred
circumstances
spotted
lodged
chaotic
ultimately
seven-year
readers
collecting
shifted
amendments
bucharest
hilton
credentials
forensic
psychological
papua
nurse
finalized
strongman
zairean
cavaliers
###-year-old
feels
mofa
minh
sofia
reflect
restructure
rockies
hitler
booked
plead
recruit
bizarre
lackluster
sail
burn
wade
deng
mecca
yu
invite
cabin
acquisitions
adjourned
beautiful
whatever
furniture
foot-and-mouth
dismissing
canberra
insurers
providers
knife
eggs
defendant
biathlon
aaron
organizer
ashcroft
volunteer
pivotal
dump
xi
pretoria
offenses
spaniard
videos
best-known
ed
assad
anxious
healthcare
symposium
bitterly
pradesh
passes
multibillion-dollar
contemporary
mercantile
disappointed
tiananmen
d'ivoire
provision
articles
legitimate
stockpiles
anxiety
hungry
mogul
rhetoric
marcus
gradually
routed
depressed
rarely
raiders
harris
brotherhood
cohen
no-confidence
investigative
aggressively
davenport
aiding
debated
yield
clerics
chretien
profitable
airplanes
scandinavian
taste
likud
contention
confronted
dismantle
hunters
sophisticated
resist
honoring
brushed
cash-strapped
placing
arrivals
hatred
blackburn
graves
clouds
metres
chernomyrdin
intensifying
burial
chiang
shifting
grass
boyfriend
sailor
resorts
italians
workshop
enlargement
difference
deepen
nearing
oliver
phillies
mali
srebrenica
sand
uses
steal
bridges
pressured
jennifer
franco
strife-torn
lion
curbing
sweet
tribe
safer
transformed
run-off
recommend
paint
d
commandos
nuri
malcolm
quarantine
lt.
ultimatum
miner
deepened
estonian
stomach
associate
bremen
heilongjiang
secretariat
golfer
latter
wiped
jeffrey
reinforce
confusion
catastrophe
convincing
tomb
rebounding
motorists
musicians
requires
,###.##
revolt
kilometres
fixing
firearms
zelaya
distributed
iranians
owen
dell
correct
requests
robbed
deliberately
welcomes
ltd
cooking
counterfeit
efficient
primaries
gerry
ferdinand
blueprint
characters
mph
toured
brewer
workforce
accompanied
justine
cheering
chickens
billed
disclose
botched
rushing
revealing
unesco
eruption
oath
lra
alps
shah
nights
geological
denouncing
wishes
jane
gul
purchased
explanation
cleaning
aegean
n.j.
kibaki
reluctant
employer
crashing
planting
represents
background
jean-claude
method
borussia
mediate
clijsters
susan
cracking
gabon
ceiling
roared
mercury
drafted
santiago
downgraded
anticipation
engagement
comedian
afford
legs
unpaid
bargain-hunting
universe
resource
departed
##-point
hingis
strange
ghraib
u.s
liberties
preseason
ministries
respects
bacteria
enthusiasm
anne
chiluba
lieberman
productivity
havoc
looted
eduard
stuttgart
bowling
kronor
cooperating
situations
invested
spectators
polio
hunter
meaning
midst
lima
captive
improperly
proud
rok
fitness
wizards
deposit
frequent
unification
relevant
ventures
capsized
mineral
owed
slashing
pavel
maradona
programming
mansion
governance
freddie
parker
thanked
flotilla
va.
packages
hanged
respective
jockey
pen
starring
divers
expires
substantially
limiting
basin
astros
#,###.##-#
makeshift
impending
rudd
warrants
latvian
unauthorized
displayed
panamanian
prizes
ontario
gong
gender
mwai
fourteen
hip
committees
balls
steadily
islamists
experiment
luck
consultant
'##
occasion
najaf
oracle
guardian
k.
robbers
ballistic
jails
didier
assumed
chanting
exploring
qinghai
drafting
indefinite
shrinking
eurostat
dortmund
caspian
huang
detective
dress
theaters
linebacker
gadhafi
arrives
stimulate
minibus
kenny
marlins
accelerated
liquid
conventional
gays
backs
pastor
lease
gamble
achieving
stops
ballet
uruguayan
distributing
desperately
gandhi
blowing
concept
existence
record-breaking
sayyaf
decreased
lie
commuters
farc
chambers
maurice
punjab
merck
sabotage
artificial
soul
gonzales
lesbian
audiences
craft
associations
felony
appropriate
beloved
mortgages
maiden
equality
estranged
trick
showcase
mayoral
exceeded
slovenian
glimpse
insists
pleading
hughes
stretched
tobago
squads
novak
julia
observed
bosses
footage
lusaka
detectives
disorder
jamaican
guaranteed
drifted
dwindling
manufactured
knocking
wonder
portfolio
disrupting
long-delayed
harlem
complicated
towers
publish
unspecified
suppliers
admit
copy
consolidation
telecommunication
weaken
factor
luther
siberian
moammar
bonus
dismantling
approving
inspect
supplying
##-meter
advances
moratorium
homicide
jilin
carnival
tragic
dug
laboratories
reliable
medium
parked
wright
jia
cartoons
leagues
christ
badawi
lists
improper
pakistanis
funded
whale
exxon
iconic
likes
seaside
kirkuk
destined
darren
mae
tired
provoked
shutout
mp
stream
types
fulfill
pablo
abortions
enjoying
metropolis
catastrophic
hafez
spilled
kamal
nationally
macapagal-arroyo
nerve
generate
reminder
touring
speedy
loose
lahore
decrease
hijacking
shelters
obligations
annika
dates
rings
sum
guyana
painted
marriages
entitled
kitchen
inevitable
max
clubhouse
runaway
comic
endeavour
speedskating
steer
burmese
personally
hammered
bones
sliding
patrolling
mourned
hide
wrongdoing
fat
operative
turks
pro-government
rounded
fiction
joy
resigning
phnom
arap
ex-wife
margins
icy
raises
repairs
bullet
emir
warm-up
keen
sympathy
franklin
permits
hushen
shaking
ultimate
convert
backdrop
cheaper
capturing
nanjing
sorenstam
dayton
households
reopening
operational
deliberations
thwart
pipe
overs
episode
trademark
drunk
brewing
enhancing
pierce
kurdistan
helm
protracted
filling
mutiny
approaches
flagging
sana
petrochemical
re
scenic
gripped
icrc
appearing
conclude
fueling
cat
bargaining
vaccines
canadians
multilateral
implemented
shaquille
on-line
traditionally
reliance
relegation
robertson
expression
competitiveness
touchdown
suspicions
justices
idol
evans
capping
siberia
bans
feeding
embarked
passion
sixteen
indian-controlled
reign
nouri
sheep
hawks
renegade
ritual
sinai
graf
eventual
orioles
briefing
fights
ki
bourses
barracks
bangguo
cruz
snatched
instruments
penh
consideration
center-right
pioneering
freighter
tinto
lockheed
identification
transparency
contamination
opposite
cartoon
q.
halftime
acknowledging
rode
pensions
sleeping
kyoto
cos.
undermined
praising
unmanned
nose
doug
repay
madonna
minds
ore
appoint
hostilities
guided
garment
assume
mills
nashville
lavrov
prostitutes
guinea-bissau
aired
clinical
villepin
anglican
overwhelmed
venice
publishers
month-long
pre-dawn
errors
tape
rugged
fares
yi
boca
thus
reno
marry
realize
wipe
anonymous
e
lap
psychiatric
aznar
divisive
rasmussen
clippers
inadequate
totaled
sounds
pistons
subscribers
installations
derek
skier
lockerbie
aerial
presumed
pointing
tours
clinics
tally
sensation
museums
oscar-winning
touted
tin
invitational
knight
saleh
magazines
overcoming
distribute
supporter
reid
tolerance
youngsters
nuggets
reorganization
rabbi
purposes
long-range
descended
sebastien
colorful
nicholas
jiaxuan
pigs
grace
bordeaux
rooney
wei
petra
delicate
obstacle
dar
walkout
billion-dollar
reunion
cafe
sickened
proclaimed
spokesperson
folk
jamie
secondary
es
slip
faithful
manner
interpol
components
montana
everest
internationals
slogans
slayings
nobody
yes
dissent
demolished
waving
valentine
abandoning
cambridge
dissolved
yankee
elephant
midway
runners
defenses
diet
looting
grocery
freshman
malta
isaf
brunei
height
winding
brilliant
russell
seeded
pink
outfit
indicators
urgently
mayors
sisters
expedition
class-action
dividend
cease
rogue
middlesbrough
forbes
runner-up
eriksson
one-third
infamous
non
belief
courses
drastic
shevardnadze
unseeded
journalism
photographer
worshippers
liver
chains
glasgow
award-winning
addis
anc
shelves
techniques
acceptance
health-care
participated
stampede
oecd
speeches
heathrow
battery
purchasing
flared
adequate
juvenile
romantic
spears
compact
organ
negligence
catcher
campaigners
rammed
capitals
gaming
pacers
saves
secrecy
flower
gubernatorial
trends
finger
tomas
jeremy
bahamas
willie
lien
dire
refrain
renewable
lane
du
rogers
smallest
shipped
regularly
generating
gujarat
grid
synagogue
sponsorship
tipped
steroids
propelled
grouping
smile
dispatch
thierry
royals
flawed
fast-growing
havel
eradicate
credible
nightmare
credited
backers
poses
constructive
peoples
cubans
kicks
forging
flowing
drag
aware
anywhere
transaction
nixon
solving
tossed
permanently
uniforms
i.
guillermo
pelosi
diamonds
monarch
tournaments
archdiocese
substances
arrangement
flame
trim
proliferation
attached
converted
broadcasts
conn.
abduction
decades-old
puts
inched
gcc
sagging
upgraded
bullion
kadhafi
newborn
bolstering
season-ending
shrank
lessons
reference
patriarch
concentrate
poison
locations
lesotho
coins
pork
foul
earliest
paula
poles
undefeated
venues
headlines
half-century
answers
oscars
spirits
xiaoping
diocese
ahern
reclusive
sights
opel
brings
slapped
ignore
faso
vojislav
mosques
thwarted
entirely
goran
three-run
khamenei
vivendi
grammy
director-general
jonas
revelations
observatory
panda
helps
feuding
ababa
antiquities
creative
describe
outlets
dong
subdued
magnate
minors
face-to-face
ebay
samoa
mercosur
backlash
panthers
inland
darkness
jiangxi
guild
teen-ager
provocative
swap
monarchy
cluster
modernize
franc
conductor
steroid
performance-enhancing
globalization
dame
heir
blatter
random
treatments
goalie
andean
countryside
shoe
wikileaks
youtube
qatari
indy
suits
relics
acclaimed
deploying
presided
phelps
al-jazeera
statewide
rebel-held
featured
suggestion
casey
waging
murderer
ming
mend
dominating
undp
bleak
slum
instant
crowned
integrated
stormy
rudy
historian
anchor
center-left
beverage
profitability
gerald
falcons
contests
debating
duncan
trades
werder
banner
wrist
timing
examined
workplace
spat
initiated
socialists
inviting
medium-sized
four-time
cats
interstate
unclear
rebuffed
purpose
three-game
skidded
hurting
reductions
andreas
tribune
salaam
punitive
burkina
hottest
o'neill
influx
inventory
skip
mexicans
attributed
cache
doubling
eads
sheik
jenin
administrators
caucus
choices
buyer
filipinos
stave
connections
whales
fertilizer
tall
favors
faulty
prostate
packing
turbulence
nuclear-armed
populated
cathay
pills
hazardous
liaison
stirred
salim
prompt
elbow
organs
podium
metric
afc
admiral
allocated
freedoms
default
zhou
professors
lucky
lots
adrian
predict
##-minute
graduates
tumultuous
pit
stuart
schoolchildren
logistics
disruption
monitored
sufficient
sailed
heavyweights
advertisements
lao
mcveigh
bargains
mclaren
procession
marching
neil
assaulted
eindhoven
unveiling
timorese
switched
selective
comparison
fractured
pleased
ratification
ernie
wbc
generale
moussaoui
concacaf
twenty##
innovation
blown
wreck
refineries
collaboration
observation
sulawesi
suez
chasing
belarusian
shillings
downer
sabres
worsened
bicycle
painter
scaled
tariff
pouring
mtv
rivalry
patience
mudslides
jse
devastation
senegalese
liquor
lied
shouting
veterinary
vault
al-qaida-linked
pumping
equatorial
on-going
wheel
dusty
naked
strife
bogota
welcoming
intimidation
mel
forever
employed
scorer
implications
juniors
pro-independence
breakfast
wondering
suisse
lovers
nam
grade
stevens
tri-nations
imagine
attendance
trio
llc
accelerating
affiliate
tripled
psv
onlytest
presenting
collapsing
competitor
explorer
coveted
alejandro
till
raft
sting
kinds
chairwoman
baker
nonprofit
miracle
doomed
dioxide
kirk
bertie
lisa
considerable
rank
underscoring
canceling
pig
relentless
fairly
dalian
amend
turf
helsinki
enhanced
banco
tabloid
abolish
rubin
stamps
loud
justify
ebola
wore
guizhou
dragging
gala
teen-age
midterm
ansa
bhp
maneuvers
chocolate
totally
bollywood
absolute
lavish
outcry
dos
checkpoints
appealing
backup
mobil
anders
amelie
labeled
apartheid
myung-bak
lawless
smoothly
manufacture
vanished
gotten
editorial
assembled
anti-semitic
graeme
###.##-##
generic
neutral
moro
disqualified
moamer
tornado
musician
indicate
rig
massacres
lesson
thrilling
multimillion-dollar
length
starter
installation
populist
clarke
zacarias
breathing
stated
faded
poisoned
equipped
patch
shortfall
philippe
aground
monte
scoreless
brewers
contributing
visible
pairs
realized
shirt
embryonic
affirmative
surpassed
heartland
luggage
enduring
pocket
dagestan
mention
exodus
gabriel
telescope
detect
punch
nebraska
asserted
financed
societe
vermont
manhunt
duo
imperial
confronting
elephants
golan
parcel
endured
reinstated
attraction
swaziland
tbilisi
volatility
curtain
artistic
patriotic
recommendation
relieved
brisbane
jean-pierre
fulham
anti-american
fugitives
trash
deportivo
joschka
zia
clinching
punishing
stark
assure
lowering
personality
lanqing
yorkers
voyage
classroom
traces
tidal
cross-strait
neared
comfort
attendants
defamation
dampened
prospective
elusive
jaffna
misleading
teen-agers
disruptions
heels
recalls
hashish
blunt
somewhat
privatisation
pleas
speculative
renewing
giro
docked
quartet
sihanouk
adelaide
right-hander
durable
await
cooling
chef
skepticism
gloomy
charities
primarily
communism
innovative
conflicting
repatriated
sponsors
denounce
saga
fraudulent
requirement
farmland
fao
foe
embroiled
sepp
possessing
steffi
listen
freely
boycotted
shedding
second-biggest
sacred
burundian
episcopal
croats
deport
database
firmed
porsche
revoked
bury
hasina
indo-asian
yale
revamp
digging
intend
gustavo
throne
carpet
free-trade
worldcom
wet
gauge
kurt
rebuke
breakdown
robbie
disposal
marat
padres
dome
steelmaker
constant
lend
destinations
marcelo
recruits
diamondbacks
wnba
kid
distributor
symphony
registering
captivity
concerts
t.
checked
arranged
taxation
hashemi
cheating
pfizer
retrial
broadband
relating
trafford
welsh
reviews
mwanawasa
tent
proving
squeeze
topping
hardware
promoter
match-fixing
engaging
referees
extinction
matched
adventure
paralympic
tanjug
sunken
netted
cliff
jelena
ecuadorian
dismantled
paulson
eagle
exceed
alarming
convictions
cousin
regard
bosnia-herzegovina
bulk
plug
rene
non-proliferation
portrait
groundbreaking
safin
muqtada
colo.
solved
eight-year
butterfly
sharemarket
monsoon
slave
mauresmo
ablaze
renewal
entrepreneur
grief
five-time
embraced
assaults
offerings
becker
quota
finalists
smokers
sevilla
zhaoxing
fannie
buffett
interrupted
artifacts
detaining
rita
xiamen
hotly
sergeant
s&amp;p
su
asif
liquefied
fundraising
revise
brigades
rage
strains
premium
reputed
aol
invaded
expired
frequently
growers
breeding
thigh
trent
back-to-back
third-seeded
falun
economically
justified
predictions
portsmouth
holiest
lobbyists
md.
notably
stumbled
checking
yao
beverly
hamstring
print
collins
sterling
hampered
shark
erik
motherland
barclays
chased
contempt
parma
waged
reprieve
dock
certificates
ugly
tainan
alike
neo-nazi
low-income
voices
mickey
humiliating
memphis
birthplace
circulation
navigation
lit
organised
cristiano
spitzer
lighting
shores
digested
rao
coordinating
shelled
saints
annette
tying
woo
alleviate
ratko
physician
muster
wenger
scope
visitor
containers
seles
far-reaching
rainfall
hunted
seasonally
mergers
abn
ann
procurement
tunis
bruno
casinos
medication
pattern
lewinsky
mladic
programme
african-american
teach
unfairly
extent
harmful
fortified
lasted
premature
wrapping
karen
d'italia
quitting
pipelines
portrayed
referred
rafsanjani
pontiff
arsene
sonia
post-election
ages
elian
searches
transporting
dakar
ashore
weigh
demolition
nazarbayev
mistakenly
drastically
wrangling
ghanaian
mercedes
tonga
salmon
locals
bnp
dig
attacker
heal
blitz
refuses
phillips
pregnancy
pill
everywhere
stricter
tribesmen
lobbyist
severed
prolific
jays
courage
catching
swim
topic
continuous
uk
bengal
deter
opted
reservations
diverted
britney
spared
apologized
transformation
scrapped
ramirez
arabic
squash
treasurer
rent
##-month-old
assisted
bryan
underscored
khaleda
prayed
finale
fahd
uproar
benin
qinglin
corpses
facto
accusation
bloodiest
animated
franz
infectious
reviewed
recruitment
sukarnoputri
amro
bottle
svetlana
appearances
#,###-meter
hopefuls
confederations
fading
astronomers
aspects
timber
banana
cure
denis
lou
phenomenon
finalize
whitewater
leverkusen
nursultan
ramon
classical
libel
clearance
wives
cent
blazers
outraged
buchanan
caucuses
correction
policymakers
chorus
han
stefan
reforming
mekong
bahraini
illnesses
alarmed
nominating
repression
eritrean
aboriginal
depicting
negotiation
broadly
capabilities
bow
lauded
commemorating
yassin
projections
surfaced
dae-jung
contracting
cleanup
misery
sec
adolf
printing
discharged
plague
hsieh
settler
kinshasa
papandreou
reclaim
sits
protections
azerbaijani
logging
racially
schalke
combine
racketeering
enact
crashes
inject
designers
presiding
evaluation
shocking
edmonton
repeal
guidance
attractive
auctioned
catherine
alzheimer
###-million-dollar
career-high
asa
oprah
bihac
mid
damon
syndicate
missionary
rafiq
eliot
chronicle
prosecuted
bribe
innocence
gallons
bust
castle
bias
benefited
inter-korean
distant
supervisory
blistering
dual
screens
cheer
patriot
exploitation
winless
consultation
somewhere
manny
kroner
compliance
bowing
sven-goran
versions
penn
awarding
bands
alonso
matchup
campaigner
bucks
goaltender
warmup
kinmen
burgeoning
refining
dependence
tents
audio
boarded
matching
interfering
tapped
co-founder
indications
bypass
double-digit
shrink
choppy
smashing
aggregate
balloting
instructed
watson
diverse
fanned
renovation
hard-fought
sunny
stadiums
flashpoint
djibouti
auschwitz
moqtada
ruth
sanctuary
###.###
balloon
marxist
cubic
autopsy
canyon
flocked
launches
tribes
supplied
remnants
drugmaker
medicaid
tome
enters
taught
reserved
cesar
ecological
plaza
pc
preferred
battlefield
fielder
little-known
bihari
wolfgang
prized
tallest
trailing
accidental
khodorkovsky
relax
kostunica
djokovic
secretive
al-beshir
importing
outright
governmental
physics
countrywide
steering
airborne
mindanao
ridge
treasure
swimmers
basement
plains
merely
delegations
zoran
elaborate
hernandez
holbrooke
kickbacks
clemens
plotted
boards
brush
websites
draws
juppe
experiments
fina
allegation
violates
indicator
vying
duma
disagreement
josh
season-opening
verizon
bets
zapatero
practical
famine
averting
extortion
persecution
co
object
succession
alexei
overcrowded
voluntarily
polar
andrea
ignited
inches
mammoth
tracy
sore
wallace
peacemaking
rental
underlined
circles
cream
maldives
throat
kent
moslems
reynolds
shake-up
ecowas
torched
enacted
jean-marie
flexibility
jackie
vegetables
interfere
pricing
battleground
concerted
disagreements
high-stakes
guarding
julio
mill
recipients
prize-winning
appetite
super-g
romance
doh
cross-taiwan
format
five-month
elder
wolfowitz
teresa
johan
excellent
antarctica
archives
argue
clan
candy
strongholds
reed
rely
outlaw
locally
simmering
sticking
two-stroke
opinions
submarines
bread
demonstrating
indoors
coa
canterbury
gunships
springs
hull
standstill
kumar
authors
mourinho
occupying
bodyguards
gloom
spies
domination
descent
breeders
pageant
thank
late-night
hamad
notion
solemn
desk
brisk
egyptians
orbiting
define
reflected
experiencing
anti-semitism
facts
relieve
breath
fundamentalists
sevens
deserted
coyotes
delaware
postseason
airliners
stirring
monster
pirate
tune
oic
london-based
e-mails
flexible
ruud
temperature
columnist
ransom
restricting
delegate
cosmetics
notre
thirty
junk
embezzling
jeopardy
packers
forgotten
compiled
#,###-year-old
reunited
aided
clarify
steelers
rowing
tumor
yearlong
pockets
billiton
legality
namibian
meter
salman
cockpit
homosexuality
torturing
leap
radicals
shiites
cloning
resurgent
connecting
defenders
lebron
diversity
garage
separately
relaxed
ethical
sacrifice
teeth
languages
carries
coastline
tentatively
obesity
co-operation
prime-time
applying
menem
cheers
q
exposition
al-sabah
outline
chernobyl
kashmiri
kuna
wba
koizumi
paraguayan
worsen
technique
enabling
fault
gibson
trump
sabah
centre-right
hood
touching
approximately
#-month-old
masterminding
circus
leonard
olympiakos
abraham
infants
dip
chevron
canary
detail
mechanical
trounced
reversal
breached
wisdom
primakov
n.c.
wanting
wellington
shi
amp
arrange
authorizing
middleweight
objects
fuels
manned
infringement
daring
weary
fidelity
daytona
sections
travels
gearing
birdies
newark
funny
typical
fact-finding
pray
coroner
insufficient
commons
panathinaikos
rainy
transparent
birdie
reservoir
obvious
costing
remainder
pulitzer
cornerback
centre
budapest
dvd
bowed
emphasis
tankers
pt
publications
hovered
bowlers
intact
listening
accuse
kirchner
pardoned
onslaught
generous
hail
insist
murphy
involve
linda
defy
questionable
stinging
anti-aircraft
nine-month
snapping
countdown
idaho
undersea
santander
homosexual
pupils
vetoed
fare
sprained
rover
domingo
lhasa
grandmother
anew
festivities
converged
theatre
reply
belonged
skiers
lover
armenians
junichiro
upgrading
molestation
alessandro
serves
misdemeanor
treasures
unannounced
spencer
revision
charred
selectors
three-way
towering
chuck
lindsey
hostility
toshiba
alter
webber
bailey
shortstop
jerome
calgary
faculty
lately
bible
sotheby
terrible
mickelson
lightweight
knowing
mortars
termed
ike
contrary
lara
southernmost
climbers
pistol
licensing
exceeding
vieira
cave
rocker
nguyen
geithner
changchun
jittery
assam
affirmed
rotterdam
reminded
noting
disgruntled
signatures
prefecture
tuition
mess
incomes
duel
allan
institutes
broadcasters
preferential
slavery
mock
ningxia
versus
fiercely
emmy
jeep
cisco
o'brien
drops
whitman
thorny
dissolve
freeing
countrymen
haitians
binding
johansson
discover
tata
campaigned
fast-food
coruna
rotating
sicily
ruined
postponement
novels
doses
+
hackers
pounding
telephoned
bermuda
harold
strikers
specialty
reassured
leather
harmony
modernization
##-game
fu
seasonal
kong-based
ecstasy
qualification
recruited
asserting
pianist
winfrey
earmarked
landmine
difficulty
keys
strapped
inspected
upsurge
brazen
cricketers
decade-long
cart
folks
intentions
truly
crumbling
teamed
apartments
geoff
evolution
grueling
clandestine
preparatory
recognizing
philips
decides
setbacks
elvis
dakota
stuffed
scathing
joel
ousting
ellen
disarming
serbia-montenegro
behari
engineered
censorship
handball
prosperous
newcomer
eighteen
gerard
jumbo
toledo
meteorology
categories
comesa
quake-hit
#\/##
sheet
regardless
fronts
challengers
wahid
universiade
parliamentarians
joke
centennial
underwater
thrashed
kafelnikov
rotation
wrap
reinforcements
rejoin
parallel
payroll
capability
bounce
rashid
mere
acceptable
aeronautics
proven
paolo
measured
mourn
pitchers
likelihood
exotic
stabilizing
toddler
playwright
concession
hornets
hwa
mr.
feelings
tightly
equalizer
knock
reconnaissance
stoppage
baggage
jemaah
thunderstorms
amtrak
exam
one-shot
sometime
gustav
advertisement
roland
perjury
exploit
weld
horrific
wicket
flows
reinforced
snowfall
minerals
operates
ryanair
mired
compulsory
merchandise
anatoly
vaccination
manning
depend
aleksander
bode
ibf
budgets
nextel
videotape
update
sustain
simultaneously
cables
regrets
bullish
authorize
christianity
y
premiums
slew
evaluate
daewoo
exist
elders
outer
presentation
combatants
julian
milf
homage
dogged
trek
trevor
czar
four-nation
buffer
champ
lining
tumble
hoop
compatriots
nominate
multimedia
sunk
recommending
hindus
excess
narasimha
trichet
subsidiaries
streamline
slick
free-agent
inspiration
abidjan
yonhap
rahman
seniors
rossi
collections
juergen
els
bonn
seventeen
froze
monrovia
admits
trace
longstanding
chadian
figured
bombardment
anbar
protective
kagame
defused
coma
closed-door
loyalists
holland
reelection
groin
rematch
perth
top-level
sporadic
medallist
acid
blackout
accuses
spite
harvey
sunderland
vicious
thorpe
taekwondo
ecb
marie
saarc
stringent
automobiles
amy
monthlong
moea
jaap
icelandic
brigade
canadiens
durban
mccartney
responsibilities
fantasy
pirated
addiction
wolf
enforcing
chart
unhappy
islamiyah
emergencies
garry
selloff
hell
kouchner
pfp
unnecessary
testifying
chengdu
affiliated
andersen
voicing
sideline
welterweight
non-aligned
freeway
labels
thoughts
highlights
construct
swath
breakup
claude
burnt
louise
goodbye
govern
amir
disc
interactive
nike
kraft
plots
commando
xu
drum
skopje
homosexuals
much-needed
warne
rogge
math
hailing
studied
bosnia-hercegovina
buckingham
obtaining
reliever
profound
performers
zardari
toppling
indonesians
factional
compaq
verbal
kwasniewski
fta
playboy
physicians
nowhere
der
dynamic
marino
confined
drowning
spacewalk
bodyguard
iranian-backed
ravine
ferrero
permitted
odd
risked
breaching
arising
oral
yearly
b-shares
allawi
remembers
abrupt
continents
piled
defected
edgar
uneasy
geared
companion
shipyard
gardens
rigged
arlington
vs.
structural
reinstate
elbaradei
congratulations
zeng
roche
absolutely
unlike
sacking
therapy
revamped
tame
airwaves
kidnappers
colon
meals
pascal
leveled
butler
clout
thorough
affordable
election-year
taxpayer
banners
everybody
golds
credits
ethanol
mci
robot
champagne
military-ruled
commissioned
daunting
broaden
filming
trans
specter
maize
appreciation
exhausted
dirt
lacklustre
crossings
operatives
formidable
antarctic
serb-held
wbo
hormone
bare
aquino
underlying
boarding
rhode
downplayed
sprayed
long-time
depleted
floodwaters
stuff
smiling
upscale
memo
vegetable
aden
bore
uncertainties
plenary
caroline
mkapa
chilly
load
blessing
meal
spiraling
maputo
transferring
usher
strive
perot
swat
defined
trawler
kenyans
wigan
tan
drills
fend
contains
harshly
imam
baron
hardest
young-sam
clamp
nec
bulldozers
wallabies
one-off
spector
bruised
reactions
immune
grandson
jackets
sandra
relationships
centrist
rebellious
topics
meddling
hepatitis
polo
needy
notified
libby
habitat
kph
frantic
subjects
downgrade
commercials
absent
huddled
ordeal
al-bashir
sit-in
wuhan
picks
benfica
wesley
donovan
masks
marketplace
self
jeopardize
noise
drive-by
euro-zone
dose
defeats
gateway
pudong
whereabouts
reggie
dragon
intercontinental
arch
first-time
embark
semi
emile
symbols
activated
starr
purported
tearing
belmont
pumped
representation
poorly
worrying
outlining
amazon.com
al-zarqawi
specialized
blackwater
plantation
p.v.
groundwork
strictly
rim
decorated
ligament
soup
carol
bike
shadowy
dashed
zedillo
josef
chissano
jefferson
shawn
horizon
nasser
abdurrahman
expertise
potent
abacha
evangelical
polluted
subsidy
earnhardt
vocal
destabilize
discovering
lacked
halls
dividing
twitter
blanket
expectation
elevated
inflicted
addresses
greens
putt
creator
redskins
cheng
ha'aretz
sas
editions
medley
sewage
warlords
kodak
brutality
publicist
architecture
judo
humor
cows
yielded
montgomery
thrashers
chee
undocumented
iverson
harrison
basket
haas
corinthians
ariz.
surveys
qaeda
swollen
barbados
excitement
talented
legitimacy
cruel
rang
jalal
eight-day
resurgence
sink
accordance
wb
leicester
mismanagement
hi-tech
excluded
bertrand
lords
peers
reckless
zidane
vigorous
remake
n.
anthem
fury
tracked
sani
comoros
tsang
apology
plain
roosevelt
travellers
outsourcing
unconditional
sensational
academics
sammy
shy
identifying
trailer
charitable
eur
pot
significance
wrecked
inflationary
overdue
oilers
singled
hangzhou
money-laundering
shields
perpetrators
nerves
liability
biotech
merchants
sunshine
fatalities
gyanendra
stir
posters
determining
season-high
bud
fourth-seeded
shaping
frenzy
gradual
christine
nickel
departing
indirect
moshe
ethnically
springboard
herve
bent
cooper
rolls
gunshot
caps
karbala
oxford
auditors
worn
curtail
inter-american
raped
upstate
abhisit
northridge
uphold
wilderness
osaka
corridor
organic
soviet-era
hip-hop
wrongly
fossil
lawn
lifeline
gibraltar
clampdown
joaquim
lindh
disturbing
outlying
expos
barnes
theo
amended
experiences
escalate
correa
exiles
fiorentina
peaks
open-ended
zinedine
coca
hideout
interviewed
consistent
starbucks
conversations
gunbattles
ambulance
partnerships
speakers
viacom
g-#
palermo
###-run
kinkel
flamboyant
charts
whites
reuters
tenth
mobutu
palestinian-israeli
accomplished
haider
mice
afraid
plutonium
retaining
armies
southampton
technicians
spirited
nippon
staunch
injected
bandits
forcibly
mitterrand
charlton
colts
helmand
dressing
simitis
qingdao
boundary
archaeological
teens
directorate
occur
multi-million
embryos
stronger-than-expected
sanitation
manual
holmes
dinosaur
strasbourg
talabani
bilbao
ejected
cannon
sneak
noticed
panels
carla
stoked
anti-missile
von
vow
lightly
keane
vikings
careers
anti-graft
vejjajiva
colors
vodafone
resisted
disarray
wembley
exception
alexandria
ulster
contending
###-pound
shipbuilding
tasks
transatlantic
staggering
cd
pizza
molesting
lacks
claudio
webb
jospin
jeb
scheffer
noisy
releases
preventive
naira
record-setting
frame
walks
abdelaziz
furor
saab
kgb
touches
proposition
embarrassed
environmentally
surgeons
bastion
emperor
ifor
nikolay
memorabilia
moldovan
fourth-largest
abusive
exposing
sample
emphasized
memoir
avenge
escort
batteries
multi-billion
intellectuals
consent
##-run
by-election
twa
dancer
schemes
triangular
worship
gilbert
clemency
mulling
infighting
heaviest
rash
cologne
siew
ponting
nigerians
jong-il
monk
baja
english-language
ruble
condoms
golfers
collaborating
tips
valentino
des
dormitory
proceeds
recess
creek
directing
gripping
detailing
firefight
destructive
plateau
overlooking
weaker-than-expected
lucas
hard-liners
brokered
curbs
thatcher
dutchman
no-fly
mou
f
exciting
mid-####s
fullback
sharm
guitarist
hydroelectric
button
photograph
loomed
ina
fogh
comrades
transfers
villarreal
hiroshima
intervened
memorable
rauf
biased
bullpen
tuna
bells
bustling
debt-ridden
beatles
deplored
henrique
retaliate
curtis
enriched
wealthiest
riviera
cannabis
maid
indicates
palmer
woodward
ipo
philanthropist
conventions
dignitaries
##m
lennox
mercy
koreas
sedan
displaying
stabilization
one-month
t
brady
truckers
locate
nasty
stalinist
multi-party
reservation
stretching
dancers
pure
triumphant
telkom
martyrs
blackhawks
vince
earl
cristina
somber
integrate
un-backed
fasting
silk
footballer
liberalization
belong
vigorously
mercedes-benz
nephew
presents
rams
cyclists
urgency
screaming
patrolled
floated
derivatives
drives
wagner
buzz
parmalat
henin
fargo
titans
dive
nestle
ear
touchdowns
starvation
slaughtered
heath
conrad
shattering
khalifa
storied
turkmen
transmitted
hbo
consult
peshawar
vigil
brick
happens
jiechi
fearful
routinely
line-up
viable
meningitis
expose
sandy
sooner
averted
prestige
halloween
polanski
bulent
indian-administered
raping
tube
defects
simultaneous
blacklist
convenience
complain
carnage
effectiveness
cheese
otto
nun
loyalty
tunnels
feasibility
endorsing
tells
anita
henrik
four-game
expressway
trimmed
provoking
acquittal
dismay
falsely
secessionist
luanda
julius
cardoso
perceived
renaissance
nestor
patricia
comparing
augusta
titled
minsk
lifestyle
anti-abortion
prohibited
thomson
sese
york-based
physically
archrival
positively
olive
singers
kigali
bolt
henman
revoke
jumper
legalize
bedroom
soar
dax
pays
injunction
snatch
endangering
seko
leaks
pile
classrooms
mao
third-round
snowstorm
edmund
fisher
sef
principe
plummeting
stung
excluding
mistaken
deterioration
ditch
espn
full-time
owes
okinawa
gorge
delighted
irrigation
thrust
luke
flamengo
foreclosure
ingushetia
deliberate
drone
peugeot
unsafe
forth
fingers
lesser
malawian
sing
pause
cyberspace
homers
brooks
bruising
uncle
six-week
hashimoto
undergone
slopes
collector
stumps
displays
objective
limbo
assessing
tenor
timely
bathroom
sachin
tendulkar
shaun
laser
regretted
agrees
signalled
eight-month
featherweight
r
cyber
fifty
consolidating
overpowered
lebed
marches
rested
probable
scoreboard
sticks
lured
spoken
xi'an
useful
o'connor
airing
depth
installing
element
ruptured
predators
separating
shakespeare
precautions
apparel
worlds
unstable
robberies
salvadoran
shouted
maher
slice
bulletin
headline
inspire
karim
eagerly
halliburton
conspired
jammed
belarussian
designs
ellis
fiber
handgun
khaled
depart
slot
actual
ciller
duck
mini
baptist
guys
reflects
livni
stray
undertake
protectionism
endanger
procter
revelers
garrison
pressuring
gruesome
francesco
lesbians
paramount
recipe
vandals
soeharto
wielding
obscure
defrauding
healing
lull
nathan
concorde
erased
moya
offseason
pullback
dirk
blizzard
hopkins
startling
unilaterally
probes
full-scale
borrow
marriott
accountability
flaws
judging
function
kasparov
birdied
abide
cracks
monastery
supermarkets
statehood
blazes
calf
eli
rated
defining
crusade
bennett
shenyang
troubling
rapper
ortega
adriatic
enforced
battalion
philharmonic
maverick
clerides
equestrian
obstruction
cloned
ordinaries
traian
captives
ecuadorean
hacked
hijack
congestion
mussa
anti-israeli
joins
resounding
hint
montgomerie
persuading
jokes
midtown
tadic
cuomo
expire
piano
convoys
ryutaro
florence
bug
sells
genuine
equally
##km
hubble
rap
sad
upheaval
chemistry
###-year
supervisors
hartford
venerable
barricades
suriname
walesa
tables
invented
tissue
overhauling
retaliatory
practicing
guitar
blagojevich
arab-israeli
jessica
celsius
waning
dr
daimler
explaining
discourage
discontent
answered
fulfilling
flush
theodore
mallorca
frigid
mason
col.
titan
self-proclaimed
ibn
glen
rioters
oxygen
##-yard
ghost
patents
asx###
zimbabweans
lacking
mauritanian
offences
promptly
sword
festive
dangerously
unwanted
boots
vera
daylight
kuerten
princeton
summers
tzipi
float
gutted
cleaner
tansu
grieving
portal
typically
beside
advisors
drifting
bogus
dodge
guru
quarter-century
contrast
skate
left-hander
minister-designate
mobs
deepest
basescu
peer
miliband
feyenoord
yuri
plastics
pandas
deck
mechanics
municipalities
contend
byron
ga.
aftershocks
anglo-dutch
excerpts
haze
newcomers
accommodate
builders
agence
footing
liga
borneo
qwest
veered
ideal
mahinda
applauded
ecevit
fishery
seven-time
superintendent
showers
rear
seismologists
lg
al-aqsa
bass
demirel
jammu
circular
ton
charm
bidder
bidders
joerg
timberwolves
musab
certified
litigation
scramble
highest-ranking
gomez
structures
glafcos
samper
chat
dense
lagging
pessimism
mia
criteria
altered
ocalan
verify
span
examiner
clocked
widen
flock
ideological
spilling
tales
crescent
penny
pad
microsystems
sub-saharan
petraeus
nino
ivanisevic
apiece
smithsonian
anytime
graduation
rigging
kate
davydenko
sheets
hat-trick
stand-off
detain
ingrid
misled
eid
batons
nalbandian
covert
instrument
idb
tasked
irresponsible
interesting
joan
newly-elected
overhead
resisting
kcna
sack
collectors
genes
sculpture
saad
malone
councils
alcoa
necessarily
fundraiser
escorted
mid-air
stint
slap
censure
cartels
unsuccessful
prudential
reasonable
curious
juice
fruits
raucous
captors
surely
wasted
albany
demise
commissions
wildly
vijay
wilkinson
scrapping
desmond
plowed
busch
anti-dumping
satisfy
riley
unseat
morakot
india-controlled
liberals
ivo
earnest
ceremonial
jurisdiction
ultranationalist
convict
rockefeller
countless
viewing
a&amp;m
careful
liechtenstein
maluku
cocoa
spaniards
excited
gorbachev
luciano
praying
amazing
sellers
port-au-prince
chargers
retirees
ink
umbrella
leonardo
steered
stun
anxiously
tornadoes
robbing
bernie
crazy
suzuki
tsunamis
adjust
ex-premier
kilometer
th
circulated
shin
spawned
staples
nan
loves
stan
appointing
blackberry
supermodel
magnus
tarnished
lax
archeologists
heineken
haotian
x
yulia
tag
casablanca
installment
skilled
suleyman
mouse
muddy
year-long
vendors
lucent
decreasing
hillside
yves
globally
confession
carey
cage
makeup
relocate
victorious
na
specifically
ingredients
heed
denial
poisonous
nude
khalid
peterson
perished
freetown
regulating
mueller
finalist
unresolved
skeleton
addicts
relying
qin
aig
government-backed
germain
acknowledge
rolls-royce
accountable
layer
covers
richards
yokohama
kunming
hampering
commentator
frightened
embarrassment
defect
slept
brewery
instructions
exceptional
inclusion
hamas-led
essentially
leisure
seven-month
fanfare
endless
uphill
hawk
star-studded
sorrow
terrified
dash
greene
supersonics
vuitton
needing
entity
slamming
regaining
rocketed
slugger
productive
ringing
beefed
televisions
outback
roadblocks
first-leg
indeed
aspirations
alternatives
allocate
coral
isolate
brent
congressmen
####\/##
commonly
eastman
xavier
brazilians
eldest
surpassing
hardcourt
striving
infantry
undercut
pessimistic
grande
tirana
dived
majors
renounce
stunt
iberia
accurate
lire
missionaries
dini
billboard
coffin
brave
forty
baath
chunk
brushing
rove
panicked
literally
zhao
fabio
franjo
seahawks
transforming
receipts
telegraph
motorcycles
ravalomanana
attractions
stepped-up
europa
downs
dampen
woody
jpmorgan
greeks
henri
micro
subjected
populations
latino
statues
midwestern
correspondents
nintendo
textiles
sanders
wanderers
scourge
jacksonville
inappropriate
exchanging
nielsen
julie
minimize
climber
adventurer
ing
dining
savage
packaging
mentioned
follows
rey
rbi
telephones
fuelled
coffers
rewarded
waterfront
buddha
commemoration
considerably
novartis
cancellations
meles
loyalist
switching
privatize
deteriorated
founders
scaling
depends
petrobras
fifth-seeded
poetry
sears
resumes
influenced
destroyer
swore
encountered
decision-making
willy
tudjman
massacred
fisherman
homecoming
stearns
whaling
ratio
wished
emotions
vinci
ate
gunfight
admissions
habit
criticize
elegant
pap
djindjic
e-commerce
publicized
bashir
squeezed
petr
californians
themes
streamed
hoax
gunpoint
allay
elias
high-powered
shannon
eradication
recounts
picasso
inhabitants
medieval
prohibit
eastward
giovanni
lamberto
ozone
harassed
spun
diva
denktash
pains
laid-off
re-signed
poster
outing
teamsters
bouteflika
paribas
unlawful
disabilities
escaping
shifts
swede
app
notched
togolese
chairs
soured
residency
cashed
ion
frustrating
muslim-majority
countryman
juarez
connect
cutbacks
joaquin
brakes
kilos
pour
scenario
playmaker
accra
stockpile
erected
titanic
assisting
outposts
lumber
filmmakers
seller
campuses
feast
assignment
darling
mombasa
gregory
forgery
amounting
wise
incentive
kidnappings
preacher
gaza-bound
computing
corsica
oversaw
leo
malls
leukemia
grizzlies
corresponding
canucks
kiss
floors
planners
skull
blasting
assuring
mostar
short-course
sidney
katie
shirts
urumqi
fund-raiser
vows
confused
grisly
frontline
billing
conditional
pm
g
izetbegovic
exempt
jericho
cali
soong
kidnap
ronaldinho
tibetans
alliances
reunite
surgical
fertility
dent
sped
nz
authorization
niyazov
churchill
ji
henin-hardenne
vigilant
landmines
havens
glaxosmithkline
mound
subcommittee
intensity
ruin
invade
vanuatu
bite
thriving
anyway
paused
berkeley
stalling
stumbling
dignity
guiding
exact
jackpot
zenawi
coasts
o
discs
header
phrase
pyramid
michele
benitez
psychiatrist
coliseum
spiral
hamas-run
counters
muted
trafficker
wa
divert
functions
impressed
olivier
syed
rewards
pepsico
mustafa
mauritius
spinner
munitions
batsmen
evacuating
fathers
terminals
refuted
exams
###cc
eugene
conferred
jiri
recordings
outweighed
auctions
shrugging
gems
goalless
dynamo
herbert
shortened
ferocious
stored
off-duty
hicks
pitting
toilet
selecting
creditor
rodney
surprises
splitting
chung
eelam
productions
pro-
feat
rebuked
firefighter
alija
aggravated
rios
meaningful
kingpin
###-member
spray
sparks
high-risk
hamburger
herman
lent
hugh
mt.
raffarin
explicit
coin
ltte
everyday
distinguished
amanda
societies
blackmail
cardiff
peace-keeping
item
finest
n
execute
indices
hamper
printed
please
fretted
mariano
mirage
northrop
minneapolis
counseling
licensed
distress
blows
realistic
sicilian
mirror
definitive
insistence
calcutta
misuse
preservation
shallow
grabbing
edison
mode
spectrum
wam
foil
speculators
bickering
massed
waugh
hussain
devaluation
loss-making
nader
compelling
carroll
blackouts
banda
inquest
systematic
##-week
stubborn
provoke
peasants
resignations
builder
oilfield
anti-taliban
asbestos
ailment
greetings
fedex
dupont
logo
antigua
candles
readied
bleeding
paceman
busan
supervisor
vioxx
alinghi
first-degree
stall
rudolf
five-nation
teddy
perspective
flyweight
foray
richmond
two-year-old
conceding
disguised
pre-election
liters
clint
labeling
deserves
honest
vacuum
combining
joao
defective
holyfield
bhutan
gutierrez
reef
unsolicited
cpi
intern
centerpiece
oversees
litvinenko
thaw
tail
battering
adverse
impression
ranariddh
hawkish
orchestrated
crawford
foundations
charismatic
violently
tri-series
cancun
preview
animation
sirens
all-around
physicist
tian
taoyuan
repatriate
mercenaries
hermann
sullivan
evander
deserved
miserable
dwight
browns
gil
se
doomsday
grumman
##th-minute
softball
greet
eyeing
diyala
borrowers
regular-season
rulings
eroded
younis
poorer
multibillion
teaming
egg
inability
hispanics
updated
jens
reacting
sealing
boot
les
highlands
borrowed
subpoena
definitely
guinness
nicosia
warrior
capitalize
exclude
brandon
firebrand
joey
retrieved
passionate
seismological
dementieva
whirlwind
enrique
logistical
##-round
graphics
discounts
bessonette
grappling
cry
yanukovych
#,###,###
organising
grupo
swissair
wheelchair
resettlement
monkeys
underdog
tendon
marty
solely
swirling
reunify
zaragoza
heinz
wolves
hayden
unlimited
jam
ruben
knives
habits
contraction
telefonica
t-shirts
awaits
beheading
kyle
postponing
fielding
centered
##-mile
coached
eclipse
all-round
lodge
shoulders
citroen
sergey
noble
statesman
whipped
pitt
portfolios
unsettled
tapping
chilling
doubtful
much-anticipated
chanted
storming
boycotting
bo
spinning
jana
gunners
toulouse
chee-hwa
graphic
klinsmann
stalking
federally
pronounced
enthusiastic
heaven
sosa
throws
wrestler
mulled
jubilant
hospitalised
absentia
tolerate
glacier
adultery
myers
orphans
composed
danced
texans
eurotunnel
beds
#.#-percent
liner
aborted
gambia
anti-nuclear
allianz
nationality
glitch
repaired
kuznetsova
ruihuan
summary
bihar
benefiting
betancourt
##.#-percent
forex
cornerstone
three-year-old
government-run
nighttime
terrain
statute
seafood
greenwich
brace
abul
undersecretary
ashley
commentary
spewing
playstation
aspiring
reinforcing
salvation
##-million-dollar
davies
poppy
amusement
overturning
ravens
saint-germain
choking
paradise
superjumbo
angelina
counter-terrorism
#.#-billion-dollar
vintage
morale
persuaded
next-generation
anton
electing
genoa
zheng
rocket-propelled
withheld
cocktail
allegiance
console
ups
buddy
'n'
grandfather
parish
exemption
condolence
year-ago
conciliatory
pristina
danube
pepper
tyler
methane
yar
soap
altogether
watches
hideouts
workout
assassin
deer
centuries-old
oas
ctk
slogan
sidewalk
rutgers
sequel
bumper
owens
hopman
arantxa
paramilitaries
jonny
cultivation
breaststroke
world-class
thrashing
manipulation
busted
sizable
valid
follow-up
portable
staffers
advising
spends
nichols
erratic
torres
wondered
dashing
naples
provocation
cowboy
bunch
washing
periods
fdi
whitney
coli
concludes
mgm
hearst
inked
relaunch
fractious
promotional
crocodile
tributes
gennady
gallon
gypsies
refueling
iss
tutsi
tymoshenko
jungles
maneuver
piraeus
resting
klm
disability
libraries
stephane
bombardier
peacekeeper
shining
home-made
ernest
relegated
najib
westerners
spiked
underlining
crane
umpire
most-wanted
malik
parcells
applause
reshuffled
climax
guo
marwan
nutrition
scout
possibilities
ambition
warns
beers
ss
den
whenever
notable
scolari
loeb
stoking
play-off
headway
inquiries
dams
exploding
pond
court-martial
appliances
vi
boundaries
bubble
reap
backyard
defunct
assailed
defusing
classmates
bahadur
specially
twickenham
biblical
inconclusive
prefer
expenditure
catering
beit
enrich
davos
successes
breathe
profession
hart
italia
razed
consultants
lorenzo
burying
propel
erase
definition
jankovic
santana
corners
ase
videotaped
ultra-orthodox
eva
subsequent
steadied
wachovia
concealed
npa
hiking
arraigned
onetime
alexandre
mobilize
massimo
royalties
sake
deaf
trusted
bakili
fixture
transported
leasing
nineteen
spouses
consuming
recovers
lonely
soften
geophysics
xiang
messi
muluzi
revitalize
rovers
platinum
explode
roaring
thunder
viral
banquet
enraged
barge
triathlon
abbott
columbine
icahn
churned
tombs
supervise
foreclosures
fatality
fumes
offsetting
larsson
aliens
berger
nine-day
kostelic
ole
bellsouth
adrift
nonstop
assuming
evacuations
brass
grows
crept
hiatus
scared
bride
airlift
marcel
contagious
fitch
outburst
lahoud
preserving
undated
exclusion
roofs
replay
explained
buck
consular
clive
delphi
tucked
tend
bang
worthy
paralysed
shrimp
pornographic
landmarks
obstructing
lens
alberta
wim
upturn
occasional
practiced
audi
waved
sadness
thumb
pavilion
undecided
ears
jolie
disciplined
underage
mobilized
traditions
travis
improbable
roadblock
repurchase
irina
unruly
arusha
rescheduled
assertion
diminished
adjustment
identities
beliefs
manpower
lott
shunned
swelling
clouded
blanc
pillar
lecture
seven-day
directions
certification
low-key
torre
ai
liable
elton
dazzling
cake
leonean
alcatel
penultimate
unpredictable
excuse
segment
ping
confinement
gheit
longest-serving
troupe
gritty
darryl
ortiz
subversion
bertelsmann
certificate
tempered
gatherings
patty
conferences
dominik
quarantined
mastercard
trustees
sweltering
c$
sorry
appliance
srinagar
razak
surf
lowly
superb
bologna
disbanded
two-hour
premises
rushdie
indictments
bombarded
###km
ventura
tee
chaired
erosion
invading
designate
pale
samaranch
beset
part-time
harrington
layoff
coupled
purge
coleman
outage
hints
directive
fold
lamented
toughen
landfall
breezed
optical
contingency
legends
disneyland
flyhalf
record-high
poaching
impassioned
murderous
sheltering
advise
chairmanship
salmonella
windy
tearful
staple
bakiyev
romanians
scholarship
episodes
tallahassee
rescuing
drug-related
reluctance
harbin
jaime
councillor
blazing
tactic
round-the-world
asthma
first-division
kursk
high-end
communist-era
punched
oleg
thief
forecasting
freeman
celebrates
ram
detection
andrews
nacional
unconscious
picturesque
strangled
mortality
spielberg
cadbury
architects
reconcile
horns
nine-year
persson
convicts
troopers
historically
two-way
kwacha
hydropower
staten
adua
tie-up
cac
pro-russian
minister-elect
leapt
interbank
lets
blockaded
scooter
kozyrev
practically
assurance
jaya
snooker
entourage
automatically
consumed
chill
forbidden
asia-europe
saeb
outages
ochoa
slate
middle-class
totalling
touting
hooligans
high-rise
rifkind
bomb-making
answering
slaves
objected
cameraman
roses
hitter
kurmanbek
vista
pants
parkinson
whip
rodrigo
finalizing
sour
flanker
neglect
tyco
windfall
exclusively
wonderful
muralitharan
fitting
jeans
comptroller
carson
carved
dana
open-air
rupee
safeguards
shakeup
humble
veil
build-up
corey
inflows
treaties
coincide
insults
wines
jurgen
askar
withhold
mo
commended
xerox
describes
domain
inform
reader
cultures
quantities
boc
hinting
contacted
swamped
flies
kills
lilly
shoaib
portions
constituencies
umpires
waterway
famously
fossett
suitcase
mccarthy
basf
conversion
branding
salam
fences
quantity
nottingham
greeting
intentionally
guaranteeing
muttiah
knees
heats
remarkably
sara
ingredient
disclosing
swelled
decried
leaning
filmed
soy
smell
haile
broad-based
educators
mullah
warheads
produces
genius
nortel
iyad
prevailing
luge
insecurity
masses
four-year-old
government-owned
start-up
decades-long
mid-term
daly
buoyant
winnie
fencing
j-league
moderates
merit
historians
cover-up
kidd
shan
stoke
medications
armando
budgetary
multi-billion-dollar
booth
void
anti-narcotics
pal
regatta
sikh
cab
spoiled
bowled
slovakian
emergence
gerrard
cannons
succeeding
chipmaker
braved
psa
punching
remanded
auditor
anybody
chinext
chinese-made
bouncing
precaution
burger
altitude
shorter
cna
crammed
computerized
chittagong
communal
synagogues
hamlet
saparmurat
beneficial
echoed
withholding
emission
looms
however
bachelet
lennon
pipes
chevrolet
salvaged
rewrite
shame
hutchison
starving
pelted
yan
liangyu
us-backed
brutally
hastily
lower-than-expected
kwazulu-natal
magnetic
bureaucracy
petty
fenway
anti-smoking
preserved
congratulatory
jinping
soekarnoputri
umaru
crisis-hit
dependent
utmost
evacuees
revising
alerted
viagra
nagano
scouts
dragons
tsunami-hit
slope
supremacist
raytheon
fatigue
edouard
murky
shaped
france-klm
infecting
camilla
brake
lars
drain
monuments
informant
attaches
henderson
hubert
jeddah
self-defense
concede
villaraigosa
instructor
scuffled
hajj
woke
mcdonnell
mikheil
rows
temples
four-hour
retreating
dispel
frenzied
palmeiras
gnassingbe
pesticide
epo
venezuelans
lashing
olga
long-stalled
cholesterol
privileges
philosophy
goma
jailing
prolong
infiltrated
proxy
demilitarized
requesting
ernst
hook
angop
assemble
hoya
naturalization
sitcom
pastrana
hank
prostitute
protester
bavaria
fortis
debacle
life-threatening
iphone
autocratic
snubbed
pitches
shwe
waziristan
#rd
hawaiian
betty
identical
jetliners
advantages
pa.
v
twisted
lorry
tops
undertaken
ominous
fleming
wizard
uttar
tenet
sway
ruiz
y#k
rbis
bucs
react
mid-####
bangalore
saturn
ecuadoran
foley
kurd
hilltop
philippoussis
hardliners
recipient
nistelrooy
sounding
measles
zayed
treasuries
akayev
rivera
heralded
substantive
harming
overdose
wracked
leaflets
largest-ever
paterson
asylum-seekers
salute
complicity
happening
papadopoulos
edwin
commemorative
adequately
spectacle
buick
plaintiffs
treacherous
pared
snag
cruelty
importers
searing
conservationists
merging
kindergarten
magistrates
royalty
accompanying
cska
disturbed
nova
haifa
constructed
claus
merged
deregulation
patterns
involves
deliberating
chu
rss
box-office
painkiller
ha
qiao
sgt.
expelling
orderly
hostage-taking
sino-us
inflated
overheating
purple
maier
jaguar
jake
rusedski
cao
bakar
onboard
grateful
rangoon
patten
rubles
glamorous
ciudad
son-in-law
syracuse
pro-taliban
kathleen
high-technology
licence
repeating
tamils
exploiting
adjacent
morrison
oriental
pets
montoya
privilege
emmanuel
arranging
clerk
discoveries
believing
xiaobo
old-fashioned
flu-like
pub
commemorated
flattened
lauren
blanketed
shuttered
irregular
racket
law-enforcement
fracture
bongo
underworld
tutu
idle
zoellick
epa
##-kilogram
juror
hau
ballpark
biting
mottaki
markedly
script
ngos
zulu
neglected
polluting
###-mile
euthanasia
wishing
kyodo
fahrenheit
bjorn
valery
cas
ku
#-year
all-china
phuket
sanaa
despair
prone
menu
somehow
hazards
motorcade
remembrance
religions
federations
screened
fluctuated
outlet
gonzalo
nuns
ferrer
kazakstan
marshal
gramm
oao
receives
veiled
policing
starred
courier
roadmap
price-fixing
bengals
padilla
stranding
blix
stone-throwing
sco
lamar
pine
anymore
somalis
friction
soothe
antibiotics
oaxaca
andhra
salinas
rightwing
referring
cis
servant
three-nation
concussion
armor
vaughan
unexploded
donating
salem
perfectly
ronnie
boulevard
laps
piazza
kemp
ill-fated
glittering
harmed
recycling
portraying
spokesmen
sanction
limelight
civilization
fletcher
supplement
stealth
cans
exists
multimillion
priced
huckabee
unilever
bae
mahdi
eden
luca
ballack
applicants
cepd
hossein
tijuana
presley
bernama
smallpox
rides
clerical
interrogated
fivb
bhd.
prohibiting
exert
comfortably
confederate
baylor
abramoff
methamphetamine
unfolding
homegrown
oceans
diane
threshold
entertaining
vigilance
anglo
beans
guerrero
alfonso
recreation
safina
lopsided
uninsured
marble
gigantic
catalonia
mom
vastly
procedural
embracing
markus
sumitomo
bujumbura
eviction
stopover
cue
cricketer
waived
fastest-growing
knesset
world-famous
waco
enlisted
strategist
attendant
forefront
nagorno-karabakh
sol
supersonic
refer
berths
appointments
cleansing
lineman
prosecuting
g-##
renminbi
dpr
npt
forwards
contesting
combatting
rat
overlooked
logan
clashing
tassos
recorder
leaderboard
stoning
saeed
giorgio
songwriter
eurostar
nervously
lira
cardiac
footballers
skater
terrorized
circulating
entertainer
second-place
wheels
theories
harriet
disagreed
smash
secretaries
scoured
constituency
vibrant
nabil
eyewitnesses
larger-than-expected
industrie
###-kilometer
shyi-kun
sweat
diversify
malnutrition
ferenc
apec
performer
synchronized
quran
jolt
vanguard
irian
rejects
inaugurate
courtesy
rainbow
nash
sunset
shower
gaz
sands
racer
backstroke
anti-crime
mittal
confrontations
naacp
distressed
afloat
h
belongs
restarting
savimbi
mormon
hiked
talents
motorist
withdrawals
hid
aslan
starters
cds
barricaded
cigar
sorts
proceeding
dear
cbc
deval
short-lived
smog
gaps
expands
unharmed
shalom
ordinance
plates
slums
infiltration
countering
urine
spinal
expatriates
primera
grenada
joachim
charette
watergate
rubens
moss
subways
mccann
loosen
subpoenaed
arch-rival
amidst
aluminium
lynn
ge
continuation
reshape
montenegrin
ventured
three-hour
maple
gloves
disorders
auburn
u.n.-backed
manouchehr
chiapas
swarmed
chalked
comcast
thais
shelved
personalities
tribunals
bildt
rafter
colonies
mich.
contador
softening
inundated
employ
prelude
karel
dario
aek
discredit
strides
gym
liang
spelling
aliyev
benigno
indebted
outdated
greenland
barney
pedestrian
heightening
edinburgh
chuan
parliaments
glasses
cnooc
scorching
viruses
hasan
parades
safeguarding
skyscraper
milton
menace
repairing
absentee
fia
pleasure
moses
emotion
cla
jams
branson
odyssey
softer
constituent
rumbled
liberalize
secession
orchestrating
loser
jordanians
beijing-based
kung
asks
bancorp
front-running
b.j.
rethink
championed
hamas-ruled
hurling
centre-left
heist
conscience
promoters
guinean
france-presse
responses
year-earlier
administered
dish
binyamin
shun
dinara
alice
payrolls
accessible
karamanlis
mvp
paedophile
rocking
mofaz
mandelson
wolfsburg
nikolai
affects
plaguing
achilles
hinder
mar
casual
wrongful
incurred
tremendous
one-week
jade
nowitzki
idf
clement
methodist
yorker
transplants
centres
platforms
criticising
classics
biggest-ever
origins
seismic
bellwether
adhere
abb
sham
rhodes
prasad
pummeled
daniels
reins
complicate
frances
oak
festivals
devote
someday
advertisers
divorced
sends
alfredo
slowest
ripping
sufferers
hanson
tariq
snowy
three-stroke
unionists
toni
supposedly
evade
petroleos
blocs
left-leaning
clinging
enrollment
hsinchu
piling
deprived
abolished
wetlands
preval
klein
roller
booking
lyonnais
inc
daimler-benz
toe
kaka
paris-based
frederic
ilo
planner
johns
vieques
k
mosley
incredible
shotgun
soybeans
donna
vonn
favoring
roiled
objectives
masterpiece
conchita
satisfactory
loses
imposition
mentor
weakest
adriano
protein
eni
enabled
sizzling
lowe
creatures
standby
hacking
war-divided
salomon
cod
parity
raikkonen
steinmeier
corrections
beth
normalize
sperm
commissioners
telstra
mathieu
helms
zhuhai
meyer
wendy
pharmacy
cosmonauts
mcgwire
maj.
baseless
smear
##-billion-dollar
conclusions
quash
major-league
quashed
medina
diaz
warmer
seminary
jacket
burton
announcements
defiantly
carmakers
harassing
repayment
kai-shek
ex
barings
aidid
adidas
humiliation
unsealed
inherited
enjoys
paddy
accomplice
unscheduled
grams
swedes
foremost
balloons
negligent
herd
brendan
french-speaking
openness
by-elections
assailant
spearhead
retrieve
anti-globalization
interpreter
searchers
discharge
atoll
precision
strauss
minivan
perception
anchored
characterized
artery
carnegie
dissolution
shaul
lloyds
war-battered
injecting
skyrocketing
karimov
electorate
exchequer
elliott
suicides
vouchers
boasted
codes
summits
porn
league-leading
drums
prediction
chiayi
accustomed
money-losing
hugely
restraining
cindy
mrs.
mick
mazda
ensured
georgetown
sven
sochi
academia
last-place
advancement
sodomy
acropolis
depths
ashton
thinner
translator
swooped
michelin
notoriously
paraded
ivorian
dilemma
grasp
argentinian
distributors
gusmao
terminally
alleges
hydrogen
corpse
unnamed
potato
consul
positioned
jin
belts
educate
molested
transnational
anti-syrian
mls
wool
mask
derrick
kickoff
metrostars
taipei-based
weaponry
swan
notch
shepherd
monkey
reprimanded
auxerre
tremors
sv
three-match
allrounder
congratulate
overloaded
nadia
natalie
paved
motel
centimeters
kimi
malaysians
rioted
cereal
downfall
cane
wiping
colored
romario
omani
assassinations
keegan
occasionally
soyuz
foothold
clause
attitudes
shadows
intersection
centenary
suite
louisville
absorbed
ngo
tongue
farther
luigi
suspense
nasrallah
graffiti
springboks
herbal
richie
sung
combative
genome
necessity
quito
miroslav
surface-to-air
all-rounder
nigel
depending
elevator
horst
headaches
yachting
airfield
consciousness
gentle
booster
functioning
sotomayor
thereafter
n.h.
daytime
crying
purportedly
axel
dissatisfaction
lang
basically
kse
echo
crewmen
relocation
lemieux
#g
shaukat
scan
cafes
big-ticket
tangled
bystanders
long-haul
gibbs
blames
chapel
ok
#m
thoroughbred
beslan
kerkorian
accounted
b.c.
thessaloniki
asashoryu
militancy
rifts
densely
strawberry
##-day-old
crater
sever
warplane
congregation
stabilized
persisted
nascent
maintains
stretches
santo
narrowing
klitschko
porter
hampton
forceful
mistrial
pbs
westchester
u-##
melamine
unwilling
lotus
icbc
phillip
first-class
rebuilt
skirmish
domenech
portray
anheuser-busch
liked
melting
steinbrenner
genre
positioning
assert
frigate
alcoholic
alpha
nickname
six-year-old
fist
newport
absorb
bunker
anastasia
harrowing
ganguly
rainer
trainers
democracies
rented
leslie
reflection
exhibitions
ushered
soliciting
mnd
violence-wracked
nears
reinsurance
counterfeiting
swinging
nod
hazard
sparkling
rosa
gangster
unep
bribing
repressive
rachel
mas
focuses
ineffective
speaks
gillard
u.s.-mexico
vnd
mistreatment
blank
sponsoring
vulnerability
walsh
nantes
foreign-funded
entities
ba
suitable
indycar
intermediate
shoot-out
tractor
cheated
pesticides
vick
relation
unleash
oceania
daylong
generators
ljubicic
inch
raceway
triple-a
impetus
dinars
precautionary
fulfilled
warmly
redeployment
monsanto
user
precise
ramadi
patriotism
daschle
wie
mauled
co-host
chun
aquatic
dylan
caring
maskhadov
wong
sharpest
interrogations
plc.
hype
anand
marin
entrenched
makeover
test-fired
five-year-old
fluctuation
predecessors
denies
gogh
inspecting
stellar
kasyanov
irwin
stade
protestants
revelation
vasco
respite
immunization
administrations
newman
tseng-chang
shrines
upwards
precedent
breed
###-foot
stripes
malibu
unease
wildcat
communion
gretzky
glove
post-soviet
comprising
suleiman
debuted
wyoming
goodyear
indict
monterrey
farooq
naomi
refined
discord
imaging
flour
riverside
luo
straining
l.a.
indecent
damien
convening
controller
ramp
gravely
diversified
arthritis
fitzgerald
upsets
relinquish
doubted
vernon
el-sheikh
discounted
bats
rite
submerged
lava
reproductive
liquidation
analyze
bearish
myspace
bazaar
outrageous
dispersed
crete
robson
shaw
breaches
akhtar
raiding
amadou
eac
kaunda
epicenter
dreamed
accountant
paralympics
colombians
tablets
paralyzing
gospel
criticisms
processor
overran
exhumed
yusuf
icons
nabbed
anti-tank
blankets
mehdi
prematurely
marsh
nagoya
reassuring
regimes
rehearsal
reclaimed
contestants
tb
working-class
nassau
harboring
sixth-seeded
klux
descendants
stranger
preakness
severance
yomiuri
tikrit
twenty-one
bradford
reiterating
outsiders
ria
bath
reprisals
flipped
evicted
spice
state-of-the-art
stays
corning
seals
proclaiming
hauled
importation
portrayal
proves
bookstore
conjoined
profiling
mcclellan
#nd
comex
upholding
laptop
lifelong
oil-producing
surveyed
hiv-positive
sla
grains
clarence
lobbied
incidence
military-backed
lamy
basel
advocating
choi
curt
o.
favre
triangle
turtles
daniela
arcelor
#-pointer
boulder
t-shirt
psychologist
emphasizing
downbeat
vocational
endowment
five-game
trojans
portraits
poverty-stricken
self-imposed
griffin
luc
torpedo
months-long
fe
remark
massa
intimate
ignacio
deserve
pepsi
deepwater
cries
ferreira
judith
fluminense
lohan
prairie
tripartite
bhumibol
adulyadej
judged
cruising
adaptation
gareth
gangsters
abducting
sociedad
afl-cio
executing
knowingly
awami
inflow
affluent
erbakan
frightening
beacon
availability
power-play
durham
readings
retake
polygamist
lp
medalists
barreled
incursions
seychelles
multi
dividends
ample
wept
trunk
hikers
unravel
half-year
motogp
middle-aged
pedophile
ntv
beneficiaries
promotions
ullrich
hector
succumbed
mudslide
tina
lukas
rainstorms
eroding
sophomore
brains
stifle
rats
entries
macy
assistants
collegiate
jamal
schneider
unfit
berisha
expatriate
westwood
gaston
two-shot
third-place
lng
vargas
accumulated
legion
fried
smiles
over-the-counter
complicating
mattel
ivanovic
paz
mamadou
eyed
commerzbank
brother-in-law
listened
honeymoon
upside
surrendering
picket
alternate
fairness
understood
mysteries
farah
famer
fusion
bristol-myers
delight
cec
prevailed
immense
co-defendants
emblem
forgive
comet
rusty
prominence
sundance
hualien
good-will
multiyear
shocks
werner
terminated
cop
squabbling
disk
moribund
antoine
extort
chechens
kmart
sali
high-flying
nearest
inducted
five-match
mailed
scholarships
funerals
salzburg
annulled
glance
relied
disappear
abdoulaye
ruthless
glamour
guadalajara
upsetting
preparedness
thoroughly
##-story
archer
providence
qomolangma
gianfranco
erasing
cherished
distinctive
dried
moe
sapa
stamford
recorders
belongings
mesa
shooter
vitamin
sleepy
gaulle
rousing
wonders
allocation
somebody
fuad
choked
roar
clip
orientation
swearing-in
dispatching
####.#
lm
tna
corzine
adm.
ravaging
spiralling
rumor
rajapakse
radically
self-styled
abdallah
.###
reservists
seizures
improvised
outplayed
irving
lille
levi
fabled
photography
#-for-#
bono
urges
tucson
blogger
underwear
adapt
lengths
hindering
al-thani
cups
johnnie
multiparty
basilica
frontrunner
grilled
mai
dimmed
two-goal
tashkent
ancestors
balancing
shrouded
vacated
necmettin
hacker
powerhouses
routing
observing
rehabilitate
photographers
headache
hotline
unsure
spurring
consulted
take-off
courtney
motorway
vientiane
rightist
trauma
clearer
dishes
spanning
advocated
haunted
cantona
cementing
schedules
sustaining
restitution
malpractice
espanyol
forcefully
preaching
ignite
penghu
contemplating
hathaway
swings
intelligent
saud
leaf
osman
month-old
-lcb-
a-league
filings
ramsey
refiner
generator
virulent
olympiad
description
avalanches
undertaking
ideology
vaughn
western-backed
poker
bros.
miers
startup
fundamentals
assessed
rwandans
involuntary
exaggerated
christophe
uneven
ahtisaari
qorei
schoolgirls
bissau
shen
duc
surfing
handicap
giuseppe
withstand
supremo
devised
rained
tossing
reyes
surpass
biography
eavesdropping
half-dozen
postelection
raza
soros
echoing
amassed
hijacker
diary
midfield
ranil
rahul
katsav
lockout
trophies
alicia
imagined
jeopardizing
infielder
r&amp;b
pasadena
firestone
hospice
lacrosse
vn
mehmet
isna
fetched
injections
pushes
ramos-horta
sigh
exploratory
krajina
renamed
sedition
mordechai
twenty-five
specializing
gao
burglary
sums
marrow
hannover
deflation
jermaine
midweek
initiate
stalin
riches
messier
guam
gam
schiavo
tiebreaking
verdicts
unleashing
albums
j.p.
burke
beverages
sampdoria
squibb
lorena
garments
revamping
ponzi
rmb
beta
normalization
qi
bantamweight
instantly
grassroots
convertible
discriminatory
value-added
lapses
insult
decent
emotionally
antique
timed
airlifted
laugh
remind
aftershock
u
hardship
chivas
brooke
philosopher
shaft
anti-secession
hobbled
qurei
anti-us
gunning
fancy
higher-than-expected
democratically
invoked
nicklaus
ought
keeper
martti
accomplices
moguls
stagnant
vandalism
newton
nuremberg
recreational
closes
petitions
subindex
updf
phony
fuelling
manipulating
awkward
footwear
disengagement
husbands
three-quarters
freak
gale
appreciate
fis
magnificent
airbase
destiny
stride
novosti
spied
guido
bernardo
fruitful
selig
lawlessness
segolene
alien
bobsled
drogba
architectural
writings
#-day
archery
deferred
insight
commander-in-chief
bremer
enlarged
war-era
drawings
lucia
iliescu
maharashtra
astonishing
conspirator
obscene
supplements
verification
crosby
pits
asem
reveals
defrauded
marshals
yong
retailing
contradicting
infusion
high-security
unify
anticipating
bernhard
xanana
anti-personnel
fringe
#.#-#
triumphed
hovering
protectionist
medellin
clooney
conserve
traveler
oh
jaroslaw
landis
larijani
diallo
emil
quan
chun-hsiung
jacobs
yousuf
spanish-language
stabilise
betis
ringleader
disarmed
murderers
unaware
halved
kilogram
sbc
vacations
two-game
nagging
sk
nbs
arthroscopic
spewed
idriss
rodman
eds
suppression
minimal
eligibility
manages
letterman
terri
reorganize
outlasted
download
hsu
usain
diarrhea
insee
ecomog
injury-time
tareq
pulp
beard
non-stop
b-share
siblings
lighter
housed
skipped
bristol
saigon
saudis
dubious
rigorous
frankie
converting
vacancy
subpoenas
erekat
ultra-nationalist
tusk
biologists
safe-haven
pan-european
venables
fraction
hooker
employing
ottoman
obligation
smuggler
dai
constantly
alexandra
kia
browser
examinations
outsider
euphoria
disband
recipes
pitted
strategists
moratinos
believers
geopolitical
marilyn
tendered
scuffle
m#
projection
youthful
bratislava
categorically
finishes
temper
stimulant
recession-hit
gypsy
interest-rate
understands
eto'o
seventh-seeded
pier
cdc
notebook
tsai
alamos
shea
expiry
unionist
###-million
reluctantly
andes
environmentalist
grounding
unfinished
unsolved
sourav
gratitude
supervised
schuster
piles
predicts
mantle
traced
intriguing
low-lying
axe
thronged
reefs
accessories
shearer
british-based
wickremesinghe
bounty
overtake
engulfing
jupiter
mountainside
boxers
warehouses
paris-nice
hmong
lush
four-week
compromised
kwan
unrelated
kournikova
world-renowned
byrd
terrell
belize
langer
maori
taha
processed
backward
mcgrath
impeach
restrictive
citibank
lai
forgiveness
griffey
outpouring
schwab
nest
newsweek
barren
detonate
consistently
mof
deby
likened
restarted
ancestral
rattling
accepts
footsteps
equip
ould
rabbis
wallaby
hoisted
thrilled
#,###-mile
#,###-strong
apologize
hebrew
clocking
pearson
breakthroughs
lyrics
visibility
dental
frank-walter
robber
firestorm
unfounded
fuel-efficient
olympique
reaffirming
war-crimes
clad
backlog
mesut
extravaganza
synthetic
dreaded
silvan
pro-palestinian
mixture
proton
suffers
jeter
restrain
migratory
ayman
freddy
taiwan-based
lausanne
foreman
small-town
alistair
defectors
cervical
johannes
dvds
guilders
existed
bureaucratic
masse
speeds
consultancy
janica
bangladeshis
emi
risking
caterpillar
wolfensohn
barrichello
contraband
pumps
jimenez
automated
bluntly
besides
jenny
barbaric
annexed
lucio
wreaked
boyd
extract
isaac
contends
melinda
encounters
jewel
upstart
rationing
raked
walid
staked
wrest
statoil
unheralded
sans
arrears
###-day
repercussions
gillette
proportion
luring
conte
manifesto
whipping
ukrainians
cripple
hydro
meteorologists
internally
sopranos
nonproliferation
interrogators
fragments
crosstown
deterrent
herat
cone
ransacked
shine
liftoff
emphatic
coping
minus
arguably
cooled
anja
sixty
replica
persist
execution-style
monumental
ovation
gestures
swirled
scarce
cayman
heisman
mo.
anp
garner
strangling
probed
wrath
sin
intolerance
spratly
distanced
depicted
fredrik
american-led
commuted
fiercest
feminist
saba
coke
tabled
getty
christina
discarded
hasty
arnaud
hurry
pre-emptive
grades
offender
beam
retarded
demjanjuk
educator
suffolk
assange
patacas
disco
guilt
spooked
absurd
arsonists
leekpai
sexy
dull
dad
theatrical
ivica
reunions
ballooning
excellence
frail
lobbed
unlicensed
hats
north-south
vehemently
rowdy
wash
constitutionality
intraday
springsteen
shelf
drug-trafficking
dynamite
sculptor
rhythm
beatings
closures
hideki
lanes
payton
paths
perilous
farrakhan
flocking
cosmodrome
exploited
translation
finley
dolly
euronext
dixon
overly
vaccinated
cho
well-informed
nna
angering
pep
showcasing
recurrence
playground
blue-chips
aborigines
purse
stashed
stoned
laotian
cried
evict
pinned
#st
hobart
registry
signalling
judaism
aer
auspices
salesman
spraying
sunnis
illustrated
unb
jammu-kashmir
hammering
fascist
esmat
abolition
flatly
republican-controlled
diagnosis
exxonmobil
lively
server
helpful
predawn
patterson
endesa
sculptures
marquez
glut
oaks
scarves
compassion
u.s.-sponsored
stating
staring
fars
vodka
berkshire
scooped
convey
nicknamed
hitachi
permitting
shipwreck
handlers
ipr
yilmaz
abolishing
adventures
thermal
contents
dundee
bot
pan-arab
paradorn
robinho
nationalize
tamiflu
off-season
disadvantaged
textbooks
disgrace
enriching
guides
prevail
parachute
infiltrate
waterways
opting
neo-nazis
condemns
knot
infineon
compounds
hectic
taxis
softened
baku
cremated
constructing
ahmet
katherine
suarez
gymnast
handguns
outs
recognizes
statistic
maneuvering
witch
defection
masterminded
rabbani
colliding
tricks
motorbike
rolf
fiancee
ait
bungled
jump-start
inkatha
horrors
baikonur
antwerp
competed
udinese
semester
proudly
patron
vague
quarterbacks
tsu
negroponte
bullying
curator
enthusiasts
cooler
emomali
eluded
assembling
b-##
pavarotti
shirin
eccentric
ripe
perennial
gem
heather
implants
guus
hiddink
biology
visa-free
wandering
expiration
gossip
downpors
promotes
rowling
pedestrians
grabs
anti-piracy
weber
mediating
grachev
scant
runways
frei
keating
malian
jung
renovate
cedric
motorcycling
prey
petrova
noel
israeli-occupied
butt
deadlines
radek
blowout
forsberg
cordial
tepid
terrifying
joyce
hatch
sharpton
asiad
d-n.y.
tangible
fortress
weathered
grappled
debilitating
brighter
visual
visions
diversion
generali
recurring
arenas
lingus
combed
axis
astra
sprinters
narcotic
abel
leafs
undisputed
insiders
realizing
vivid
crisp
pacts
mdc
al-qaeda-linked
encouragement
confessions
remedy
capitalism
whopping
butter
trapping
pele
heirs
fijian
orphanage
kirsten
ebadi
czechs
lukoil
asians
###st
uncomfortable
goeran
handheld
borough
scuttle
vain
withstood
curling
dodger
feng
co-workers
zairian
government-sponsored
subtle
vuelta
foxborough
socialism
###-billion-dollar
adversaries
clogged
ailments
footsie
reaped
career-best
tasmania
weizman
relocated
commentators
notices
classmate
councilman
torching
hertha
kay
weekends
one-china
soprano
implanted
hastert
pristine
courting
skipping
rooftops
priceless
fixed-line
emanuel
low-level
resistant
sportswear
technician
invalid
suppress
jew
firemen
springbok
granite
leszek
withering
snake
colossal
mixing
six-game
dim
protects
wild-card
unrestricted
localities
jie
midland
suzhou
terminate
cord
windsor
marian
second-highest
darwin
tricky
flare-up
koirala
nur
marek
franks
prescribed
acrimonious
clay-court
streaming
commemorations
pools
emily
angelo
autos
particles
chemotherapy
lanzhou
assassins
laughing
coptic
cinemas
builds
stupid
newlands
plucked
ewing
peiyan
quentin
stifling
distinction
acceleration
turtle
zvonareva
all-american
graduated
tapes
modern-day
offensives
srichaphan
healthier
vendor
decade-old
bamboo
mutually
feisty
buffeted
malaga
crafted
spanned
unaccounted
occupants
benson
balcony
airmen
ballroom
aquarium
relaxing
biennial
nyse
debt-laden
taped
kingston
galatasaray
abundant
vale
hanover
mathematics
assertions
cunningham
peanut
egyptair
accuracy
leghari
closet
foothills
capita
jin-pyng
kadima
sanctioned
koran
cushion
breathed
petrochina
oasis
kingsmead
#,###-point
self-declared
dormant
disclosures
flesh
grievances
day-long
musicals
petronas
occasions
gavin
objection
cafeteria
soderling
cba
norton
strauss-kahn
disappearing
decisively
handset
sightseeing
emma
rajasthan
spearheaded
bonnie
zealanders
con
texaco
overcrowding
tackled
koehler
garang
verhofstadt
newly-appointed
flores
referendums
eighth-seeded
darkened
papal
reais
gilani
wallets
broadening
well-being
jeopardized
corridors
axed
lungs
lusa
honolulu
ligaments
endurance
analyzing
intimidate
samarra
fraught
takeovers
rounding
russian-made
jenson
magical
skill
sled
cramped
bloated
squared
losers
cranes
inaccurate
second-degree
dugout
jones\/ap
rampaged
fictional
gilles
##-under
#-d
recapture
caf
unbeatable
tucker
anti-communist
collaborate
velayati
evident
deceased
radcliffe
clara
hygiene
bloodied
bricks
pin
grinding
namely
arats
inferno
clean-up
crimean
teetering
ranger
elysee
fluid
prodigy
carrefour
prototype
ante
mig-##
gaddafi
swallowed
concealing
albion
marcello
beckett
mutharika
clarkson
glorious
jaguars
styles
rendered
coors
sens.
rts
regulated
cambodians
boasts
burhanuddin
swam
mistress
hernan
sclerosis
mausoleum
krishna
u#
molotov
tactical
erupt
memoirs
hauling
blasphemy
surfers
fanning
palme
ningbo
islamic-rooted
rebates
delivers
overweight
skilling
taitra
two-man
defector
trendy
leftists
custom
fowler
overtures
ezer
airforce
gazette
unloaded
tatiana
overrun
hoon
bacterial
erode
salvo
steeplechase
gabonese
rabat
fabian
lid
samantha
watchdogs
####\/####
shoddy
blackstone
hangs
fuzhou
tcu
haunt
authorised
benign
catalan
illegitimate
hina
scottsdale
newfoundland
franchises
scheduling
quo
supremacy
marvin
subsidized
inroads
dynamics
schilling
olympian
embarking
fossils
preference
dokic
racked
barkley
helmet
alma
o'donnell
dipping
booths
tumors
strayed
balladur
rookies
beatrix
fur
vicario
composition
armitage
six-time
communicate
zedong
christoph
accompany
woolmer
richer
heroine
buccaneers
arid
bromwich
formulate
pollutants
foreigner
geography
nina
chandra
daley
deborah
contended
hynix
solitary
drummer
safari
nine-year-old
frontieres
just-concluded
willis
reformer
desktop
restriction
post-taliban
photographed
taka
endeavor
midair
barber
zealander
blend
century-old
whistle
kiefer
choir
pie
camped
audacious
conceal
norm
gowda
mack
everglades
mousavi
mitch
sr.
hashim
in-depth
bjorkman
motive
courageous
slander
hongkong
tong
abbey
maoists
legislatures
envelope
frattini
manipulated
glowing
riddled
grilling
madagascan
servers
#-foot
envisioned
paso
scientology
smiled
front-line
alstom
bogged
harshest
bailouts
timeline
reeves
make-or-break
spurned
parched
firings
noticias
hit-and-run
trails
algerians
faltered
cadets
kahn
handcuffed
uighur
sindh
jian
conducive
real-life
bloom
nauru
magdalena
jude
mossad
bingu
breeze
denomination
chefs
flaw
bottled
ifp
nl
appellate
streams
lambasted
machinists
stripping
preside
awoke
skins
holdout
padraig
mistreated
explorers
launchers
luxurious
looters
references
sedans
speculated
sakhalin
berry
bakery
dispose
sliced
reminiscent
evangelist
ifc
labs
dinosaurs
johnston
inventor
deve
auditorium
pro-syrian
rigs
odinga
energy-rich
creates
bluechips
dented
billboards
violence-plagued
sher
herzog
free-market
seamen
flick
kalimantan
lips
norfolk
palaces
baluchistan
stylish
coria
dorothy
extinct
single-engine
banharn
seated
simmons
sami
cocktails
scarred
eminent
hungarians
pragmatic
valerie
dreamworks
karaoke
designing
skyline
##-second
habibie
citrus
presumptive
samak
proportions
resilient
patrons
gifted
incompetence
entice
rai
trap
philipp
gambian
warmed
tito
berezovsky
improves
tampering
reformers
barnier
limitations
sinopec
constitute
seismology
vans
malfunction
vacationing
bee
freshly
afterward
five-week
dioxin
serviceman
ferries
federico
pulls
fortnight
friendlies
decidedly
divine
tyre
bhutanese
sheer
legalized
snowboard
occupy
swallows
heiress
costumes
scratch
prodded
j.d.
gremio
imagination
yourself
capt.
d'etat
twenty-two
vie
diminishing
gascoigne
alec
squarely
highest-level
bt
invitations
skirmishes
bend
harness
dunn
weddings
plantations
receding
nfc
microphone
heroic
diver
kospi
tni
villager
tattered
round-the-clock
limped
nuclear-powered
disturbances
joint-venture
buddhism
istat
hansen
fernandes
pauline
seville
interpretation
salad
paerson
short-track
hemorrhage
underscore
canon
refund
clutch
processes
intercept
abubakar
rabies
gadgets
uprooted
gotti
intrigue
yucatan
firsthand
soes
leno
raila
unfortunate
ageing
bavarian
cartoonist
fujitsu
clawed
nadu
sweetened
sincere
game-winning
sleek
stacked
hardened
charley
couture
reinsurer
modify
batman
impounded
ex-communist
portillo
strolled
man-made
poachers
glitches
unjustified
seven-year-old
strangers
ponte
gabba
quicker
woodland
chairmen
mcrae
reinstatement
come-from-behind
unconventional
uniting
endemic
astrazeneca
fayed
jimmie
predictable
cowen
frayed
owning
krajicek
first-place
listeners
screenwriter
second-division
finnair
shaath
privatized
ire
aeronautic
butcher
bjp
estoril
vedrine
kaliningrad
norms
demarcation
matsu
log
autism
motives
muammar
u.s.-allied
jianchao
costume
kilogrammes
humiliated
hard-hit
erupting
ensuing
fairy
blessed
dreamliner
sermon
antiques
gunshots
staunchly
machetes
demolish
kaiserslautern
varieties
auditing
stephan
messaging
eiffel
spills
ex-husband
fourth-round
parishioners
hua
flaming
mccall
deceptive
j.k.
straight-set
lutheran
crusader
kuwaitis
englishman
clarification
peasant
yielding
intestinal
clung
majlis
anelka
kharazi
bioterrorism
defer
divides
glad
argentines
bailed
contributors
maddux
mutilated
unborn
reparations
avigdor
ju
kunduz
fayyad
acclaim
kharrazi
frist
concentrated
couch
curse
endure
resorting
landlocked
westinghouse
singer-songwriter
accountants
ciampi
dravid
albeit
eight-year-old
flourish
qualifications
summon
therefore
##,###.#
bash
tomatoes
guerillas
boomers
unfavorable
garnett
colt
pcs
fei
yunlin
girija
crumbled
arcelormittal
nicotine
manipulate
epidemics
claes
mishandling
ahold
spelled
val
wed
nolan
round-robin
accomplishments
malacca
cellphone
reza
wreath
baton
resettle
wooded
asafa
straight-sets
revisions
sprinted
violators
magnitude-#
commencement
mankind
sundaravej
wrought
nightly
chertoff
industrialised
obey
manama
bruton
denials
gp
rockers
marginal
ralf
blunder
dominica
fraudulently
roque
moroccans
aspect
capsule
klan
seinfeld
cornell
cablevision
anti-u.s.
milutinovic
discriminated
assessments
dramas
marketed
calvin
caller
nonetheless
hwang
snipers
anti-aids
lukewarm
hercules
enlist
##-strong
posh
dgbas
payne
comparable
lankans
rekindled
dutch\/shell
cy
gleaming
convicting
alumni
conocophillips
sympathetic
dolls
gilberto
quirky
deporting
reinvigorate
cub
dung
glitzy
bananas
freshmen
butch
keqiang
olson
haditha
gambari
encourages
pre
planets
rush-hour
sino-british
worded
provisionally
sided
glow
competent
third-generation
zyuganov
danone
aleman
aberdeen
mammals
punk
watchers
telecast
biologist
coal-fired
trickle
worst-ever
quadruple
normandy
spider-man
wrestled
mapping
alley
brodeur
hao
labored
completes
ramped
behind-the-scenes
belly
beck
cosmetic
literacy
kok
bloodbath
reaffirm
goosen
systematically
semiconductors
apache
prejudice
fenerbahce
wwf
doorstep
shortcomings
cadres
mainstay
tenants
%
arduous
drubbing
exhibitors
fifth-largest
cuisine
faiths
infosys
rods
torrent
garuda
apparatus
twenty-four
rooted
lingered
rowland
all-night
unfolded
prius
chairperson
aliev
rochester
alito
symington
fast-moving
chided
tvs
georges
context
bicycles
turbines
sabena
policy-making
horrified
handsets
dushanbe
retief
gucci
opt
late-term
jockeys
himalayas
doldrums
taj
filipina
aum
sweeps
instruction
barents
vest
nemesis
baldwin
jenkins
cabrera
affiliates
emboldened
globes
jaromir
r-texas
camping
ratcheted
##-million
faruq
mayhem
parliamentarian
owe
implored
dresses
mobilizing
beatle
indirectly
snapshot
tnt
flintoff
dues
scouting
tulkarem
pamela
simplify
piero
government-controlled
skaters
gyurcsany
pacquiao
vinny
intimidating
archive
trustee
anatolian
qiyue
cede
bursting
precisely
inaction
deuba
rakhmonov
issuance
ethiopians
conde
imbalance
conglomerates
texan
broadened
stefano
rebate
gras
kissing
emerson
reelected
tandem
reads
inadvertently
inspiring
reservoirs
versatile
commanded
catalog
relentlessly
dianne
pingtung
#-meter
budding
courted
clearest
nujoma
nativity
edgbaston
zine
fingerprints
mountaineers
sub-region
brightest
nabisco
distinct
alvarez
longest-running
renovated
dedication
blanco
tallies
jagr
wash.
joked
meager
calamity
ranges
mid-afternoon
condom
murayama
hotspur
sentiments
falkland
al-faisal
snakes
resentment
firebombs
mans
mesic
mcenroe
jerzy
swamp
pa
ranchers
amending
wasting
kissinger
ugandans
births
hale
flowed
thrift
dealerships
polluters
impacts
vineyard
vice-minister
qaida
printer
biofuels
conquered
legalizing
supportive
real-estate
swipe
crossroads
anarchy
flawless
troublesome
huber
carlsberg
receded
vladivostok
turk
catches
flashing
twin-engine
one-two
gianni
prehistoric
mint
sketch
klerk
duval
pioneered
arteries
##-hole
mosquitoes
sludge
bandit
steamy
participant
invisible
limousine
reggae
gujral
worrisome
damning
springer
francesca
outlines
subsided
bucking
implicating
tomiichi
intifada
realities
governed
anderlecht
unexplained
###s
brigadier
firepower
marrying
ayala
leases
rampaging
distracted
colo
roaming
packs
quincy
splash
handicapped
luncheon
smes
cancers
court-ordered
left-handed
eastwood
cookies
ill.
showered
vaccinations
cordon
a###m
importer
cruises
dudayev
managerial
nail
siding
firecrackers
accommodation
mandated
zhirinovsky
filippo
cam
minster
outdoors
austrians
whoever
gama
anti-ballistic
sampaio
shoring
boerse
spectator
pre-season
trimming
assumption
delgado
surpluses
trampled
teller
submitting
oceanic
lester
irvin
pleasant
wired
caricatures
extinguished
aeroflot
premeditated
faked
preferences
tonne
asleep
intergovernmental
al-shara
calculated
yelena
orient
vfb
schoolgirl
top-selling
bernd
nutritional
keynote
bagged
syndicated
levied
snowstorms
surcharge
pro-reform
day-to-day
macarthur
rehnquist
invoking
unionized
fade
renato
ex-girlfriend
avatar
writes
enrolled
#-pointers
depreciation
mozart
cheat
strode
churning
coastguard
georgians
penal
herb
palacio
azeglio
suffocated
dresden
maxim
###-seat
scorched
galileo
uncover
hindustan
evading
restrained
bora
precarious
waded
disagree
bellamy
misused
grill
roommate
moreno
lessen
twilight
trove
napolitano
spacewalking
atlanta-based
astana
hypo
hurd
cleaned
strugglers
inn
tubes
financials
weaknesses
karrie
weed
detecting
herzegovina
adjustments
lamb
pebble
sinica
tuneup
zlatan
input
ploy
presbyterian
gushing
redemption
attach
fetus
nargis
exercised
halve
geologists
orissa
airasia
germ
high-quality
beings
sutton
motions
bosnians
hyderabad
eckhard
military-run
faisal
microchip
quetta
deforestation
lofty
coffins
livingstone
honeywell
cruzeiro
slavonia
harmonious
pro-islamic
grass-roots
danilo
handsome
freshwater
one-sided
##th-ranked
paralysis
court-appointed
u.n.-sponsored
roiling
citadel
zanu-pf
alleviation
explored
hardy
procuratorate
somaliland
five-star
spitting
welch
cadillac
superiors
frantically
trooper
helmets
bean
languishing
third-biggest
robredo
draped
brokerages
altar
confusing
chow
flavor
quadrupled
cooked
meaningless
dietary
taiyuan
worse-than-expected
greed
full-blown
chic
doom
impressionist
luka
bulgarians
unsuccessfully
tussle
shipbuilder
co-owner
lean
unrelenting
dawson
purely
ecology
nudge
grass-court
antibiotic
shanghai-based
sidewalks
admired
aikman
evan
abdul-aziz
enclaves
reduces
derided
crossfire
tutsis
conquer
mukasey
duchess
three-point
waive
darkest
dresdner
swoop
fraser
monoxide
formosa
inexperienced
toilets
suv
fended
pick-up
incomplete
five-set
demoted
brumbies
forgiven
yongchaiyudh
gebrselassie
georgi
salazar
conditioning
vazquez
viswanathan
commute
textbook
sub
naturally
embezzled
gridlock
bilingual
wraps
westminster
vat
niece
oppression
prohibition
botha
amphibious
thrash
grey
residing
exhaustion
tremor
franck
everett
disputing
naji
landings
silpa-archa
alonzo
full-fledged
geneva-based
bhd
gronholm
translate
canoe
dartmouth
jumps
cosby
moc
multi-million-dollar
african-americans
rituals
anti-poverty
newfound
override
ridiculous
thwarting
fray
overtook
squandered
arbitrary
nudged
one-on-one
needles
remote-controlled
lo
victorian
geidar
drawn-out
kai
allison
emerges
menacing
reformists
mardy
schmidt
unabomber
short-range
apprehended
bam
yakult
haneya
###-strong
obsession
incitement
dizzying
waits
calmly
weeping
creators
camel
shade
progressing
cooperatives
ruf
wicketkeeper
lehmann
mechanisms
gears
passions
towed
banknotes
regards
scotia
culinary
unmarried
sneaked
archaeologist
remembering
enel
emphasize
crosses
precinct
earthquake-hit
unifil
realization
navratilova
invention
begged
recoup
self-described
ridiculed
suspensions
beefing
fabric
alaskan
coventry
paratroopers
corsican
goat
destabilizing
ling
solicit
prosecutions
non-essential
sparta
heatwave
aces
misgivings
gmbh
iv
stephanie
grapple
garros
rangel
tandja
julien
atlas
galleries
scanners
qinghong
stab
whistleblower
gamblers
randall
mobster
pratt
lexus
compassionate
barbie
characteristics
yokozuna
separatism
serge
janez
flashed
expenditures
three-member
anfield
pesetas
toddlers
teachings
slack
rawalpindi
fostering
hospitality
locking
hackett
mayo
snowboarding
digest
fabricated
lvmh
kirch
mat
debuts
small-scale
arias
wef
conceived
crist
montesinos
niche
amgen
seasoned
unscathed
payout
hasten
boon
rejoined
suicidal
gan
arsenals
helens
al-islam
congested
rainforest
eradicating
scary
mysteriously
breather
perugia
altercation
nevertheless
gilchrist
bpd
documented
re-establish
long-sought
paperwork
schnyder
williamson
doll
bureaucrats
sparred
resurfaced
cancerous
spaces
maps
framed
tailback
ala.
fluctuations
teargas
saddened
intimidated
goats
nld
snatching
dutroux
mechanic
gently
median
toast
shorts
jewels
kano
caves
drenched
anglo-australian
handwritten
jinan
marlon
phan
condominium
sprewell
##.##-##
trespassing
confucius
hayes
ilham
mocked
shortfalls
areva
goddess
superpower
immoral
w
maltese
head-to-head
yorkshire
rennes
p
hostel
contradictory
firebomb
defraud
erich
worm
coat
yachts
petitioned
helio
leverage
trailed
alerts
standout
impartial
penalized
savvy
melvin
nsc
#d
chennai
tax-cut
purdue
combs
barbed
emilio
staffing
basilan
blog
policy-makers
authoritative
fending
cheats
insulted
wajed
barbecue
matti
refrained
carded
sasha
designation
expressions
lori
buyoya
multimillionaire
encephalitis
swans
janata
donned
ascent
contributor
sparing
chinese-language
barn
beats
evgeni
ubiquitous
truman
devotees
stoltenberg
writedowns
moscow-backed
ticking
bits
renegotiate
pretrial
dili
x-ray
justification
aqaba
stamping
swiss-based
unwelcome
hijackings
buddhists
dialysis
boiled
sainz
furiously
###,###-euro
punishments
livelihoods
declassified
osasuna
discouraging
yellowstone
six-hour
cousins
jubilee
granddaughter
hantuchova
silvia
heaped
hormones
nationalities
iditarod
babe
curry
nuts
wrenching
martian
detentions
spreads
jun
cops
hourly
apertura
nanning
artwork
mega
fundamentally
cruiser
constraints
twenty-three
lme
duty-free
monde
hated
jo
unjust
choke
robben
goff
autobiography
deployments
openers
sse
duesseldorf
excise
pretext
countered
ombudsman
weightlifter
syrians
allowance
dwayne
tractors
one-man
clue
dustin
fide
springfield
wozniacki
inclusive
swearing
nationalization
postage
unabated
tate
snack
jennings
pro-kurdish
deposited
coasted
paisley
preceding
houllier
derailment
funneling
lennart
redesigned
mats
quinn
bloodless
vilnius
adds
gymnasium
passover
underneath
bottling
garnered
outfield
adoptions
overture
harsher
allege
snarled
hasek
flood-hit
translated
vladimiro
perched
balochistan
peters
exceptionally
solidify
starved
endorsements
realtors
deion
saluted
eternal
bankruptcies
collaborated
mururoa
assassinating
miranda
fightback
anabolic
closings
frederik
farouk
preconditions
reebok
deflect
desperation
midsize
distraught
sonny
goodluck
infuriated
laced
sunrise
no-frills
pondered
peril
zou
scorecard
kris
hindered
berti
franco-german
subaru
scouring
redevelopment
nationalism
###-million-euro
red-hot
allowances
durao
kicker
varied
foam
c-###
livelihood
riga
domestically
dolphin
obrador
firefighting
wears
chinatown
grove
latrell
mobilization
pardons
ivy
nationalized
hkma
fliers
wilma
flourishing
swell
isle
cathy
wholly
spd
reformed
pena
maxwell
lounge
linford
pondering
morgue
khin
comparisons
devise
chevrontexaco
confidant
inhumane
irvine
industrialists
newborns
extends
imclone
modernizing
reprisal
soaked
drought-stricken
vaccinate
phased
remittances
ticked
interviewing
tallinn
unraveling
seaport
muscles
comets
einar
feinstein
fife
bafana
sonics
fillon
funk
stared
ferrying
insurgency-hit
tycoons
stymied
balkenende
silly
educated
currents
groundless
organise
vogts
four-man
fuji
farce
duisenberg
rivalries
industrialist
tevez
practitioners
stipe
chinese-american
parvanov
zinc
reuniting
potatoes
grammys
boasting
snyder
webster
enqvist
newsroom
human-rights
eisner
yosemite
taitung
inching
boosts
resilience
teeming
norwegians
nafta
snub
mujahedeen
watershed
locomotive
hierarchy
abdominal
chlorine
waivers
loophole
igniting
pundits
botafogo
deluge
pistols
pak
minor-league
record-holder
sanofi-aventis
two-decade
sheehan
quiz
dunhill
aunt
magna
h.d.
tolls
marvel
preliminaries
meditation
jill
brain-damaged
persona
ljubljana
littered
racetrack
weaver
itt
cessation
begging
kallis
deficiency
o'leary
rudi
betrayal
rivaldo
##,###-strong
perks
agnelli
pows
headscarves
crusaders
punches
booker
displeasure
sharjah
amos
al-ahmad
listings
disqualification
underscores
getaway
schiavone
asteroid
wit
diouf
gourmet
discouraged
dot-com
clutching
quanyou
evolved
white-collar
maze
#####.##
kaiser
doubleheader
marquee
xie
u.s.-british
nantou
excavation
matsushita
refinancing
non-profit
boast
unthinkable
dossier
loaned
robotic
impress
mello
carlton
courtyard
mosquito-borne
airman
pall
soda
mistrust
vengeance
stalls
non-performing
powerless
kabbah
compare
limbs
redouble
imbalances
mahal
hoffman
refunds
griffith
haunting
substandard
nation-wide
evaluating
chao-shiuan
waterboarding
tenuous
chin
rehab
estos
savior
readying
chants
ig
incite
happily
hutus
flemish
dieter
week-old
storing
publicize
o'sullivan
arming
trilogy
besiktas
shantytown
creeping
imran
coles
listless
afflicted
villeneuve
islet
cyanide
pillars
dubai-based
jetblue
cancer-causing
independently
gangchuan
fast-track
minivans
accomplish
pulpit
getafe
accuser
dmitri
stalwart
bookmakers
unprofor
droughts
biodiversity
marchers
trimble
chandler
inconsistent
jamali
anguish
conveyed
editor-in-chief
silently
internacional
a\/s
kanu
wrestlers
prowess
idled
navarro
#x###m
sympathizers
levees
sickness
obese
inflammatory
extramarital
vandalized
unocal
bumpy
inder
zach
qing
inexpensive
downloading
articulos
hitters
discredited
funnel
sacks
unanswered
observance
sandinista
scalfaro
preston
militiaman
consignment
corporal
wagon
wandered
lodging
lenin
id
batter
stroll
arnoldo
fathered
export-import
retracted
yates
landon
falsifying
superman
contestant
bc
comedies
flair
us-british
gymnasts
maternity
denny
leaped
myth
changsha
charleston
continuously
wharf
thirds
transcript
gaping
edberg
descend
replacements
arturo
sharia
clamped
squadron
correctional
judgement
occurring
pan-african
overflowing
technically
shanahan
cola
godfather
bowles
hurdler
thornton
frequency
eminem
blanked
inspirational
siniora
freelance
tuned
times\/cbs
foreseeable
tempe
exhaust
arsenic
activism
mobsters
originated
enroll
que
aroused
qinghai-tibet
sino-u.s.
strings
thrill
mti
incompetent
consisting
rolandas
seven-member
horrible
baquba
tragedies
persecuted
bss
polynesia
gaze
pollock
irs
hilly
petacchi
bulldozer
plotters
brasilia
ang
vote-buying
harmless
fokker
gephardt
namesake
hardships
shiny
gum
boisterous
bausch
guilin
inter-parliamentary
d-day
chihuahua
sober
nervousness
robes
splashed
capitalized
youngster
lookout
tuzla
fitted
sacrifices
gregg
unhurt
commandeered
vests
gail
parreira
insolvency
tejan
candlelight
cesare
acer
cottage
mauricio
war-wracked
attorney-general
overboard
imposes
puzzled
cherry
castroneves
nathalie
five-member
dilapidated
exhibits
dwyane
inbev
castillo
caravan
awful
sarath
curriculum
hershey
cwb
kan.
sailboat
doctrine
fizzled
resurrect
ipc
normalizing
hancock
loading
brigitte
licences
rib
claudia
frost
mayweather
paksas
scolded
schoolboy
rife
costello
cloudy
mika
gorazde
segments
arrogant
arose
raptors
thirst
cosmonaut
outclassed
awash
restructured
mcgrady
appreciated
much-criticized
morality
complying
bigger-than-expected
analyzed
pettitte
dove
friedman
aspen
expedite
hitchcock
jaber
creature
violinist
clips
hayward
rock-throwing
a-stock
non-government
hut
simulated
cup-winning
arraignment
mature
thunderstorm
boucher
guevara
benetton
unrealistic
romero
scuttled
reliability
satirical
uci
#,###-kilometer
bittersweet
doris
vna
ito
juncker
messy
white-owned
rapist
bahn
rattle
santer
co-chairman
luzon
war-shattered
nicolae
eclipsed
jeanne
heavier
harcourt
socialite
nasional
loren
dwain
denise
fiasco
logic
undetermined
sally
squatters
sezer
prescriptions
triumphs
anti-immigrant
curbed
trickled
sticky
flood-stricken
charming
sandwich
sobering
sherman
boone
mcgreevey
giambi
#-foot-#
sap
gael
pubs
tesco
edf
caledonia
dzhokhar
pro-iranian
muscular
zeroual
peddling
ziana
crowe
embryo
boardroom
swisscom
anti-israel
imelda
hollinger
brunt
admirers
unchecked
albar
rain-delayed
rawlings
placement
necdet
obsessed
olsen
shady
bogey-free
attain
pennant
forbidding
viability
muslim-croat
caa
carmen
ayad
national-###
mocking
samir
half-hour
much-awaited
jewellery
futuristic
pboc
tory
ground-breaking
liar
chanda
volley
bestowed
rau
falsified
sehwag
integrating
compromises
pioneers
hooked
reschedule
patrice
condit
aqsa
bochum
apollo
sneaking
bishkek
peaked
patented
inflicting
facial
hamm
rebecca
sauce
stepanek
fonseka
evolving
#####
sharpen
skyscrapers
reeled
dodged
docking
incorrect
solidly
coulthard
consulates
ranged
hemorrhagic
consequence
nyunt
defaming
burbank
rwe
nazi-era
regiment
rescind
tow
expectancy
panther
consolation
doo-hwan
dane
leung
clergyman
khost
chained
checkup
trajkovski
ipod
darrell
kidman
innovations
cull
spinoff
rasheed
wan
unfamiliar
rosie
housewives
landfill
thunderous
peyton
export-oriented
ledger
pomp
drained
halifax
maternal
chunks
coaster
soweto
gianluca
recaptured
grandchildren
puppet
overshot
out-of-court
zafarullah
republican-led
virender
elie
baxter
lindros
lakeside
bugs
neutrality
rainstorm
shorten
kabariti
big-name
dwellers
fireball
alarms
kickback
marina
karpov
inhabited
adapted
tractor-trailer
smoldering
dueling
slumdog
danes
faint
thames
heartbeat
seabed
t-mobile
offence
masterpieces
rip
slaughtering
cebu
first-year
laureates
guessing
ghazi
anti-gay
millionaires
belichick
commandments
sci-fi
donaldson
sparring
malvo
tug
a.j.
offshoot
thereby
waiver
unconditionally
testament
compel
cameroonian
bloggers
ibrahimovic
restated
utilization
preceded
rational
mater
meng
torricelli
shijiazhuang
opening-up
shih
synonymous
marta
hooded
heidi
abiola
booed
guess
pyrenees
impaired
ditched
rumored
sufficiently
azores
northernmost
establishments
souvenir
jonah
mates
noriega
rubbish
renate
harvests
mosquito
grosjean
muslim-dominated
treats
h#
uniformed
khai
splinter
ituri
kisangani
geert
golkar
soggy
hanshin
across-the-board
sloppy
fomenting
catholic-protestant
humane
resource-rich
repsol
pakistan-based
tunes
perceptions
al-fitr
mont
brazzaville
abnormal
norwich
renamo
seldom
amin
reminding
souls
laurence
pharmacies
plaque
braving
ida
landless
dealership
ambon
joshua
mahendra
valentin
downpor
ex-prime
corretja
hal
jaw
turbine
yanukovich
openings
blades
donetsk
conner
discriminating
live-fire
dialogues
freeh
processors
shall
latina
rope
scorsese
raleigh
mdgs
a$
stranglehold
constellation
one-fifth
tigris
sputtering
cater
mirroring
pertamina
clans
furthering
super-middleweight
liamine
dislocated
elf
commenting
fabien
anti-trust
fukuoka
jozef
unconfirmed
cashing
shameful
###-point
mounts
ridden
uc
pasta
newmont
qualcomm
nicholson
detectors
fairfax
mandarin
tiffany
bump
woodstock
prevents
saratoga
ceased
outfits
financiers
bumped
bowls
validity
onlookers
sc
ills
hallway
freezer
ballesteros
heralding
fabrice
schuessel
fritz
doctorate
acrimony
slush
frontman
bakassi
ilya
ushering
handcuffs
refiners
rua
pumas
youzhny
runners-up
awakening
mirek
topolanek
sharper
rosneft
faure
funneled
conservancy
diverting
fingerprint
yossi
huaihe
fairs
palau
collectively
haikou
fits
leaned
benchmarks
mann
posada
gainesville
u.s.-made
advertised
reich
majestic
combatant
travolta
hesitant
monroe
volunteered
registrations
bret
appease
fly-half
beckenbauer
chao
marlboro
serra
overheated
matsui
figo
defends
sanader
laszlo
rhythmic
proponents
relic
f#
brash
abductions
bulldogs
accreditation
swaths
javelin
pietersen
inflamed
atypical
ineligible
injustice
ict
phoned
handles
legions
insure
embankment
carving
ozeki
martinique
lomb
s.c.
tuareg
a#
scream
mutilation
rails
balked
eyadema
jayasuriya
madness
rumbling
informer
mid-december
carmelo
advani
demolishing
diminish
suited
dissatisfied
l'oreal
reigned
gruelling
ismael
rapes
totti
molecular
heel
disabling
valve
satyam
gaudio
strategically
panhandle
coronary
merits
unlawfully
frequented
insects
alexis
bta
bacon
fraternity
sonar
fountain
holloway
isles
chulanont
randolph
changhua
u.s.-russian
tenn.
mailing
stubbornly
einstein
png
duration
thugs
cooperated
tolerated
extracted
spoil
upgrades
pocketed
unauthorised
bothered
petrochemicals
milo
semi-autonomous
hesitate
mundo
capitalist
sabri
kewell
robots
essence
clarified
aligned
indignation
crow
socially
subsidize
nursery
vampire
meg
upswing
vacancies
tai
mountaineering
cozy
rain-soaked
seibu
amish
california-based
louvre
grammy-winning
extravagant
copying
car-bomb
sanath
dover
leniency
myskina
cardiovascular
lancaster
cartilage
lieutenants
bachelor
instance
government-held
schoolteacher
convenient
andriy
disturbance
hitch
stardom
abe
valujet
genentech
jalabert
davidian
cookbook
yeh
overseas-funded
miami-dade
suitor
easyjet
self-determination
disbelief
reprocessing
misunderstanding
glimmer
brandishing
embraer
seaman
far-left
pflp
dictionary
batted
weapons-grade
appropriations
bravo
efficiently
reconstruct
dies
blindness
lansana
eaten
yala
sinatra
verona
ensemble
ari
disqualify
year-on
inflict
encyclopedia
bledsoe
faking
cough
ghetto
browne
cemented
vaulted
leased
usage
arlen
crest
energetic
carp
counselor
pervasive
#-ranked
pyramids
heighten
broadest
desecration
tenders
bloodletting
aps
marital
follow-through
provocations
cpp
oxfam
seve
###-kilogram
mid-atlantic
medecins
far-flung
fantastic
patrik
scania
thefts
onset
rugova
norsk
lippi
tri
sweeney
scratched
lcd
doused
laundry
avery
restless
administer
damp
mountaintop
gravity
buffaloes
surayud
miniseries
##th-hour
nomura
kit
decreed
fresno
billowing
rosy
vote-rigging
vigor
wiesenthal
ding
seven-week
valladolid
d'affaires
refrigerator
overshadow
enactment
nightclubs
loopholes
plumes
algae
recounting
tracts
wushu
atom
debit
coughlin
dimension
vitali
gasquet
hicham
blindfolded
eurovision
momentous
receivers
schiphol
wilders
politkovskaya
playmate
residences
hp
cardboard
write-downs
bolivar
irreversible
demographic
sequence
inheritance
upped
terrorism-related
j
blustery
parlor
ruby
libyans
happiness
duhalde
gomes
needle
noah
razor
biofuel
roe
squalid
plume
valdez
recounted
una
videotapes
rae
lifts
loc
screamed
slips
envelopes
biljana
payoffs
bharti
betrayed
extreme-right
honey
unicom
manuscript
popped
romped
falcon
dhl
sanya
loom
recommends
leipzig
scams
blaise
phantom
sophie
clocks
orbital
panchen
guenter
conflict-torn
leopard
tirade
samba
must-win
flavio
sino-russian
destitute
stack
front-runners
asturias
edges
fashionable
biker
plavsic
psychology
belle
prewar
lowell
outreach
burlington
minn.
incendiary
segregation
sleeper
prefers
anti-apartheid
draconian
waca
tomba
rump
singaporean
pan-american
brittany
banja
machine-gun
skated
malicious
carve
impunity
insurrection
widows
boring
impeached
insolvent
shevchenko
confiscation
interpreted
rompres
simeon
snowfalls
gulu
highest-paid
dampening
miniature
clone
blockades
simone
locks
shirley
koch
printers
puzzle
macedonians
intensely
ultra
harvested
cloth
deeds
railroads
celso
garrett
circling
confidently
hilary
escorting
two-match
budge
spartak
bohai
considerations
monarchs
males
taboo
interrogating
under-fire
schuettler
sabotaged
weir
loosening
skinheads
dreaming
suna
chavalit
conscious
finn
scrumhalf
fetch
rude
squeezing
chili
surgeries
slow-moving
orphaned
peek
notify
pinpoint
weighs
cory
bangzao
vice-chairwoman
shrunk
supervising
halonen
prod
baa
hard-hitting
basking
bulger
day-night
laurie
underpinned
nanny
tarmac
wastes
unloading
frosty
vicinity
lal
mardi
controversies
atrocity
vieri
camden
memos
possessions
pinch
loudly
newsletter
flare
bouts
abner
kashmiris
empowerment
hamed
ual
unctad
bitten
rafa
drift
loving
magnet
compelled
celebratory
aisle
s.a.
obviously
navies
readily
crossover
jianxing
glendale
u.s.-funded
warily
invaders
astronomical
#:##.##
tit-for-tat
moviegoers
giulio
madeira
olivetti
south-central
rendezvous
mcdowell
dissolving
retires
facilitating
buyback
ellison
curtailed
candid
occidental
roth
tomato
ardent
reclaiming
life-saving
baggio
carpenter
confirms
baghdatis
surges
biomedical
rocketing
shuffle
twisting
backbone
inevitably
fulton
hog
smartphone
moenchengladbach
half-million
wah
pro-business
hopefully
shipyards
deep-sea
scans
diners
ready-to-wear
symbolize
brescia
pattaya
haaretz
villiers
gusts
psychologically
spam
blue-collar
flag-waving
xue
placid
bookings
futile
instructors
aa
slender
kellogg
dion
announces
tier
golfing
leadoff
melee
oncoming
bovine
gatlin
nano
bharatiya
record-tying
glaciers
beltran
cradle
mara
normalcy
binge
entertainers
lockdown
groupe
greco-roman
crawl
joyous
myself
imperiled
beast
nate
pitino
barbs
boyle
behemoth
roller-coaster
blacklisted
retiree
yemenis
bai
democratic-controlled
five-hour
michal
brothel
severity
co-pilot
rescinded
ex-dictator
sabbath
martyr
misusing
pro-kremlin
critique
two-test
maccabi
distrust
bystander
grips
greats
barrett
dwindled
afar
mascot
nurture
scion
primitive
agonizing
ata
jarrett
dimitris
tarja
axa
edmond
tooth
snared
erotic
earners
withdraws
minnows
downstream
gilts
plunder
long-held
boao
kfor
celta
bogey
barefoot
underestimated
hunkered
collisions
presses
matthews
feathers
one-hour
hatched
bartoli
congratulating
weird
citic
wee
cha
four-star
four-stroke
knights
mapped
crimea
realm
bookstores
trailers
turnpike
chateau
grapples
unblock
scars
headscarf
isa
ribbon
rebuffing
tailspin
sutherland
pro-israeli
frogs
aviator
pre-christmas
scanning
woodbridge
yamaha
howell
arjen
grandmaster
derived
electricite
contrasting
sylvester
secluded
logged
reimburse
steepest
accelerator
dominion
mishandled
fsb
krakow
ax
clears
reunifying
laughed
keller
xbox
mandalay
concord
commands
illiteracy
andry
cutting-edge
timor-leste
dsec
olympia
revolt-hit
scandal-plagued
sifted
deception
sulu
indiscriminate
seriousness
refinance
distorted
throats
high-definition
pemex
eu-wide
dope
informing
enquiry
weiss
swear
staggered
harbors
agony
censors
isu
thyssenkrupp
trawlers
buyouts
spearheading
kerr
zell
fouad
saa
platini
talal
faa
prologue
degradation
zamboanga
bathtub
superstars
waratahs
ribs
cfa
californian
d'alema
sanitary
sderot
filly
kathy
artworks
andretti
cisneros
barton
mercenary
insurmountable
assignments
dismayed
citywide
lander
skid
bred
haniyeh
acknowledgment
ntt
desertification
militarily
flashy
skyrocketed
metall
fruitless
andorra
wrecking
highland
streamlining
desecrated
porcelain
leg-spinner
tun
asuncion
yew
combing
ambulances
##-year-olds
chalabi
arbitrator
fearsome
harbour
claire
hallmark
averaged
belgians
culled
tar
chievo
oscar-nominated
plummet
wherever
internet-based
slows
scuba
stump
macroeconomic
severing
unprofitable
exhibited
disorderly
hand-held
sparsely
unsettling
wiring
bauer
narrower
roamed
ii-era
fertile
smoky
hahn
enacting
standardized
renovations
veils
constituents
d'amato
witnessing
chewing
inclined
talk-show
isabel
emeritus
gortari
kerviel
abilities
tract
double-decker
haggling
abstract
arianespace
hrawi
federated
three-shot
bunkers
mayer
zebari
jirga
crash-landed
evoked
atmospheric
errant
transcripts
new-look
bridgestone
shaved
otago
templeton
khaleej
liz
czechoslovakia
upstaged
yahya
ploughed
surgically
all-stars
fuller
ponder
trouncing
motorsports
equitable
insanity
buzzing
sheltered
paced
graduating
specializes
trucking
remorse
rendition
approves
kramer
sketches
poets
taser
premiered
finns
spiegel
archeological
exploits
defaults
batters
implicitly
exercising
corrected
forrest
reciprocal
townships
gsm
muslim-led
impromptu
kuan
calming
arc
assumes
half-time
post-communist
tendency
undervalued
doc
lag
in-form
outpaced
azeri
perch
siena
bondholders
profoundly
forested
brothels
d'or
daiwa
notification
eberharter
judy
carr
annul
scorn
updates
april-june
worcester
anchorage
sunlight
gold-medal
boyhood
leonel
schizophrenia
for-profit
dodd
nostalgia
gazans
boft
popping
packaged
rajoelina
olli
ghosts
coats
zhengzhou
cooke
levin
potro
acknowledges
longhorns
handily
re-opened
companions
confiscate
guillaume
converge
unload
romeo
mid-october
principality
disregard
highbury
premiers
wait-and-see
overland
hoddle
lunchtime
inhuman
centrifuges
tran
anonymity
dangling
corus
contractual
bother
beware
outlawing
algarve
backer
lenient
sidestepped
blond
nastase
ideals
royalist
incessant
independiente
fiance
kpmg
posthumously
fervor
fiesta
katyusha
equals
newsprint
robby
ouattara
kelley
mauro
depots
myriad
parental
adolescents
stairs
pancreatic
lugo
lantern
china-africa
prohibits
drug-resistant
seton
lapd
holidaymakers
cowardly
exuberant
icj
multi-national
moeller
haris
flood-ravaged
shrug
bolted
pentium
microelectronics
explanations
humbled
mediocre
flanked
davide
graveyard
cruiserweight
adjusting
subscriber
reignited
tt
thanking
pieter
interception
emmitt
rato
geographic
pacemaker
certainty
rebuff
vettel
soundtrack
vienna-based
cahill
posco
alassane
fossilized
anguished
genetics
subcontinent
ppp
hideo
lip
ccb
chunichi
u.s.-china
skittish
breathtaking
scares
faldo
fries
vw
decimated
liabilities
usair
al-khalifa
render
disruptive
hardliner
peg
progressed
pro-moscow
titlist
barbarians
proximity
leeson
haley
jingsheng
o'malley
presumably
patches
softbank
safest
examples
pau
sarasota
rocco
outlooks
anticipate
mccormack
gardner
tallied
descending
puck
bastille
mid-august
regency
module
sheen
reilly
eln
dodi
salvatore
resorted
ariane
taslima
backpacker
arch-rivals
yerevan
polite
expulsions
repulsed
scottie
sharma
petter
islamist-rooted
kadyrov
klose
groom
gag
pilgrim
tug-of-war
poignant
pathologist
sinhalese
lomu
salvaging
summons
keelung
proposes
succeeds
drank
dirhams
catalunya
attache
jolo
contraceptive
usaid
near-record
war-weary
payoff
cynthia
operas
mountaineer
think-tank
officiating
logjam
imperative
barrages
angeles-based
norris
planemaker
haute
beaming
depositors
gatt
eintracht
breweries
incorporated
abortive
sprang
circumcision
masterminds
foodstuffs
vent
extraordinarily
gayle
scala
lothar
clerks
collusion
princes
coax
nyerere
bitterness
constituted
penitentiary
hellenic
top-ranking
demining
lam
giancarlo
arch-foe
jonbenet
unused
downloads
facade
enforcer
leaping
mangled
fay
nuevo
tsunami-ravaged
overruns
greenberg
lei
excavated
sensors
hakuho
edt
correctly
eyebrows
gatwick
pius
towel
coastguards
melanie
tasmanian
lome
dudley
dee
possess
hoshyar
parting
foreign-born
gods
parry
wasim
agricole
rehn
christchurch
baffled
crowns
noose
cnpc
wyeth
##-page
manfred
mid-july
fabregas
qadeer
mcclaren
renounced
hangar
right-handed
deep-water
tdc
ricin
snarling
resembles
fascination
announcer
downsizing
den-yih
bladder
temptation
marketers
regents
treasurys
disable
mullen
annie
camouflage
emptied
disproportionate
sharpened
sabotaging
state-sponsored
velez
asmara
painkillers
whampoa
tui
polisario
rodeo
rory
collar
subversive
intervening
flagrant
tietmeyer
desolate
antlers
savannah
extra-time
louima
fond
josep
pro-am
cbn
nikola
kremlin-backed
mathematician
unprepared
instrumental
rex
el-bashir
entangled
informants
consoles
satisfying
coconut
nomo
soundly
stephanopoulos
chong
az
andaman
clever
socio-economic
hannah
lucie
ratcheting
documentation
casts
organiser
snacks
reining
lipton
yasushi
anarchists
lambert
droves
kitty
saatchi
arrow
rebirth
fini
stainless
anil
vigo
kufuor
predator
gowns
unsold
liberated
luxor
liberate
tranquil
overtaking
loyola
rosario
lenovo
liners
verdasco
tout
mirza
slapping
private-sector
novotna
toughened
dodging
interfaith
strewn
fda
drainage
forgo
rigid
lauderdale
takanohana
daisuke
hotbed
relocating
dare
implied
birendra
exemptions
jp
beachfront
unreasonable
combines
mistook
##-country
circled
all-party
culminated
seaboard
actresses
berri
sincerity
alatas
cerebral
spouse
deportations
ictr
unhealthy
subscription
beethoven
six-member
long-serving
curve
###-nation
douste-blazy
syndicates
fuzzy
estates
violence-torn
belated
deteriorate
authentic
socks
fashioned
wardrobe
visionary
grandparents
canaveral
mid-march
erect
testy
pines
gio
bovespa
apologised
non-combat
collateral
bernabeu
excesses
undemocratic
ratifying
levee
seven-game
dismembered
ruslan
hollow
scandinavia
holly
investigates
inserted
backpackers
culprits
abating
interrogate
kenyon
bfa
rangebound
oates
quarrel
para
sensing
juggernaut
motivation
bade
atalanta
paramedics
derailing
overshadowing
sprung
bates
vacate
guterres
csc
staffer
h.w.
cultivated
narathiwat
unregulated
blatant
intending
latinos
authenticity
vacationers
american-born
radios
proclamation
captivated
interaction
slots
spores
gabriela
elaine
quake-stricken
cd-rom
containment
fowl
asia-oceania
lexington
bethesda
menino
swapped
skeptics
mi#
walters
anz
rites
exits
testosterone
sega
schengen
harvesting
sternly
overseer
july-september
pedophilia
#-point
thumping
supercomputer
rocca
railed
voronin
granma
nuclear-free
reeve
mushrooms
pariah
poem
appalling
notoriety
headingley
morally
azul
hyde
indifference
nicky
unseen
rekindle
fascinating
leprosy
casket
cooks
picnic
gingerly
paychecks
u.s.-iraqi
unwittingly
surcharges
last-gasp
fonda
alcatel-lucent
ecus
moshood
salon
prolonging
madame
hears
humberto
adherence
overhauled
giggs
guesthouse
furyk
resembled
devalued
kits
overtaken
gloucester
raphael
stockholders
hemingway
danielle
torino
cecil
wreak
halle
tommi
packard
burdens
impatient
tulsa
koo
shareholding
solace
xstrata
induction
orbiter
bravery
artest
hawking
sacrificed
comatose
relies
sandstorm
seagram
whistles
acquaintance
extensively
kite
aerials
ural
unnerved
hard-won
heinous
massively
canton
rabbit
sanyo
admiration
swastikas
gillespie
compensated
useless
handler
protege
ecclestone
kocharian
steadfast
dailies
microwave
melted
funcinpec
gusting
forfeit
contraception
evenly
clyde
swarm
melzer
bites
cctv
saskatchewan
decathlon
envy
mcchrystal
newsday
molson
deere
aruba
#-month
kagan
motc
broward
complied
cai
email
dimming
lana
declares
complacency
malaise
swindling
ittf
stiffer
puzzling
itf
integral
essex
mediated
sainthood
stash
venturing
booby-trapped
flouting
pensioners
ye
millon
compuserve
stamped
trusts
catalyst
independents
intractable
murrayfield
blunders
powering
mitigate
shoplifting
blackened
insulin
tracing
polished
alvin
two-state
panasonic
karol
pre-olympic
odom
tones
tamarine
fielded
anibal
##-billion
slippery
forums
piloted
stakeholders
reactivate
rancher
flavia
hanna
confiscating
reverts
obsolete
forgot
rainier
unnoticed
signings
expansive
nc
edith
pippen
alight
discus
shamil
disposable
washington-based
tanasugarn
wrested
war-scarred
neville
arne
slaughterhouse
camacho
congresswoman
dominates
nightfall
burdened
absorbing
r.j.
pots
convergence
thirty-five
shielding
dared
socrates
burglar
mother-in-law
bekele
detonating
distraction
heptathlon
solheim
shoreline
wavering
bullock
surreal
terrorizing
carnahan
edible
crackdowns
indispensable
prudent
devotion
resurrected
est
stacy
antiwar
german-born
joking
undeclared
valdas
chooses
protocols
#.#-billion
tyres
tailored
impatience
liberalisation
traction
unfurled
favourable
unstoppable
jiahua
relaxation
world-record
inhalation
steamed
vanhanen
three-set
esa
netting
cairns
floundering
poe
proclaim
hospitalization
parted
belo
confidence-building
insane
stature
ri
bbva
vigilante
##th-seeded
rerun
trezeguet
shenhua
mackay
avant-garde
cesc
watts
slides
berdych
crafting
workshops
perils
presse
four-point
placido
adolescent
limping
mri
allah
arrows
plundered
walkouts
coetzer
rooftop
hugs
alto
spikes
tiebreaker
safeway
vanity
twente
meadowlands
illustrious
twists
possessed
calin
eddy
warden
much-delayed
bulletproof
three-test
qualities
reservist
surroundings
defections
cyril
heartfelt
mikael
tastes
geo
decider
carriage
businesswoman
menezes
ratsiraka
eliezer
macro-economic
levelled
cumulative
ovarian
cisse
logs
ned
peking
marbury
mellon
gdf
qassam
wires
messenger
farina
exempted
convenes
chronicled
indurain
clayton
frazier
toothpaste
burnett
gown
mexicanos
taco
u.n
moftec
workplaces
edict
confrontational
encountering
deserts
swerved
dentist
msf
genital
swiss-swedish
##-under-par
blazed
drenching
anglicans
##-match
directionless
wada
cordoba
adoring
housewife
smelter
evaded
versace
calmed
jaswant
blade
spaceship
monty
horseback
priesthood
aragones
atm
maids
orchid
vfl
prescott
commenced
disobedience
huts
perkins
pentathlon
skakel
bald
jerseys
landlords
###rd
mclean
peninsular
knox
grady
oats
aetna
dedicate
chalk
ramping
mit
amputated
complexes
twenty-seven
diario
pinto
nieminen
customary
multi-year
ounces
tyrone
obscurity
post-cold
ordination
adversary
al-arabiya
wayward
granada
jeeps
frigates
politburo
government-appointed
twenty-six
crimp
palestinian-controlled
retribution
quang
koruna
payouts
mileage
kfc
curiosity
chatting
axworthy
chronically
iaf
artificially
melissa
bonanza
explicitly
soto
alcan
squabble
breasts
wetland
nabih
throngs
whisked
hide-out
huntington
conjunction
cross-straits
game-winner
schumer
cameroun
mold
tzu
cpv
hai
scuffles
cues
insured
srna
concepts
nearer
musa
camdessus
irate
divest
dfb
ranieri
kpn
separates
legionnaires
brimming
bridgestone\/firestone
isolating
electrolux
frenchmen
recuperating
spiking
makinen
dictate
electronically
hand-picked
wholesalers
staking
no-hitter
affection
terming
smaller-than-expected
ladder
hrbaty
sold-out
rooting
alliot-marie
stephon
xiao
moderation
culling
screeners
clipped
rests
slurs
deco
bees
totals
sanford
raich
laughter
credit-card
bulbs
resolute
hanks
j.c.
steelworkers
bedford
fetuses
traumatized
pennetta
lok
georgy
adamkus
destabilise
coinciding
kilometre
herewith
brokering
chastised
embedded
gustaf
administering
sermons
corazon
essay
hindu-muslim
nandrolone
pretending
regrettable
in-flight
consume
bagram
confer
toughening
montpellier
dassault
kashima
satire
doherty
concentrating
bon
drinkers
exited
europe-wide
romp
fiba
disapproval
gaza-egypt
erin
handshake
tearfully
estudiantes
fax
impede
nestled
winehouse
levine
sudirman
llp
lung-bin
congestive
sabha
ripken
ore.
batasuna
akram
revellers
fool
kanye
sapped
akashi
buthelezi
bribed
dino
kamuzu
fringes
ex-yugoslavia
lim
fm
takers
pairing
mancini
newly-crowned
laughs
enforcers
repelled
indosat
stumble
entrusted
detachment
ebbers
topless
eked
gdansk
roundup
siro
cem
cheung
oliveira
entebbe
relays
peculiar
agustin
sowing
iea
valverde
uninhabited
anti-racism
uighurs
fervent
irony
post-saddam
proceeded
lyle
incorporate
stagnation
roam
buys
government-funded
kwame
reshaping
shuttlers
reassigned
pavement
sneakers
semiautonomous
flip
rajapaksa
acura
turnovers
manuscripts
nautical
soft-spoken
shiite-led
hypocrisy
disks
lectures
neal
dereliction
manipur
steaua
zapatista
edgy
russian-born
third-party
stereotypes
constitutes
bludgeoned
pires
intensifies
prada
sainsbury
north-central
die-hard
sorting
wakefield
captains
dovish
zahir
hooliganism
compensating
utterly
womb
pregnancies
##-team
brahimi
akin
overriding
drugstore
teliasonera
airshow
lenny
documentaries
packets
silenced
bobcats
supertanker
pricey
veterinarian
linux
montserrat
boi
organizational
video-sharing
alkmaar
#-#-#
peanuts
occupational
ecfa
pay-tv
warhead
choreographer
skulls
decrees
racers
cling
guiana
scraped
german-us
gagne
undeterred
near-term
video-game
weah
us-sponsored
panetta
shortest
promulgated
presidium
kawasaki
min
bursts
spurt
jalalabad
massu
bosque
decapitated
continuity
polarized
five-point
motorcyclist
high-altitude
leaner
differing
painstaking
liter
sur
omaha
cutoff
dated
tax-exempt
videogame
yelling
boldly
cemex
recognizable
second-leg
five-run
cellucci
isiah
blown-out
bern
gas-rich
lagarde
microprocessor
taxing
eerie
east-west
painfully
maastricht
collaborators
pietro
wooing
bskyb
backstage
bedouin
falungong
beyonce
liberalizing
cynical
tagliabue
prosper
canisters
anti-retroviral
emu
unlock
texts
-##
transmitting
inception
thorn
osprey
kissed
inter-governmental
rapprochement
nailed
colosseum
banished
doohan
kang
lampard
humidity
mid-june
minefield
modeled
demons
drizzle
natasha
wading
mcbride
appointees
##-acre
revolutionized
toluca
porch
qureia
passers-by
offspring
exonerated
replenish
goverment
targetting
devout
waigel
typhoons
grudge
jakaya
kikwete
tab
unpleasant
compaore
best-of-five
chunghwa
militaries
mid-september
amer
sportsman
showcased
tirreno-adriatico
saxony
jared
acp
buena
summed
jos
tara
bertha
leveling
jesuit
leakage
bergen
stuffing
penalize
chela
pileup
wiretapping
dialog
writer-director
stalked
barker
reminders
drones
influences
reykjavik
dominguez
chemist
pinnacle
andreotti
collaborator
know-how
kiwi
liberians
veterinarians
carlyle
landlord
maturity
nusa
mammal
ordnance
workouts
unethical
uttered
israeli-backed
resettled
workings
documenting
schwarz
a-share
clouding
appraisal
uptick
hernia
avenues
anti-riot
dunga
navigate
wildcats
misguided
dixie
high-priced
frenetic
guggenheim
startled
symbolically
unintended
off-limits
cordero
muse
rockwell
korda
riordan
##-inch
long-shot
lagoon
guidant
bottler
selections
onstage
carruth
ians
hasidic
instances
effigy
riskier
induced
age-old
stockpiling
resemble
hinge
five-wicket
left-arm
constantine
iom
echoes
repatriating
warmth
mildly
first-hand
re-open
festering
toure
salah
satan
medicinal
infiltrators
putter
kenenisa
flushing
digits
er
msnbc
paves
kidneys
final-round
sardinia
ordained
adnan
cosmic
prevalence
swirl
ondimba
ancic
ropes
pamplona
lucy
bushehr
yanked
atta
anti-islam
co-worker
valleys
mussina
brigham
r.i.
desks
handouts
hurts
donkey
single-day
haniya
hurtling
recriminations
villain
tackles
three-man
ipswich
banque
hugged
jean-louis
propelling
underwriting
kasuri
unfpa
fractionally
cairo-based
tatters
fixtures
khomeini
kristina
metz
tendinitis
che
propulsion
transfusion
sagged
quarter-point
tak
profited
sinha
auctioneer
jammeh
downside
fabulous
creativity
craze
mentality
rust
preached
showtime
pursues
cinematic
females
shutter
wallet
brasil
comics
dilma
laredo
jlg
cookie
valdes
clausura
pregame
rancorous
auctioneers
mangosuthu
norbert
deprive
plasma
papoulias
il-sung
caviar
oriented
nails
thrive
exhorted
stoppages
kamchatka
cecilia
boiling
hennessy
packer
gus
guadeloupe
goetschl
nzo
redesign
zinni
perimeter
fuming
'n
pol
jarkko
remedies
bows
whisky
loggerheads
termination
aggravating
marker
cures
ringed
impresario
question-and-answer
manh
backpack
discriminate
canvas
sexuality
velvet
junction
sniffer
mannesmann
afro-asian
on-year
portuguese-speaking
realignment
ecosystem
sculls
enhancement
liao
saint-etienne
philanthropy
#.#-kilometer
sinister
inherit
clarity
stocked
harald
atherton
hercegovina
punctuated
liege
tse
lyndon
fleets
spla
bulging
nkosazana
intermediary
glaring
ty
peruvians
mast
culminating
overthrew
milos
veracruz
pim
british-born
partying
megan
aventis
guangsheng
guyanese
surround
uber
al-anbar
eclectic
fellowship
stocking
nagin
zambians
guardsmen
frog
commence
splintered
accomplishment
mswati
penchant
colbert
alfonse
rojas
intrusion
draining
wii
tenacious
awake
spinach
missteps
wide-open
manor
toxin
conan
musashimaru
naharnet
leftwing
warhol
ammonia
quote
silajdzic
ichiro
lund
carriages
banca
commercially
privileged
frontiers
boos
peretz
csa
kravis
a###-###
jogging
inefficient
hardaway
overpowering
gorillas
neck-and-neck
surrey
seventy
ricans
reconsidering
lakhdar
whitewashed
seymour
insect
kick-off
quotes
bart
glazer
mutinous
untouched
kyushu
poems
sherpa
colliery
arab-american
washington-area
pottery
blessings
yat-sen
kevorkian
karate
sifting
unreliable
sustainability
offended
shoved
whistle-blower
rousseff
gravel
diagnostic
plata
dolan
deposition
nzsx-##
fixed-income
physicists
duped
baskets
outnumbered
hurried
seselj
smoker
temblor
adversely
mummy
yachtsman
firebombing
decorations
karnataka
russ
inner-city
hodgson
arrogance
oven
hydro-electric
hekmatyar
gusty
sugiyama
nonsense
audiotape
triple-double
civilizations
lapse
strips
repel
sleet
bangui
suppressed
zabel
hoarding
time-trial
thumbs
#x###
cotabato
audits
devastate
revaluation
flop
high-school
trademarks
garth
prospecting
trafficked
careened
bergman
savored
brenda
herdsmen
massing
tablet
screenplay
preschool
silicone
submission
sheldon
juveniles
anemia
invasive
leaky
tantalizing
layup
sybase
windshield
canvassing
driveway
anxieties
updating
downwards
systemic
downplay
easternmost
distinguish
rewarding
senseless
accessory
depriving
entertain
forestall
optic
interruption
flats
graceful
schering
partition
scrum-half
teodoro
euphrates
irb
communist-run
billionaires
mirko
unmarked
massage
etienne
anti-china
rank-and-file
counterattack
insurgency-wracked
mid-february
ying
vanquished
superbike
cbi
instituted
###-page
seething
cordoned
batistuta
younes
schweppes
residue
violin
canas
whitaker
rewriting
winery
snow-covered
freer
chiba
blinding
file-sharing
kerik
ornate
tumult
overstated
brand-new
p.j.
witter
avandia
o'clock
faeroe
nacchio
nou
break-up
culprit
brightened
long-simmering
kantor
peabody
parisian
stevenson
instigating
lieutenant-general
fundamentalism
meciar
steelmakers
black-and-white
rhinos
newer
turkeys
grind
sudden-death
pupil
abidine
lozada
mindful
six-under-par
fabrizio
merry
presenter
pro-israel
deterred
dismissals
shuffled
limited-over
austere
feasible
sangakkara
schooling
ta
mmd
mistreating
impotence
forecaster
renee
composers
centering
davao
skirt
geoffrey
willem
reviled
three-goal
windhoek
culmination
foggy
glaxo
buttons
amorim
insights
bilking
nonpartisan
prodding
stained
renting
clarin
portrays
out-of-control
pnp
u.s.-brokered
jamming
wreaking
smoked
attends
butterflies
contradicted
monfils
stich
obliged
tempted
israeli-syrian
mid-november
loosened
torrid
enveloped
boutique
strident
lifestyles
employs
bundled
ignorance
hay
crespo
worthless
futures-led
hapless
alcoholism
hiroshi
intoxicated
firecracker
undercutting
penguin
belted
faith-based
censured
airstrip
ikea
diaries
afflicting
destroyers
tillman
four-party
confronts
sellout
big-time
buzzer
niagara
altering
surrogate
lotte
bainimarama
shadowed
denuclearization
carry-on
citicorp
ncc
short-handed
craigslist
redistricting
premieres
swindled
scandal-tainted
prints
wailing
rejuvenate
ambushes
gro
tempers
resembling
devon
breakout
al-ahram
animosity
bowden
sow
erwin
dora
loads
rations
launcher
kalam
fared
mckinnon
quits
hakeem
differently
demonstrator
itv
organisms
sarawak
brandenburg
canned
myanma
inflame
posthumous
reasonably
infiltrating
obstruct
mariana
fertilizers
unveils
hamza
uruzgan
virtues
scurrying
nsw
prominently
uncovering
mrt
maya
vilified
constantinescu
np
revolutionize
lurking
rochus
gu
eisenhower
saxophonist
dimitar
dunk
huskies
adorned
sibling
heap
noses
enlarge
rafic
bougainville
defrocked
un-sponsored
adjoining
carole
departures
tat
duran
qaboos
tao
iranian-american
jagger
imagery
glitter
adf
medium-range
stig
nasiriyah
heavy-handed
jacqueline
putnam
sia
peoplesoft
itinerary
francophone
democratization
siamese
clot
stowaways
unifying
dinar
anke
thrower
impeding
rotting
wipro
benoit
ning
dragan
b-#
sentimental
magne
crouch
streaked
swarms
intruders
dinamo
lagged
scrutinized
squares
saboteurs
sheryl
shellfish
swathes
chicago-based
grocer
depressing
second-ranked
siren
vanessa
half-point
greener
admirals
journals
neglecting
stationary
debbie
inflate
accurately
ruggiero
brando
antiviral
best-seller
grin
worshipers
edited
legg
felons
natalee
sickening
relieving
guardiola
defences
stabilisation
neurological
erez
gunship
armistice
hard-pressed
cite
tae-woo
dreary
precursor
vitaly
anti-immigration
kane
frustrations
rosemary
yogyakarta
norte
figuring
pasteur
lash
emirati
cakes
terrific
skeletons
fascinated
private-equity
principals
###kg
one-party
galaxies
refurbished
wording
showrooms
carrie
cross-examination
sky-high
brunswick
sunglasses
sundown
extraditing
baking
bruises
redefine
luna
gte
al-adha
amoco
energy-saving
hardest-hit
bush-era
mca
microprocessors
front-page
bragging
basso
stanislas
interleague
pepperdine
espanola
bluefin
bypassing
machu
compounded
extinguish
momcilo
anti-mafia
tugboat
transmit
elisabeth
kgaa
two-and-a-half
oils
wartorn
issa
branko
yoga
eruptions
weight-loss
follow-on
barzani
tsmc
degrading
scenery
sheila
watchful
happier
bolshoi
spells
shahid
blas
cautioning
eyewitness
underdeveloped
evergreen
coexistence
guardians
slandering
basayev
pedal
alias
oz
benito
taliban-led
meadows
classification
kerosene
paok
##-race
relievers
cigars
utter
prescribing
luster
judd
cellar
steaming
observations
unbroken
kirilenko
bowyer
profiles
unfettered
shopkeepers
standardize
brightly
dot
tien
evian
shebab
scarf
pedals
camara
sizes
kitts
reassert
prep
floats
cristian
td
menendez
davey
sampling
internazionale
#-year-olds
two-story
python
pinning
macquarie
paedophilia
picchu
tsonga
slur
klestil
trafalgar
houghton
luzhkov
antony
souness
higgins
rink
mentioning
electors
two-week-old
roundly
chopped
thyroid
farmhouse
scrappy
catania
omega
hoc
angkor
porous
cereals
battlefields
cheltenham
numbered
surveying
twenty-eight
puma
softwood
reliant
traitor
kjell
pantani
multinationals
slovene
outpacing
skype
popcorn
fran
regulates
crime-fighting
sobbing
beamed
chicks
undo
cadet
decorating
fluctuating
aspirin
witty
fractures
indecency
long-anticipated
shouts
heeding
verbally
varying
nostalgic
christofias
katerina
cyrus
waitress
insulation
quicken
orphan
cultivate
stockton
wawrinka
sudamericana
gwen
ibge
trout
wobbled
overfishing
galveston
adoptive
houston-based
emancipation
inca
than-expected
wavered
soothing
kalla
gnp
un-brokered
bao
'em
wrangle
repaid
jean-luc
xenophobic
####gmt
horrifying
hristo
heartened
screams
post-coup
woodgate
ebrd
spectre
team-mate
rower
gothenburg
carts
nahyan
unassailable
brook
dusk
goss
pigeons
indian-born
token
winnipeg
murcia
leander
energize
cipollini
rainsy
timo
empower
howling
illustrates
amends
bourdais
highest-profile
wladimir
bmg
sania
genocidal
bolanos
first-innings
crusading
kayak
schulz
decrying
jackal
three-story
kick-start
flora
giscard
steak
coastlines
conservationist
gheorghe
chunyun
laguna
dye
vip
ames
blizzards
vuk
whirlpool
bing
qishan
bonded
fodder
summertime
industrialization
hells
rightful
cascade
baystars
d'
tyranny
quelling
vice-presidential
verdi
thawing
inaugurating
amphetamines
catapulted
penetrate
youssef
tax-free
irrelevant
kazan
dubrovnik
buffs
languished
yun
second-in-command
sceptical
taunted
oversold
bailing
liam
engulf
break-in
humpback
advent
maldini
implant
centurion
detractors
situated
regina
berenson
addictive
bozize
lashes
trousers
braga
occupiers
rusal
vogue
intruder
diagnose
spoiling
razor-thin
elevate
resolutely
abusers
nicola
amphetamine
ekeus
talladega
rave
ilan
stella
md-##
pontiac
switches
fiber-optic
caustic
walled
earthquake-stricken
solicited
clamor
whistler
wellcome
clifford
wobbly
seth
beams
realty
lovely
salonika
domino
placards
swayed
izmir
chocolates
unwarranted
brundtland
singling
rename
sncf
gorilla
asphalt
earmark
conakry
ottmar
x-rays
bunia
lokomotiv
researching
three-party
solzhenitsyn
plushenko
ceausescu
patiently
heartthrob
addict
asefi
wes
wedge
intolerable
diplomatically
jing
bert
clown
kaduna
enrico
paes
backgrounds
bettini
outlaws
activate
cliffhanger
scattering
drilled
mahela
monet
meshaal
telenor
miramax
citation
well-wishers
energized
olof
wally
gill
marley
deficiencies
reasserted
nagasaki
tanzanians
copyrighted
cadre
kindle
pinera
cornered
addicted
garza
baseline
tinged
scrutinize
goodman
shantou
annapolis
assemblyman
stimulating
particle
nkunda
prachanda
ypf
punishable
queues
sucked
off-spinner
secede
inflammation
minarets
iain
desired
frauds
showpiece
right-hand
onshore
homicides
sultanate
juninho
tahiti
feliciano
osteoporosis
supachai
ak
hyun
swords
weightlifters
accorded
borne
priebke
basked
boomed
novice
awesome
deutch
gallagher
anti-subversion
criminally
heady
malisse
amber
shrek
fry
nepad
fortunate
lubbers
polytechnic
pre-eminent
exceeds
platoon
anabel
rollins
compass
perfume
holdouts
anti-castro
fallon
medic
huddle
chidambaram
d'estaing
crawled
geologist
hidayat
walton
acquit
rhythms
rumble
shootouts
statesmen
stockbroker
bully
equaled
furnishings
grapes
accent
hubs
puget
privatizing
afforestation
setup
histories
limbaugh
hotspots
tortuous
puntland
downplaying
michoacan
cared
sexes
repaying
argues
jusuf
targetted
perpetrated
atheist
johann
self-ruled
lopes
tarantino
luong
swapping
haim
bulawayo
dusan
ghazni
queued
simplified
recycled
assemblies
uncapped
kdp
ancestor
inzamam-ul-haq
unscom
waikato
attained
olympians
rediscovered
livingston
hour-long
cruciate
djibril
crocker
clemente
omagh
homework
garrigues
ravages
bosch
brew
interpretations
locusts
jermain
guzman
jaws
cemeteries
landowners
soaking
anti-muslim
solicitor
seminars
exhaustive
thurmond
raton
jayson
emc
statehouse
giddy
klse
eastbourne
igc
anemic
wrigley
undergraduate
adobe
semifinalist
r-ga
talat
goldberg
unwavering
home-grown
keyboard
guebuza
enthusiastically
policyholders
rothschild
childbirth
lecturer
now-defunct
rsf
achille
isabelle
overthrown
moslem-croat
saddled
declarations
keepers
yury
otis
unclaimed
plymouth
vincenzo
ak-##
hibernian
gia
paints
dissuade
suvs
chapters
santoro
frenchwoman
tipping
penned
tegucigalpa
baidoa
reprimand
scud
slutskaya
brilliance
barthez
curtailing
mayon
borg
scandalous
nedved
mcgraw
ceramic
pollsters
launder
allergy
incumbents
army-backed
robbins
coups
briefings
peron
rosset
lore
wailed
explosives-laden
majorities
lan
moose
pro-european
hasbro
propane
awry
eight-game
sipping
staffs
valero
unp
miss.
usf
unfriendly
abort
four-way
sweets
emulate
daryl
hedges
ansar
petersen
mishap
anarchist
mohsen
et
kosher
underdogs
encircled
forensics
osborne
stand-in
khurshid
publishes
gmac
chubais
confess
crocodiles
grids
shortlist
scrawled
abramovich
gymnastic
ambassadorial
expiring
swathe
tseng
irene
trilateral
sideways
outset
medically
benita
averaging
aguirre
favorably
sized
jayawardene
relinquished
brawn
cuban-american
servicing
flat-panel
intentional
vending
pujols
chevy
machete
shriver
longer-term
forbid
poked
ecstatic
pest
linger
jerk
bibby
virtue
avid
deliberation
mutombo
state-level
inequality
daybreak
crumpled
theirs
earthquake-ravaged
lil
dikes
dial
alamo
camby
commandant
yongkang
genzyme
coast-to-coast
cyclone-hit
ark.
ucpn-m
angst
##,###-point
failings
altman
meredith
functional
jo-wilfried
unicredit
caliber
thirty-three
confessing
burglars
initialed
nominal
goh
shoving
seeker
rents
herbs
government-in-exile
kohlberg
conform
cured
incompatible
larsen
wax
peacemakers
unorthodox
westernmost
drug-testing
clergymen
embarks
ogilvy
swallow
suppressing
top-secret
schering-plough
omx
roughed
armani
annoying
chipped
kensington
gardening
molina
splendid
hulking
transplanted
speculations
filmmaking
dinners
airtel
hallowed
poking
zeal
migrating
councilors
monterey
clemson
babbitt
souvenirs
greyhound
sought-after
newsstands
oppressive
plaintiff
sirleaf
retains
quayle
facelift
dc
coolly
bye
second-hand
kruger
dae
hitzfeld
wendell
slit
rhino
lansdowne
ecumenical
vigils
enigmatic
house-to-house
competence
blighted
raoul
snows
cages
yashwant
overwhelm
knighthood
reinforcement
netanya
chea
diageo
expressways
overpass
lame
yunus
diyarbakir
honesty
fillies
dropout
overruled
atkins
offending
spongiform
auctioning
volcanoes
dauphine
cass
educating
mystics
tele-communications
farouq
cares
skis
quake-ravaged
stem-cell
superspeedway
negro
straightforward
occupancy
outscored
yousef
guanglie
antidepressant
ing-wen
schoolhouse
al-qaida-inspired
katmandu
barghouti
bruni
furore
foundering
ritzau
alastair
ceos
ono
thaci
akp
tantamount
daredevil
supplementary
explains
defaulted
catwalk
bikes
charmed
superiority
dementia
totalled
regroup
call-up
bowe
telegram
tides
maldivian
chaudhry
mccurry
kemal
wasps
shankar
ka-shing
grigory
zabul
additive
throng
wiesel
heterosexual
gps
dummy
rescheduling
inflatable
behave
falklands
half-brother
privately-owned
sfor
oversupply
shelve
mcewen
lays
omitted
mobbed
tread
sid
mundane
exacerbated
occurs
pdp
depended
moet
sochaux
scenarios
tempting
advertise
hop
oilfields
biya
bering
colonialism
flanders
develops
morning-after
arabic-language
derogatory
speculate
entrances
reorganizing
directv
trappings
taufik
roebuck
scrimmage
mendoza
emporium
arf
nast
dysfunctional
comercio
benny
tabasco
pops
twain
armey
navajo
pacific-##
pan-blue
cosmos
motto
lourdes
teenaged
faults
akzo
succumbing
lame-duck
pharmacists
jensen
disgust
mariah
skandia
subdue
seating
bullied
rutherford
bounds
medallists
akebono
paparazzi
garlic
propped
#.#-million-dollar
treasured
tenggara
saul
u-turn
non-oil
just-ended
lazy
early-morning
copyrights
relegation-threatened
anjouan
unsuspecting
rickety
proteins
braces
nso
flaring
fists
affiliation
katharine
stosur
lampedusa
sabmiller
counselors
anatomy
federline
samoan
crude-oil
quarry
uprooting
feted
badge
harley-davidson
al-sistani
chimpanzee
maleeva
cmc
strom
kasey
##-pound
flattening
poetic
burrell
basics
napa
four-run
###-acre
habla
flashes
skg
strolling
piniella
nonbinding
-rcb-
streamlined
three-decade
hbos
colourful
stickers
neon
pastoral
dotted
trumpeted
hard-core
clots
bolger
horton
sankoh
valuing
empowered
duff
counterproductive
respectable
co-premier
viduka
unprotected
lancashire
terra
tra
adamant
bingguo
mingled
rajiv
gulbuddin
tenaga
pollard
chronology
substitutes
millar
religiously
ten-man
whitbread
relaunching
cnbc
roving
penetrated
mid-sized
herschelle
rostock
definite
ruining
tends
caac
basten
fats
cardiologist
eighty
follower
all-male
staunchest
tarnish
developmental
botanical
dances
india-pakistan
mahatma
paternity
disparate
groves
greatness
natwest
calculating
circuits
popescu
dikembe
barbuda
lynne
formulating
hogan
###-km
heat-trapping
#-week-old
vt.
stately
kangaroo
reaping
rong
rollout
anti-tobacco
elway
clauses
rundown
mini-bus
mufti
senna
mini-summit
muscat
mutu
aurora
antics
srpska
toms
djukanovic
similarities
stormers
aussie
renovating
holden
hastings
##-seat
slater
celine
candle
excavations
alhaji
holt
taps
wrongfully
maximum-security
strengthens
january-march
ganges
spine
gangland
quelled
drnovsek
zionist
veselin
sympathies
toro
plame
margrethe
soon-to-be
henson
dorm
megawatts
drawdown
big-screen
repealing
suitcases
glare
coe
stewards
olajuwon
asx
encephalopathy
iva
inventors
allenby
csrc
admonished
chinese-born
playful
slumps
about-face
science-fiction
astor
sandbags
christi
albuquerque
cholesterol-lowering
ex-boyfriend
stresses
gms
scioscia
anmen
rembrandt
lurched
prank
liquidate
sinclair
nightmares
buster
one-quarter
guoqiang
maxi
non-permanent
nhk
overcharging
aero
habitats
madikizela-mandela
turkish-cypriot
yunis
glided
scepticism
interrupting
uncommon
infringed
rejoiced
prabhakaran
elbowing
pharaonic
chilled
enables
sensitivity
boating
chick
delray
brand-name
sabre
top-##
emphatically
konare
mull
second-tier
reassess
bemba
gasol
rack
influencing
healed
evaporated
door-to-door
reese
backfire
manson
soe
boil
criticizes
vanderbilt
affirming
rca
legalization
filibuster
ccm
collapses
malfunctioning
chih-kang
autistic
#com
savor
goodwin
ripple
hello
marquis
ipu
nantucket
hefei
york-new
puffy
ky.
adzharia
retrospective
untested
managua
aloft
plagiarism
bukavu
exterior
fulfil
symonds
haq
andrzej
twenty-nine
decomposed
essays
ptt
cpo
unsustainable
debutant
mcaleese
detector
disguise
kosovar
stein
blunkett
bhopal
cessna
strives
geese
sixes
anti-drugs
praises
journeys
bedeviled
joblessness
rages
five-under-par
filter
co-defendant
ghosn
victimized
lurid
abdullahi
ballooned
chien-ming
contacting
gouging
o'hare
midfielders
kitchens
carcasses
stewardship
malnourished
brennan
enticing
parsons
bushfires
das
spadea
dislodge
vivian
mirrors
wrestle
hawkins
chanel
airtran
filip
limestone
winningest
jockeying
zsa
bach
depicts
wills
hiv-infected
thoroughfare
avoidance
raining
ctbt
wean
theological
l'aquila
black-clad
plentiful
layers
quasi-official
notifying
baritone
suitors
cilic
nonfiction
iniesta
sniping
anti-globalisation
bucked
appropriately
penthouse
clamping
morton
urals
midlands
picabo
canseco
vanunu
sophia
tram
gough
four-match
tranche
manu
kisses
flammable
ople
disposed
brom
shave
northampton
gathers
bettman
transmissions
stallone
rejuvenated
wasteful
aegon
phases
batches
obiang
misuari
oumar
poppies
georg
narayanan
wiranto
morten
incest
prickly
###nd
muller
umar
meddle
isinbayeva
aaa
skanska
trumpet
lawns
tripling
fastow
gilded
popov
rhine
vetting
sins
mta
co-founded
bilked
astronomer
riveted
freeways
invoke
redstone
sultry
nonessential
baked
tahoe
specifics
steele
voucher
kiriyenko
yilan
u.s.-born
trans-dniester
prestigioso
circulacion
contagion
worst-hit
privatise
expanse
retract
sihamoni
kickstart
unrwa
foday
slicing
preach
ince
#min
indira
respecting
posture
morphine
humid
compartment
natal
wolverhampton
overcharged
kumble
timberlake
giuliano
madras
post-world
erecting
deplorable
scales
automation
shaughnessy
pioline
respirator
copied
irl
curacao
engagements
sociologist
montevideo
ricard
governor-general
likening
prom
brokeback
cagliari
scoffed
face-off
goose
abdomen
tiles
aker
bio
bernstein
distract
passages
kimiko
volker
fuselage
demonstrates
certify
francisco-based
second-term
husbandry
doctoral
seeming
surfer
dread
leigh
moynihan
starkly
bernardino
pixar
ribery
crab
proceden
qinghua
ruinous
plush
spring-summer
yogurt
redress
diplomas
boycotts
profiting
dior
flagged
shrapnel
lauro
decay
sergi
bardot
mahindra
glickman
re-examine
nguema
revoking
viking
lancet
#,###-pound
ljungberg
boatload
bielsa
diarra
terrence
verses
differed
indy-car
kendall
unfold
bombshell
re-entry
harbhajan
herds
greedy
mccoy
aggravate
jute
mari
beneficiary
percy
ceded
britain-based
us-bound
quickest
hendrick
ufj
decaying
gautam
nab
habib
larissa
scarcity
red-carpet
occurrence
incurable
ashamed
cheek
tissues
projecting
faustino
televisa
computer-related
sse-##
periodic
rompuy
lazard
dahlan
marlies
recruiters
schwartz
racy
palo
pediatric
processions
nationsbank
gut
glossy
cheryl
cypress
pickups
mckinney
mashaal
maddon
cetra
splits
abyss
booted
theologian
defecting
focussed
biscuits
munch
traumatic
hooper
leighton
kms
raking
rejoining
disintegration
policy-setting
satanic
primate
mid-day
ticketing
f-###
al-hakim
laundered
neverland
shaving
mussolini
mangrove
strobe
glee
polaroid
sathirathai
sects
jamil
pique
idyllic
comoro
mauling
scandal-ridden
puppy
co-star
co-hosts
heyday
fabricating
nikos
leroy
amicable
riven
nine-member
initiating
breakers
grizzly
sub-regional
pageantry
schalken
superhero
high-performance
malays
aura
yugoslavian
successors
caicos
waking
coldest
fermin
piercing
northward
helena
compromising
techno
inferior
imprint
tam
ashura
mitrovica
grenadines
frankel
louder
meatpacking
jagged
mojave
pachuca
back-to-school
switzer
boueiz
pyi
cobra
witchcraft
underpin
savers
correspondence
champs
umberto
pastime
cso
contraceptives
bureaus
light-water
recouped
prelate
anti-money
guillen
trudged
ldp
consistency
khaddam
tireless
complement
monstrous
dour
thurman
south-east
short-covering
hoechst
unqualified
disused
mod
tongan
squandering
remo
maung
macabre
heartbreak
fracturing
enmity
lamenting
watford
eco-friendly
parishes
offical
blueprints
boldest
rolex
hardening
wicked
upton
sjeng
redgrave
cites
vanishing
callers
majoli
restricts
recede
experimenting
selena
sino
summoning
laptops
stanislav
mehsud
barr
ecosystems
disaffected
assertive
strickland
universidad
cute
potash
jarring
hezbollah-led
hoffenheim
click
epee
pattani
whitey
calif.-based
jeffords
wares
emblazoned
backtracked
refocus
pre-trial
aga
streisand
state-funded
cheapest
lili
feverish
betraying
horrendous
uncharted
plumbing
shades
flares
tariceanu
salaried
buzzed
rands
arise
tusks
defaulting
daniele
miracles
##,###,###
grit
world-wide
runup
sikhs
vo
thales
mercer
vu
popularly
stretcher
foresees
fragmented
tabloids
mum
ronny
feeble
simpler
nicol
brighton
michaela
persists
allure
cellist
sandstorms
tightest
us-made
reckoning
egan
marooned
smarting
astronomy
tu
hearty
seeding
infield
lamont
zenit
mi
mei
irishman
vineyards
overlook
reverberated
ill-gotten
thundered
depress
jewell
nong
warri
entertained
converts
dictators
visibly
catholicism
misdeeds
philosophical
sphere
gadget
filthy
bailed-out
zhili
sandwiches
choreographed
measurement
n.m.
ragged
lamps
accenture
intrusive
nasdaq-###
lust
pros
horticulture
modano
ceramics
rancor
beheadings
vin
nickelodeon
couric
phisix
metre
heckled
yantai
russian-built
armaments
caldera
bild
utrecht
besieging
crucifixion
long-lost
ruddock
camels
descendant
giles
waned
coronation
phasing
objecting
yue
tabs
improprieties
moasher
preachers
farrell
forlan
refereeing
anson
pnc
langkawi
davidson
redwood
shacks
xenophobia
bridging
overflow
asia\/oceania
drying
katarina
formulated
mainz
mcnabb
vinokourov
subordinates
detour
cartagena
cma
bunny
misses
hanssen
depleting
roundtable
revitalizing
natives
single-family
stevie
multiethnic
rapids
canoeing
schild
cosco
displacement
conditioners
lighted
tangle
third-period
vitality
stepfather
inquirer
potomac
avon
chou
loew
u.s.a.
ndrc
drown
swank
grossly
sharpening
philanthropic
creations
soares
futures-linked
encampment
apathy
warburg
pac
bentley
soleil
sprinting
abductors
nut
mobilised
freeport
seven-wicket
paola
accredited
beached
suffocating
chauffeur
full-back
ackermann
injury-hit
horta
pro-british
nongovernmental
demobilization
locomotives
privatised
feeds
#.#-meter
curfews
micron
divisional
discounting
speedskater
galloway
onassis
s-###
andreev
joyful
turboprop
sweetheart
stockpiled
quakes
downgrades
budweiser
flirted
frames
up-and-coming
divergent
gallup
complexity
search-and-rescue
fateful
#,###-acre
death-row
coincidence
swindler
rotten
cutter
grower
sewer
underperforming
adventurers
salsa
amelia
halfpipe
apolo
shone
military-led
gambino
bratton
exerting
sleiman
four-member
mendes
monopolies
mp#
menus
pile-up
repayments
throes
bari
undoubtedly
theology
half-centuries
caved
earner
##min
cylinder
loya
sport-utility
warwickshire
preventable
ine
programmer
despicable
parenthood
meghann
jinx
abetting
ogata
chamberlain
jaroslav
chiu
nepotism
tenerife
lange
reggina
thread
foreign-owned
dillon
ceilings
abstain
comprised
portman
boonen
macho
trinity
screenings
olazabal
infringing
hanoun
naive
speedboat
disciplines
lau
kucera
symbolized
plunges
desegregation
courtship
fleeting
plum
traitors
alienated
goa
mid-april
compatible
shia
pro-tibet
riesch
allergic
univision
braking
bearded
nineveh
lynx
hamas-controlled
jailhouse
boise
resuscitate
metro-goldwyn-mayer
hinges
acapulco
bps
hug
clamoring
gators
lenox
##.#-kilometer
mazar-e-sharif
out-of-state
mathematical
sinaloa
downgrading
woeful
minya
hulk
repo
scotch
martins
libreville
monasteries
check-in
chapman
stigma
meteorite
decommissioned
bankroll
shielded
analog
madhav
contemplate
heartbreaking
apartheid-era
disappearances
teheran
dependency
cc
f-#
winters
polygamy
mortal
calculations
humbling
tight-lipped
conscripts
wilder
intrepid
seaports
hordes
shuai
al-masri
tagged
campers
negatively
wooed
canals
falter
mantilla
bouake
governorship
anti-islamic
yimou
mending
shutdowns
barnett
placate
connors
harrah
shui
mutineers
bashing
cleaners
noir
blacked
sensor
predatory
rendering
footprint
gemayel
shooters
acreage
paring
jeweler
nidal
blogs
drugmakers
premise
assortment
gooden
matsuzaka
weekday
tammy
barbra
ain
maximize
#.#-billion-euro
hurtled
vented
preferring
abdur
mushrooming
gentleman
fungus
nazareth
geographical
unc
martyn
panitchpakdi
cullen
hermes
scaring
adolfo
iqbal
menopause
second-placed
wintry
low-budget
blantyre
noodles
murder-suicide
jesper
distorting
fleischer
underprivileged
romulo
tal
sandrine
linde
soul-searching
atiku
kony
capello
ludwig
veronica
sonoma
soriano
reshuffling
sweating
hangover
watkins
wilkins
carly
xm
whiskey
traps
haji
pointedly
assign
swazi
introduces
intake
mig
agnes
kohlschreiber
sakic
unimaginable
around-the-world
sanjay
anti-discrimination
scissors
miraculous
painters
dehydration
viet
footprints
mansions
joints
premier-designate
illuminated
plowing
glavine
germs
regis
lewd
roxana
anchors
saniora
therapies
leveraged
begum
gurkha
six-point
make-up
bounded
revolving
quantum
quizzed
fertilization
invincible
pharmacia
reneged
enshrined
dec
professionalism
directory
feverishly
knife-wielding
darius
electrocuted
solberg
festus
hemispheric
sushi
foiling
devising
andersson
hakkinen
coppola
orban
transfusions
ip
pccw
sukhoi
scholes
pais
paleontologists
interceptor
docks
tormented
boomtown
problematic
mcconnell
stuttering
neatly
election-related
hydraulic
carolyn
segregated
f\/a
prosecutor-general
agendas
conoco
downright
mantra
scripps
stoyanov
aspiration
subsequently
stemmed
helms-burton
roast
settings
hiker
distancing
karolos
surin
malfunctioned
respondents
bahamian
sirius
conflicted
riccardo
microscopic
mpr
hazing
al-jaafari
querrey
fuhrman
smoltz
saks
islandwide
pirro
cobb
fairway
china-u.s.
ind.
yoko
iberdrola
rowan
shortlisted
sanctuaries
magician
china-made
vividly
snuff
taunting
non-communist
day-old
indo
pierced
thirty-two
psychiatrists
arbil
afonso
splendor
iceberg
insensitive
penang
[...]
